<unk>
<pad>
<s>
</s>
,
.
the
de
a
to
of
le
et
que
and
la
est
les
that
in
is
I
it
s@@
en
à
un
t@@
&quot;
on
you
l&apos;
er
des
e@@
ce
b@@
r@@
c@@
&apos;s
une
y
in@@
es
p@@
--
re@@
l@@
d&apos;
o@@
we
vous
g@@
é
And
f@@
d@@
ed
m@@
nous
qui
?
i@@
h@@
é@@
ing
this
n@@
dans
s
v@@
pas
Et
il
pour
e
-@@
se
u@@
je
ent
er@@
w@@
on@@
an
ch@@
me
t
ne
:
di@@
du
ti@@
are
an@@
or@@
al
at@@
ons
en@@
ation
al@@
S@@
qu&apos;
was
as@@
ar@@
a@@
ac@@
is@@
y@@
li@@
dé@@
at
ant
st@@
have
d
as
for
ré@@
c&apos;
plus
they
be
ai
ez
re
con@@
one
C@@
A@@
M@@
am@@
qu@@
D@@
with
can
all
P@@
te
n&apos;
&apos;t
sur
or
mo@@
what
ag@@
it@@
about
l
So
au@@
ro@@
ri@@
au
ers
ly
i
k@@
ont
ement
è@@
si@@
ait
ces
vi@@
B@@
ils
’
es@@
j&apos;
el@@
do
sont
ent@@
th@@
there
ap@@
tion
avec
po@@
ex@@
not
ai@@
tr@@
em@@
T@@
su@@
le@@
fait
par@@
out
elle
et@@
N@@
Je
o
aux
dis@@
ts
ec@@
&apos;re
It
av@@
ou@@
ic@@
pr@@
si
op@@
p
k
ça
our
like
age
co@@
ad@@
C&apos;
us
so
tout
people
cette
comme
able
un@@
E@@
se@@
n
ma@@
but
pl@@
ment
from
faire
ée
ab@@
♫
il@@
ter
par
per@@
ci@@
im@@
L@@
Il
avons
ais
ence
était
ity
om@@
ol@@
lo@@
very
de@@
ter@@
ve
my
h
ine
ar
1@@
know
us@@
just
u
ate
for@@
ou
és
r
ér@@
The
mais
s&apos;
ité
eur
up
ans
Mais
We
fi@@
ul@@
But
ur@@
going
ds
R@@
if
gr@@
pos@@
ess@@
he
these
enti@@
pro@@
ni@@
c
eu@@
H@@
j@@
m
z@@
G@@
être
très
all@@
ue
com@@
ère
bien
ver@@
Nous
ance
eux
them
by
res
tes
res@@
F@@
think
get
which
mes
dev@@
do@@
because
ain
ot@@
ents
I@@
see
O@@
ir
monde
had
ser@@
tu@@
son
ture
br@@
end@@
to@@
more
ati@@
really
when
thing
here
gens
ph@@
chose
This
dit
how
&apos;ve
bo@@
th
el
même
would
pi@@
J@@
ard
cela
W@@
time
You
he@@
no@@
our@@
me@@
été
ét@@
your
&apos;m
ie
fin@@
way
who
té
vo@@
and@@
mi@@
tions
don
ev@@
then
world
were
gu@@
ig@@
ill@@
ad
gi@@
éri@@
where
x@@
lu@@
things
go
ks
leur
mon@@
sp@@
ses
has
ous
car@@
be@@
f
ten@@
ations
their
sion
voir
A
ally
;
te@@
où
Donc
Vous
some
comp@@
actually
eurs
J&apos;
sh@@
aire
che
cu@@
cr@@
ne@@
der
into
quand
La
ang@@
years
ge
onn@@
now
will
mar@@
ale
suis
cou@@
vraiment
int@@
ir@@
&apos;
ble
cl@@
ques
its
tri@@
tous
aient
ies
choses
ite
ob@@
peut
inter@@
pré@@
want
avoir
so@@
beaucoup
ê@@
bl@@
vis@@
cor@@
notre
um@@
ven@@
ire
2@@
other
aussi
tre
là
bi@@
elles
Ch@@
wor@@
ra@@
autre
cel@@
donc
fr@@
vie
ch
said
make
parce
mon
Ce
They
K@@
could
tro@@
been
eu
g
min@@
cre@@
5
dire
right
tic@@
plan@@
Now
uni@@
comm@@
chang@@
ici
deux
entre
quelque
x
sur@@
ets
Les
iss@@
ther
got
Le
king
ants
str@@
On
pu@@
temps
des@@
soci@@
something
ées
come
él@@
ely
id@@
little
rai@@
wh@@
fo@@
ting
ect
ins
sol@@
ay@@
eff@@
sou@@
du@@
fois
cap@@
ked
ain@@
m&apos;
avait
tique
por@@
end
cul@@
much
ing@@
od
fl@@
V@@
0
part
mé@@
peu
That
we@@
say
autres
Ils
â@@
work
w
kind
most
ves
than
am
fai@@
go@@
pe@@
no
two
compl@@
back
mat@@
ach@@
first
oc@@
-
ma
0@@
cert@@
look
pouvez
pe
In@@
man@@
pense
trans@@
aut@@
those
ess
votre
ens
ated
s-@@
mor@@
over
conn@@
lot
ase
!
esp@@
body
ici@@
try
uc@@
ta@@
moi
rel@@
pens@@
ille
fu@@
der@@
ff@@
pou@@
En
cho@@
b
life
new
also
ass@@
What
old
vers
avez
even
tur@@
différ@@
oun@@
vais
ist@@
4@@
pres@@
ors
point
only
ise
st
sy@@
ful
dic@@
any
ps
ion
leurs
important
iti@@
There
comment
ante
his
&apos;ll
19@@
cré@@
vol@@
ouv@@
question
nos
sc@@
she
down
take
gen@@
did
entr@@
spec@@
dr@@
Alors
ains
arri@@
2
ever
t-@@
voul@@
gro@@
ic
around
.@@
many
ver
coun@@
ay
mer@@
need
good
3@@
ted
alement
bas@@
pour@@
ty
proj@@
In
put
bu@@
juste
pass@@
place
cri@@
day
Si
années
gl@@
pre@@
...
10
sommes
savez
inv@@
quoi
ace
hi@@
produ@@
dont
rs
sor@@
én@@
lic@@
U@@
her
va
Al@@
Qu@@
ç@@
tant
sup@@
rem@@
fon@@
use
ws
Com@@
ars
maintenant
lig@@
anc@@
different
encore
tal@@
00
doing
L&apos;
aine
dem@@
ellement
port@@
tra@@
vers@@
ast
ères
liv@@
eau
aires
façon
8@@
sa
ber
itu@@
Well
fac@@
bil@@
dec@@
ution
ong
ég@@
being
any@@
els
happen@@
6@@
travail@@
5@@
men@@
ô@@
personnes
als
moment
through
same
If
alors
toutes
veux
ary
cont@@
ions
dro@@
fe@@
ari@@
enfants
utilis@@
some@@
cro@@
ning
iz@@
He
ho@@
every
stu@@
ame
aines
9@@
Th@@
ant@@
ren@@
commun@@
mil@@
nouv@@
wr@@
tive
ls
ail@@
besoin
side
dollars
ordin@@
change
hum@@
ve@@
proc@@
cher@@
Wh@@
eng@@
ages
contr@@
ical
pendant
ines
ke
tiv@@
jou@@
ous@@
mis@@
met@@
called
ements
idée
tat@@
ice
sé@@
appel@@
Y@@
grou@@
ight
ms
tic
pays
Voici
ol
&apos;d
possible
ss@@
pris
ress@@
air
50
ots
made
ating
fer@@
coll@@
heu@@
OK
sans
long
ique
ce@@
three
inst@@
tres
ment@@
voy@@
art
mer
alis@@
red
ays
cli@@
per
plu@@
7@@
essay@@
parti@@
lui
quelques
sus
histoire
expl@@
arr@@
gar@@
aff@@
ure
20
car
cour@@
rap@@
probab@@
acc@@
log@@
moins
sho@@
well
hui
self
jamais
fais@@
cher
pic@@
ences
mal@@
ign@@
loo@@
inc@@
os
Un@@
derni@@
jo@@
non
prendre
qui@@
pen@@
val@@
tement
éch@@
bio@@
produc@@
trav@@
plac@@
year
mag@@
exp@@
parler
1
viv@@
happ@@
rement
vent
um
loc@@
sions
cent@@
logi@@
hom@@
toujours
3
ory
après
diff@@
poli@@
talk
bon
ru@@
design
rec@@
why
ave
seu@@
buil@@
ear@@
sort
act
app@@
num@@
gre@@
cer@@
percent
seulement
rait
science
ner
idea
est-ce
course
col@@
great
problème
simple
ème
En@@
human
erre
soit
att@@
imp@@
4
sec@@
ish
fem@@
fact
000
ches
obj@@
ables
trois
voyez
ell@@
ci
ago
prot@@
partie
pri@@
chaque
ile
vern@@
endre
last
lear@@
avant
mus@@
pren@@
ems
went
low
personne
bit
étaient
cam@@
trouv@@
ep
êtes
big
tionn@@
,000
tell
8
igh@@
dent
didn
ones
cep@@
quel
thought
élé@@
ding
nes
man
hav@@
another
lement
serv@@
avais
off
Elle
find
show
let
ales
nat@@
onne
phot@@
toute
millions
aller
imag@@
jour
started
bre
ft
peuvent
sub@@
milli@@
ais@@
nomb@@
sen@@
Maintenant
ards
iste
hel@@
kes
An@@
af@@
ative
sem@@
cet
million
pouvons
give
ut
abor@@
trou@@
puis
anti@@
os@@
abil@@
sorte
intéress@@
constru@@
arti@@
manière
aiss@@
alité
wing
aujourd&apos;
donn@@
own
ès
dia
ette
ler
mettre
ke@@
times
ateur
om
with@@
première
pouv@@
conc@@
should
demand@@
out@@
répon@@
ok
used
direc@@
ète
gs
phy@@
système
ition
porte
today
commencé
ilà
bre@@
6
sm@@
envir@@
étais
mean
wn
iv@@
tent
long@@
after
nature
e-@@
water
cal@@
information
quel@@
ple
tre@@
ded
grand
peti@@
7
arg@@
exemple
dat@@
peut-être
kno@@
semble
vir@@
sûr
ound
sel@@
cle
veu@@
Ou@@
regar@@
start
quer
before
croy@@
every@@
mas@@
travail
nor@@
popul@@
mach@@
ograp@@
thé@@
prof@@
ène
part@@
ey
cip@@
compu@@
«
beg@@
system
train
ving
Un
deven@@
problem
auv@@
hy@@
ically
can@@
better
pourquoi
does
ia
came
Une
ités
vu
anim@@
never
mod@@
him
import@@
ved
endro@@
assez
meill@@
oul@@
sure
act@@
again
décou@@
parl@@
whole
cur@@
struc@@
ites
i-@@
next
Cela
march@@
oug@@
famil@@
petit
aliz@@
story
bus@@
Americ@@
met
enf@@
shi@@
»
fonc@@
ennent
port
rien
technology
bot@@
entre@@
looking
ned
près
regard@@
ber@@
cin@@
hou@@
tour@@
gran@@
sa@@
Vo@@
aur@@
ier
read@@
ties
30
qu
Because
ceci
Bi@@
grande
my@@
som@@
char@@
depuis
might
onal
still
suc@@
wer
ack
imagin@@
organis@@
fs
tiques
ans@@
inf@@
100
Merci
lit@@
ends
tru@@
jour@@
done
présent@@
environ
together
z-vous
clo@@
dou@@
tu
stitu@@
ying
mu@@
hab@@
jusqu&apos;
ient
few
appro@@
face
too
éco@@
fic@@
comes
ect@@
ited
pris@@
appelle
genre
ist
off@@
hu@@
mark@@
aî@@
each
iness
ational
image
respon@@
ands
9
appar@@
aying
ot
ge@@
musi@@
expéri@@
mal
sk@@
ates
the@@
huma@@
û@@
trouver
ancer
dd@@
experi@@
font
idé@@
Su@@
ects
scho@@
sul@@
cô@@
mis
ection
TED
ater
Mo@@
love
incre@@
auc@@
dre
Parce
pon@@
ze
between
prin@@
C
When
ann@@
mes@@
sig@@
id
doesn
solu@@
lang@@
génér@@
technologie
dom@@
fil@@
ments
montrer
moy@@
ple@@
rac@@
&#91;
&#93;
fri@@
ris@@
New
ings
pas@@
la@@
sens
S
iture
action
tures
How
ieu
vr@@
Quand
ach
gener@@
reli@@
enne
vos
real
ten
wanted
four
ête
entes
six
ah
avaient
away
Thank
bles
vou@@
pourrait
forme
less
suiv@@
light
Ça
ill
tou@@
ton
wom@@
connaiss@@
reas@@
ish@@
lev@@
passé
ss
%
trai@@
créer
ther@@
ote
rir
call
économ@@
peux
Dans
ide
ty@@
understand
esse
cas
ide@@
dre@@
ues
étudi@@
ali@@
beau@@
neu@@
écr@@
concep@@
lar@@
pes
adi@@
faut
children
est@@
quelqu&apos;
lent
spe@@
bas
brain
indus@@
sais
fun@@
always
icul@@
archit@@
minutes
person
ation@@
exc@@
quement
sti@@
questions
ban@@
fas@@
rent
particu@@
Re@@
utiliser
voici
ectr@@
ope
ak@@
stuff
bat@@
passe
comprendre
coming
truc@@
type
Go@@
crois
nam@@
chi@@
design@@
gh@@
Oh
antes
form@@
bor@@
Africa
public
bonne
cid@@
premier
working
dur@@
extr@@
ics
ital
lors@@
nouveau
devons
era
ange
cent
commenc@@
ances
progr@@
fig@@
found
har@@
live
î@@
ateurs
signi@@
trying
aw@@
second
ful@@
tries
believe
ind@@
enc@@
nu@@
rez
bou@@
program@@
arriv@@
indivi@@
omb@@
ough
partic@@
reux
cours
nov@@
esti@@
ree
cerveau
space
may
plutôt
syst@@
aut
sim@@
sour@@
line
sense
Afrique
exact@@
ente
prim@@
az@@
développ@@
everything
example
ix
san@@
simplement
dn
énergie
aison
déjà
scientifi@@
ger
hal@@
200@@
lim@@
penser
ye@@
One
eil
homme
money
wal@@
Ar@@
Here
duc@@
organ@@
prise
ry
ade
ax@@
surface
prop@@
thinking
cord
kin@@
tribu@@
ys
building
Pour
ome
petite
problèmes
took
pé@@
B
ducation
ature
hist@@
publi@@
actu@@
année
kids
St@@
ail
sph@@
play
intel@@
them@@
évol@@
Intern@@
Par@@
cas@@
hor@@
sive
Ear@@
mem@@
anci@@
quite
elop@@
chez
ainsi
argent
ju@@
selves
ensuite
vient
enough
jeu@@
pati@@
embl@@
getting
laquelle
ths
til@@
conf@@
pol@@
pret@@
ick@@
illes
pat@@
réalis@@
dri@@
glob@@
secon@@
ause
emp@@
grap@@
interesting
dge
mati@@
vert
consi@@
ected
land
pression
à-@@
continu@@
ial
econom@@
film
form
using
Yor@@
ere
may@@
oy@@
ak
ness
tun@@
These
bal@@
contin@@
fin
verse
dam@@
feel
making
possi@@
site
donner
données
energy
ext@@
dy
puis@@
power
technologi@@
ell
jours
wi@@
pul@@
ima@@
suite
fam@@
D
q
pend@@
enn@@
z
probl@@
ank
,@@
z-@@
É@@
œ@@
fe
El@@
tw@@
personn@@
tho@@
chil@@
ways
star@@
20@@
ière
ki@@
ï@@
sci@@
int
Q@@
din@@
aus@@
coup
differ@@
logy
bli@@
pers@@
constr@@
mê@@
gén@@
ew
tech@@
bel@@
ought
Z@@
montr@@
eci
veau
H
informa@@
oir
j
ich
inten@@
tern@@
ght
em
ong@@
V
T
minu@@
prés@@
fa@@
cha@@
forma@@
èmes
temp@@
étu@@
nd
quelle
exper@@
oll@@
Ma@@
ese
premi@@
tle
interes@@
N
under@@
underst@@
intér@@
hap@@
jus@@
histo@@
wit@@
fro@@
indi@@
G
util@@
ever@@
est-@@
gie
exam@@
erg@@
aid
ole
onom@@
M
Afric@@
mom@@
simpl@@
/
ec
L
scienti@@
P
reu@@
û
arch@@
peu@@
ow
dévelop@@
ld
otre
J
ext
jam@@
E
vrai@@
oi
X@@
ople
–
org@@
F
fir@@
core
doll@@
faç@@
iev@@
ques@@
thr@@
his@@
ors@@
W
fore
R
´
O
believ@@
fric@@
K
t-être
TE@@
exemp@@
$
ould
Cel@@
call@@
À
tôt
glo@@
sû@@
ff
quot@@
X
ign
ù
jourd&apos;
ôt
thin@@
ll
beso@@
&apos;@@
Y
etting
prob@@
techno@@
wan@@
U
déj@@
v
ë@@
bes@@
apos@@
°
till
velop@@
éner@@
&@@
Mer@@
..
q@@
…
“
”
Z
ï
Ê@@
conom@@
dren
bet@@
Q
—
)
ö@@
ergy
uch
ü@@
lem
#
‘
™
+
á@@
=
ween
onc
¨
²
esn
gether
Â@@
*
(
Afri@@
è
ë
♪
½
ã@@
ñ@@
Î@@
à@@
ä@@
@
£
º
ó
Amer@@
^
æ@@
ô
ȇ@@
®
Ç@@
í@@
_

á
ó@@
ú
€
¥
©
¾
É
ù@@
Ė@@
Œ@@
�
&#@@
º@@
È@@
Ì@@
Ô
â
ò@@
ú@@
ā@@
ć
ň@@
š@@
˚
ị@@
