#version: 0.2
p o
t h
e n
e s</w>
po s
a n
o u
a pos
& apos
i n
q u
o n
r e</w>
&apos ;</w>
a i
t i
e r
e s
d e</w>
l e</w>
th e</w>
o n</w>
a r
e r</w>
i s</w>
en t</w>
a l
a t</w>
r e
o r
o m
ou s</w>
e l
in g</w>
e n</w>
t o</w>
t r
e t</w>
qu e</w>
&apos ;
i t
c h
a v
c e</w>
an d</w>
o f</w>
p r
i s
a s</w>
o t
n e</w>
l es</w>
e u
a u
i t</w>
e m
i l
l a</w>
es t</w>
i n</w>
s e</w>
e d</w>
a t
m e</w>
o u</w>
l i
th at</w>
s u
on s</w>
d i
a c
p l
c om
u n</w>
w h
a n</w>
qu ot
t e</w>
quot ;</w>
& quot;</w>
ti on</w>
i c
y ou</w>
a s
l &apos;</w>
e c
th e
a b
d es</w>
n o
po u
ai t</w>
s i
m a
n d</w>
an s</w>
r i
&apos; s</w>
u ne</w>
c on
an t</w>
l o
r o
d &apos;</w>
ai s</w>
s t
ou t</w>
l y</w>
en t
e t
- -</w>
a p
v ous</w>
w e</w>
m o
p ar
pr o
e v
A nd</w>
o r</w>
T h
n ous</w>
e z</w>
a g
e x
qu i</w>
u s
o l
on t</w>
a l</w>
t u
a m
th is</w>
d ans</w>
i l</w>
u s</w>
em ent</w>
v er
v i
p as</w>
E t</w>
d é
pou r</w>
v e</w>
o p
é t
c ou
r é
j e</w>
e re</w>
i r</w>
p e
a r</w>
u t</w>
c i
qu &apos;</w>
b e
p er
a tion</w>
d u</w>
ou r</w>
t re</w>
u n
a re</w>
in t
g r
k e</w>
m ent</w>
f f
av e</w>
a y</w>
a u</w>
w as</w>
i m
l d</w>
g o
t s</w>
al ly</w>
i g
en d
v o
h ave</w>
a ti
on e</w>
f or</w>
u l
c &apos;</w>
pl us</w>
r s</w>
the y</w>
s e
b e</w>
a i</w>
s i</w>
al l</w>
s om
c es</w>
b i
ch o
w it
m on
d o
eu r</w>
s h
é r
f or
f ai
eu x</w>
w or
wit h</w>
t o
l e
c an</w>
c o
n &apos;</w>
&apos; t</w>
su r</w>
wh at</w>
u c
po r
el le</w>
on n
an g
o w</w>
a y
ab out</w>
es s
t es</w>
th in
S o</w>
d e
r es</w>
no w</w>
g i
j us
er s</w>
m es</w>
f i
s o</w>
a in
è s</w>
h t</w>
t er</w>
p en
e c</w>
d s</w>
p u
il s</w>
a d</w>
ou r
j &apos;</w>
g en
th er</w>
d o</w>
s ont</w>
the re</w>
al l
av ec</w>
è re</w>
no t</w>
th ing</w>
a d
et te</w>
f ait</w>
ai n</w>
n e
en ce</w>
n i
t er
J e</w>
p h
u m
u r
au x</w>
d is
s o
&apos; re</w>
I t</w>
é e</w>
c el
ent s</w>
s t</w>
t e
s es</w>
op le</w>
ç a</w>
in e</w>
f ro
li ke</w>
ag e</w>
ar s</w>
C &apos;</w>
é s</w>
it é</w>
ou v
t out</w>
f o
b l
pe ople</w>
on c</w>
d ev
c ette</w>
com me</w>
ab le</w>
s p
es e</w>
b o
b ut</w>
eu rs</w>
fro m</w>
en ti
fai re</w>
com m
au se</w>
ê tre</w>
m i
p ar</w>
r ai
a ce</w>
I l</w>
av ons</w>
qu el
m e
ét ait</w>
it y</w>
it e</w>
ver y</w>
e l</w>
k ing</w>
m y</w>
s on</w>
ou g
as s
k now</w>
b le</w>
di ff
p eu
jus t</w>
g s</w>
ot re</w>
or s</w>
at e</w>
r es
qu es</w>
s er
ec ause</w>
Th e</w>
m ais</w>
s &apos;</w>
y e
s tr
u p</w>
M ais</w>
W e</w>
ou ld</w>
m an
B ut</w>
go ing</w>
ai ent</w>
i f</w>
d er
m ar
h e</w>
é es</w>
th ese</w>
0 0</w>
b r
em p
ic h</w>
l u
f in
m il
ap p
ic i</w>
s y
el l</w>
t ou
g e</w>
an d
tr ès</w>
p re
u e</w>
bi en</w>
t -
N ous</w>
es s</w>
an ce</w>
d es
por t
the m</w>
b y</w>
w ay</w>
il l
tr i
lo o
e y</w>
ti ons</w>
b u
t ed</w>
thin k</w>
g et</w>
m ê
pou v
é ri
ti l
wh ich</w>
W h
pr é
b ecause</w>
se e</w>
i re</w>
ti c
c er
o b
mon de</w>
h ad</w>
o d</w>
d u
ay s</w>
tu re</w>
f r
an ts</w>
ch ang
int er
si on</w>
mo re</w>
som e
s or
a me</w>
f u
ac tu
o ther</w>
re ally</w>
c r
wh en</w>
l ement</w>
w n</w>
t ing</w>
t a
h ere</w>
g ht</w>
gen s</w>
m in
u re</w>
il l</w>
v er</w>
é n
cho se</w>
tr o
Th is</w>
d it</w>
h ow</w>
&apos; ve</w>
t h</w>
per s
tr av
mê me</w>
w ould</w>
p i
ar d</w>
l s</w>
in s</w>
cel a</w>
ti me</w>
Y ou</w>
h e
be au
av ez</w>
ét é</w>
y our</w>
&apos; m</w>
i e</w>
wh o</w>
tr es</w>
t é</w>
é l
e au</w>
c or
d on</w>
ev er
i ma
th en</w>
ou nd</w>
pou r
wor ld</w>
w ere</w>
g u
c re
e u</w>
ol l
A l
cou p</w>
wh ere</w>
è me</w>
thin gs</w>
g o</w>
k s</w>
o ir</w>
l eur</w>
au s
h as</w>
l it
c ar
t en
ati ons</w>
the ir</w>
v rai
mil li
j ou
vo ir</w>
su r
s ol
o ù</w>
D onc</w>
c e
som e</w>
V ous</w>
com p
s s
an n
actu ally</w>
g ar
c ro
J &apos;</w>
end re</w>
ai re</w>
ch e</w>
int en
c u
w e
d er</w>
in to</w>
ac k</w>
qu and</w>
L a</w>
ye ars</w>
ai d</w>
f e
te ch
w ill</w>
h u
an s
a le</w>
su is</w>
vrai ment</w>
i r
on ne</w>
ai l
c l
s el
k in
it s</w>
si m
t ous</w>
i es</w>
en s</w>
v es</w>
oug h</w>
cho ses</w>
p e</w>
peu t</w>
o i</w>
vi r
t emp
p le</w>
on g</w>
w ant</w>
con n
av oir</w>
beau coup</w>
im port
qu es
t le</w>
con t
v is
I n
n otre</w>
t al
v en
t w
aus si</w>
l à</w>
s ci
el les</w>
C h
r a
po n
lo g
au tre</w>
pen s
ev er</w>
as t</w>
sy st
d onc</w>
f ac
d ay</w>
d y</w>
lo gi
vi e</w>
ou l
s aid</w>
c h</w>
th o
inten ant</w>
ma ke</w>
par ce</w>
m on</w>
C e</w>
m er
Th ey</w>
cou ld</w>
d uc
c ré
st ar
be en</w>
is t
d em
pe ti
qu oi</w>
is e</w>
di re</w>
h i
ri ght</w>
u til
pl an
pr es
N ow</w>
h um
un i
s ec
f e</w>
d eux</w>
quel que</w>
ent re</w>
f on
v ol
et s</w>
L es</w>
is s
go t</w>
tech no
ar ri
L e</w>
en c
p ass
pro bl
cou r
in t</w>
O n</w>
vo y
temp s</w>
par ti
so ci
some thing</w>
an c
Q u
com e</w>
m et
fi r
el y</w>
i d
lit tle</w>
ec t</w>
en f
s eu
i z
e ff
s ou
pro b
fo is</w>
g re
c ap
d onn
k ed</w>
uc h</w>
m &apos;</w>
av ait</w>
ti que</w>
en d</w>
c ul
v ent</w>
m uch</w>
in g
f l
par t</w>
m é
pe u</w>
Th at</w>
l er</w>
0 00</w>
V o
s ay</w>
ig ht</w>
au tres</w>
I ls</w>
wor k</w>
kin d</w>
mo st</w>
re c
util is
f a
th an</w>
i dé
a m</w>
n o</w>
tw o</w>
st u
com pl
b ack</w>
pre mi
m at
a ch
fir st</w>
n ouv
o c
m a</w>
cer t
pouv ez</w>
loo k</w>
or y</w>
pr ès</w>
diff er
pen se</w>
tr ans
au t
tho se</w>
pers onn
v otre</w>
n at
ex p
a f
at ed</w>
s -
j our
m or
o ver</w>
lo t</w>
s em
a se</w>
es p
ic i
bo dy</w>
re e</w>
tr y</w>
pl u
c i</w>
re l
mo i</w>
ig n
p end
f f</w>
pos si
pr endre</w>
il le</w>
E n</w>
al is
r ait</w>
l l</w>
ne w</w>
li fe</w>
ima g
tr ouv
al so</w>
Wh at</w>
b li
ol d</w>
ver s</w>
i de
pu is</w>
ev en</w>
d in
tu r
diff ér
ou n
v ais</w>
c ent</w>
h om
po int</w>
on ly</w>
h ap
bu il
h is
fu l</w>
for ma
re gar
en vir
di c
ce p
an y</w>
p s</w>
l eurs</w>
i on</w>
import ant</w>
i ti
Th ere</w>
jou rs</w>
com ment</w>
an te</w>
h is</w>
&apos; ll</w>
1 9
or g
m om
at er</w>
ai ss
b et
ques tion</w>
co re</w>
d n</w>
no s</w>
s c
sh e</w>
do wn</w>
i v
ta ke</w>
d ing</w>
om b
gr an
fa ç
s en
di d</w>
en tr
sp ec
d r
ain s</w>
Al ors</w>
el op
on al</w>
comm enc
v oul
g ro
g e
i c</w>
ar ound</w>
. .</w>
man y</w>
th r
m u
cou n
o k</w>
ne ed</w>
go od</w>
al ement</w>
b as
t y</w>
pro j
p ut</w>
I n</w>
jus te</w>
pl ace</w>
c ri
ever y
w i
ac h</w>
S i</w>
ann ées</w>
E l
g l
his to
1 0</w>
. ..</w>
som mes</w>
ar g
s avez</w>
ai l</w>
in v
d oll
ac t
pro du
& #
d ont</w>
&# 9
li c
b es
h er</w>
gr ap
v a</w>
s ti
t ant</w>
su p
oug ht</w>
re m
p ul
y ing</w>
i ère</w>
u se</w>
w s</w>
C om
ma intenant</w>
org an
li g
en core</w>
differ ent</w>
do ing</w>
d re
ain e</w>
L &apos;</w>
el lement</w>
ver s
tr a
è res</w>
li v
con str
p as
ai res</w>
f ace</w>
un der
si g
ch a
faç on</w>
s a</w>
it u
f am
b er</w>
j am
bes o
W ell</w>
c all
f ri
b il
w er</w>
d ec
u tion</w>
é g
t y
be ing</w>
en n
an y
hap pen
el s</w>
es t-
trav ail
m en
personn es</w>
P ar
al s</w>
thr ough</w>
mom ent</w>
s ame</w>
I f</w>
in d
al ors</w>
tou tes</w>
v eux</w>
l a
au t</w>
ar y</w>
i ons</w>
f il
d ro
ar i
par tic
M a
techno logi
enf ants</w>
in forma
z -
pro gr
n ing</w>
on g
H e</w>
h o
log y</w>
ever y</w>
b el
pu bli
ain es</w>
r en
an t
comm un
w r
int ér
ti ve</w>
beso in</w>
si de</w>
doll ars</w>
or din
chang e</w>
v e
pro c
e m</w>
sec on
ec i</w>
ch er
en g
ic al</w>
con tr
ag es</w>
an k</w>
pend ant</w>
in es</w>
ti v
ou s
m is
call ed</w>
t at
idé e</w>
em ents</w>
i ce</w>
s é
app el
gr ou
ti c</w>
m s</w>
p ays</w>
Vo ici</w>
o l</w>
ig n</w>
&apos; d</w>
possi ble</w>
pr is</w>
r ess
g én
ai r</w>
ot s</w>
5 0</w>
ma de</w>
ch il
at ing</w>
f er
h eu
c oll
s ans</w>
O K</w>
e w</w>
l ong</w>
w ays</w>
i que</w>
mon tr
th ree</w>
cont in
in st
m ent
su ite</w>
m er</w>
ar t</w>
re d</w>
p er</w>
c li
pré s
ess ay
su s</w>
quel ques</w>
lu i</w>
histo ire</w>
ex pl
ar r
a ff
2 0</w>
c ar</w>
r ap
prob ab
ac c
mo ins</w>
w ell</w>
sh o
hu i</w>
o le</w>
sel f</w>
jam ais</w>
fr ic
fai s
p ic
ch er</w>
en ces</w>
m al
in c
o s</w>
der ni
U n
2 0
j o
n on</w>
ex per
qu i
v al
é ch
t ement</w>
k i
bi o
pro duc
pl ac
ye ar</w>
ma g
par ler</w>
vi v
re ment</w>
h app
u m</w>
si ons</w>
lo c
c ent
ex t</w>
tou jours</w>
a près</w>
tal k</w>
po li
r u
b on</w>
v eau</w>
des ign</w>
wh y</w>
sor t</w>
e ar
min u
ac t</w>
jour d&apos;</w>
n um
é tu
fo re</w>
per cent</w>
seu lement</w>
sci ence</w>
n er</w>
ide a</w>
est- ce</w>
cour se</w>
sim ple</w>
probl ème</w>
gre at</w>
c ol
under st
hum an</w>
E n
t- être</w>
so it</w>
ex emp
er re</w>
im p
at t
is h</w>
i ev
f em
fac t</w>
ob j
ch es</w>
tro is</w>
s û
ab les</w>
voy ez</w>
el l
pr ot
ag o</w>
pr i
parti e</w>
i le</w>
cha que</w>
ver n
le ar
l ast</w>
av ant</w>
pr en
m us
ter n
w ent</w>
em s</w>
pers onne</w>
lo w</w>
ét aient</w>
b it</w>
c am
ê tes</w>
e p</w>
ti onn
bi g</w>
è mes</w>
t ell</w>
, 000</w>
ig h
d ent</w>
on es</w>
di dn</w>
qu el</w>
él é
th ought</w>
n es</w>
m an</w>
h av
an other</w>
C el
ser v
av ais</w>
o ff</w>
fin d</w>
El le</w>
sh ow</w>
l et</w>
al es</w>
in di
tou te</w>
ph ot
milli ons</w>
star ted</w>
j our</w>
all er</w>
b re</w>
su b
peu vent</w>
f t</w>
qu elle</w>
ai s
v elop
A fric
n omb
ar ch
is te</w>
ar ds</w>
Ma intenant</w>
k es</w>
h el
ati ve</w>
A n
c et</w>
pouv ons</w>
milli on</w>
gi ve</w>
inter es
ab or
tr ou
gi e</w>
ex am
an ti
o s
sor te</w>
ab il
intér ess
constr u
man ière</w>
ar ti
al ité</w>
w ing</w>
au jourd&apos;</w>
o wn</w>
met tre</w>
di a</w>
k e
ti mes</w>
sim pl
o m</w>
at eur</w>
wi th
re u
premi ère</w>
ô t</w>
con c
sh ould</w>
er g
dem and
ré pon
ou t
us ed</w>
è te</w>
sci enti
di rec
syst ème</w>
ph y
T E
por te</w>
i tion</w>
to day</w>
commenc é</w>
il à</w>
b re
s m
ét ais</w>
me an</w>
dé velop
t ent</w>
l ong
af ter</w>
on om
nat ure</w>
w ater</w>
e -
informa tion</w>
c al
t re
gr and</w>
d ed</w>
exemp le</w>
peu t-être</w>
d at
sem ble</w>
k no
sû r</w>
le m</w>
v eu
c le</w>
O u
star t</w>
qu er</w>
trav ail</w>
m as
cro y
be fore</w>
po pul
n or
o grap
ma ch
th é
è ne</w>
pro f
par t
til l</w>
com pu
ci p
v ing</w>
tr ain</w>
syst em</w>
be g
dev en
U n</w>
prob lem</w>
or s
ic ally</w>
h y
au v
c an
bet ter</w>
pour quoi</w>
i a</w>
do es</w>
c ame</w>
v u</w>
it és</w>
U ne</w>
an im
n ever</w>
mo d
M er
hi m</w>
v ed</w>
end ro
ass ez</w>
su re</w>
me ill
dé cou
ag ain</w>
wh ole</w>
par l
c ur
str uc
it es</w>
i -
n ext</w>
bel iev
Cel a</w>
mar ch
A mer
peti t</w>
fam il
st ory</w>
al iz
b us
m et</w>
Amer ic
sh i
fon c
techno logy</w>
ri en</w>
por t</w>
enn ent</w>
w an
b ot
n ed</w>
loo king</w>
ent re
regar d
b er
c in
t our
h ou
s a
ti es</w>
re ad
i er</w>
au r
3 0</w>
q u</w>
c eci</w>
B ecause</w>
B i
m y
gran de</w>
ch ar
su c
s till</w>
m ight</w>
de puis</w>
organ is
imag in
ge ther</w>
f s</w>
t ôt</w>
ti ques</w>
in f
Mer ci</w>
1 00</w>
tr u
end s</w>
prés ent
d one</w>
z- vous</w>
to gether</w>
envir on</w>
t u</w>
d ou
c lo
sti tu
jus qu&apos;</w>
h ab
i ent</w>
fe w</w>
é co
to o</w>
ap pro
f ic
pr is
it ed</w>
ec t
com es</w>
o ff
is t</w>
gen re</w>
app elle</w>
mar k
in ess</w>
e ach</w>
a î
res pon
ima ge</w>
ati onal</w>
an ds</w>
ay ing</w>
ap par
o t</w>
mu si
ma l</w>
exp éri
s k
we en</w>
at es</w>
hu ma
trouv er</w>
d d
anc er</w>
f ont</w>
exper i
su l
s cho
ec ts</w>
S u
m is</w>
c ô
ec tion</w>
TE D</w>
es n</w>
lo ve</w>
M o
in cre
d re</w>
au c
z e</w>
Par ce</w>
pr in
bet ween</w>
g lo
Wh en</w>
m es
i d</w>
sol u
do esn</w>
l ang
technologi e</w>
gén ér
pl e
montr er</w>
mo y
m ents</w>
d om
r ac
con om
3 ;</w>
1 ;</w>
&#9 3;</w>
&#9 1;</w>
r is
N ew</w>
in gs</w>
s ens</w>
it ure</w>
tu res</w>
ac tion</w>
v r
i eu</w>
H ow</w>
re li
gen er
Qu and</w>
vo s</w>
en ne</w>
re al</w>
dé j
dre n</w>
t en</w>
wan ted</w>
ê te</w>
f our</w>
si x</w>
ent es</w>
av aient</w>
a h</w>
a way</w>
v ou
b les</w>
Th ank</w>
pour rait</w>
su iv
l ess</w>
for me</w>
Ç a</w>
li ght</w>
w om
t on</w>
re as
conn aiss
is h
s s</w>
pass é</w>
l ev
tr ai
th er
et ting</w>
cré er</w>
ri r</w>
ot e</w>
é conom
c all</w>
p eux</w>
underst and</w>
i de</w>
D ans</w>
én er
es se</w>
c as</w>
étu di
u es</w>
é cr
n eu
al i
p es</w>
l ar
con cep
f aut</w>
a di
chil dren</w>
quel qu&apos;</w>
es t
s pe
l ent</w>
br ain</w>
b as</w>
ind us
s ais</w>
f un
ic ul
al ways</w>
per son</w>
minu tes</w>
arch it
ati on
qu ement</w>
ex c
ques tions</w>
r ent</w>
f as
b an
partic u
vo ici</w>
utilis er</w>
R e
op e</w>
ec tr
stu ff</w>
a k
pas se</w>
b at
com prendre</w>
ty pe</w>
tr uc
com ing</w>
cro is</w>
G o
n am
g h
des ign
ch i
for m
an tes</w>
O h</w>
b or
publi c</w>
Afric a</w>
premi er</w>
ci d
b onne</w>
wor king</w>
nouv eau</w>
l ors
it al</w>
ic s</w>
ex tr
d ur
er a</w>
dev ons</w>
ang e</w>
an ces</w>
li ve</w>
h ar
f ound</w>
f ig
tr ying</w>
sig ni
at eurs</w>
secon d</w>
a w
tri es</w>
f ul
believ e</w>
re z</w>
n u
progr am
b ou
arri v
indi vi
A fri
reu x</w>
no v
cou rs</w>
es ti
sp ace</w>
cer veau</w>
ma y</w>
plu tôt</w>
s our
l ine</w>
sen se</w>
Afri que</w>
ex act
pr im
en te</w>
simpl ement</w>
s an
i x</w>
exam ple</w>
every thing</w>
dévelop p
a z
éner gie</w>
scienti fi
déj à</w>
ai son</w>
h al
g er</w>
pens er</w>
li m
20 0
w al
mon ey</w>
hom me</w>
e il</w>
O ne</w>
r y</w>
pr ise</w>
H ere</w>
A r
sur face</w>
a x
a de</w>
pro p
thin king</w>
y s</w>
tri bu
cor d</w>
buil ding</w>
to ok</w>
probl èmes</w>
peti te</w>
om e</w>
P our</w>
p é
duc ation</w>
h ist
at ure</w>
ann ée</w>
ki ds</w>
S t
s ph
pl ay</w>
é vol
th em
int el
h or
erg y</w>
c as
In tern
si ve</w>
m em
E ar
qu ite</w>
an ci
ch ez</w>
sel ves</w>
j u
arg ent</w>
ain si</w>
vi ent</w>
en suite</w>
p ati
j eu
en ough</w>
la quelle</w>
g etting</w>
em bl
th s</w>
po l
con f
pre t
ré alis
p at
il les</w>
ic k
glo b
d ri
interes ting</w>
ver t</w>
ma ti
d ge</w>
à -
pres sion</w>
l and</w>
ec ted</w>
con si
i al</w>
contin u
fil m</w>
ec onom
us ing</w>
for m</w>
ma y
Y or
o y
tu n
n ess</w>
a k</w>
ver se</w>
f in</w>
b al
Th ese</w>
s ite</w>
ma king</w>
fe el</w>
d am
ex t
en ergy</w>
donn ées</w>
donn er</w>
pu is
po wer</w>
