, 114902
. 104333
de 76928
que 41005
le 39580
la 37883
et 37604
est 34443
les 34167
à 30945
un 28409
l&apos; 26276
en 25018
des 24949
a 24277
une 22781
d&apos; 20945
er 20530
ce 20274
vous 20020
é 19697
nous 18628
qui 18255
é@@ 17644
t@@ 16995
dans 16418
s@@ 16309
pas 15970
Et 15935
pour 15312
il 14707
je 14131
r@@ 13914
&quot; 12883
c@@ 12743
ne 12523
du 12491
on 12392
m@@ 11935
qu&apos; 11767
p@@ 11638
v@@ 11291
l@@ 11175
se 11037
ent 11012
ons 10922
dé@@ 10887
es 10790
b@@ 10768
ré@@ 10505
c&apos; 10436
re@@ 10278
in@@ 10193
plus 10185
i@@ 10035
ez 9870
ai 9763
g@@ 9707
y 9650
ant 9520
d@@ 9367
e 9274
? 8908
n&apos; 8907
sur 8886
n@@ 8600
ch@@ 8399
me 8332
re 8231
au 8217
o@@ 7999
-- 7934
f@@ 7873
è@@ 7830
te 7822
u@@ 7761
ont 7518
ait 7517
ti@@ 7509
ils 7486
j&apos; 7428
sont 7325
en@@ 7316
avec 7251
ement 7216
ces 7213
fait 6974
it 6895
an@@ 6870
is@@ 6852
ation 6772
elle 6759
-@@ 6748
’ 6720
li@@ 6709
Je 6687
di@@ 6687
i 6639
: 6621
qu@@ 6595
aux 6569
au@@ 6359
si 6334
con@@ 6330
s 6301
h@@ 6255
ça 6232
or@@ 6208
on@@ 6178
C&apos; 6133
am@@ 6064
tout 6048
cette 5987
comme 5975
e@@ 5950
is 5862
faire 5842
ée 5832
ag@@ 5831
par 5778
ac@@ 5774
at@@ 5698
avons 5692
Il 5686
ais 5676
C@@ 5654
était 5637
P@@ 5634
ai@@ 5534
t 5334
D@@ 5293
er@@ 5258
ou@@ 5192
ou 5189
és 5166
ér@@ 5139
ri@@ 5126
a@@ 5116
mais 5109
A@@ 5103
s&apos; 5092
si@@ 5081
ité 5046
par@@ 5036
Mais 4989
eur 4970
u 4955
vi@@ 4752
al@@ 4724
S@@ 4659
être 4609
très 4599
M@@ 4598
l 4586
it@@ 4566
ère 4539
y@@ 4531
bien 4523
Nous 4511
es@@ 4480
eux 4461
eu@@ 4378
ar@@ 4344
ent@@ 4267
tes 4233
as@@ 4229
av@@ 4182
ap@@ 4176
mes 4173
ex@@ 4141
pr@@ 4123
mo@@ 4116
monde 4086
po@@ 4012
tion 3969
T@@ 3959
ir 3935
d 3914
res 3852
gens 3838
chose 3790
même 3773
tr@@ 3749
dit 3728
cela 3727
ment 3718
B@@ 3692
dis@@ 3690
r 3684
été 3661
ét@@ 3657
té 3620
son 3570
ci@@ 3535
in 3534
im@@ 3494
age 3494
ie 3471
éri@@ 3425
leur 3358
all@@ 3325
ab@@ 3324
vo@@ 3292
ni@@ 3286
voir 3274
em@@ 3264
où 3257
Donc 3256
Vous 3254
pro@@ 3252
J&apos; 3215
ser@@ 3208
ic@@ 3206
com@@ 3187
pos@@ 3174
eurs 3173
aire 3157
N@@ 3143
E@@ 3142
che 3121
ans 3114
ter 3111
quand 3098
per@@ 3066
dev@@ 3065
ue 3061
La 3056
ence 3042
suis 3021
om@@ 3014
vraiment 3013
j@@ 2995
pl@@ 2992
♫ 2991
ance 2975
onn@@ 2962
tous 2962
aient 2956
enti@@ 2953
choses 2945
ro@@ 2941
able 2933
peut 2924
us@@ 2917
ques 2911
ine 2908
pré@@ 2893
avoir 2889
beaucoup 2881
ê@@ 2881
al 2848
notre 2844
ter@@ 2842
ma@@ 2818
ec@@ 2809
et@@ 2805
aussi 2801
il@@ 2801
tre 2800
là 2799
elles 2790
autre 2761
st@@ 2752
donc 2741
ers 2700
ess@@ 2699
for@@ 2692
parce 2691
end@@ 2687
Ce 2686
su@@ 2672
o 2658
mon 2650
eu 2647
dire 2628
fi@@ 2613
ts 2605
gr@@ 2585
1@@ 2578
ici 2567
deux 2566
quelque 2564
entre 2559
ati@@ 2556
Les 2550
an 2545
ses 2542
our@@ 2521
vie 2521
Le 2517
tu@@ 2492
L@@ 2491
temps 2489
ées 2465
ire 2463
op@@ 2459
él@@ 2458
ale 2451
ven@@ 2427
ents 2406
fois 2393
ain 2386
el 2383
m&apos; 2372
se@@ 2372
avait 2370
tique 2361
ten@@ 2361
iss@@ 2347
do@@ 2333
R@@ 2332
ad@@ 2321
mé@@ 2314
peu 2313
co@@ 2308
autres 2287
Ils 2285
â@@ 2282
On 2277
ver@@ 2267
pi@@ 2252
mar@@ 2236
mon@@ 2232
cu@@ 2201
tions 2183
pouvez 2174
- 2140
cou@@ 2126
c 2125
votre 2122
pense 2119
ve 2118
mi@@ 2111
ph@@ 2108
ill@@ 2088
x@@ 2071
ot@@ 2061
s-@@ 2046
moi 2043
ang@@ 2024
sou@@ 2020
pens@@ 2014
En 2012
rai@@ 2008
lu@@ 2007
&apos; 1996
ma 1993
ille 1987
avez 1980
ul@@ 1974
différ@@ 1971
vais 1962
fin@@ 1943
cl@@ 1936
lo@@ 1935
I@@ 1932
aut@@ 1928
res@@ 1923
comp@@ 1921
us 1920
H@@ 1920
ins 1920
car@@ 1917
k@@ 1897
ations 1895
leurs 1894
ante 1871
sion 1871
cré@@ 1869
esp@@ 1862
ouv@@ 1855
comment 1855
th@@ 1854
vis@@ 1852
nos 1844
ob@@ 1842
O@@ 1841
f 1839
z@@ 1826
vers 1823
ants 1822
br@@ 1822
so@@ 1811
chang@@ 1808
Alors 1794
pou@@ 1790
voul@@ 1772
gu@@ 1770
G@@ 1765
J@@ 1756
pe 1748
le@@ 1741
ur@@ 1736
ol@@ 1734
alement 1726
as 1719
ite 1718
juste 1713
ens 1711
comm@@ 1705
pour@@ 1702
cor@@ 1701
Si 1700
tro@@ 1698
années 1698
at 1691
sommes 1690
savez 1688
fai@@ 1684
quoi 1677
tri@@ 1671
dont 1670
én@@ 1669
int@@ 1668
cert@@ 1660
cel@@ 1658
ç@@ 1644
du@@ 1628
va 1627
maintenant 1619
fon@@ 1618
el@@ 1610
L&apos; 1607
encore 1607
ellement 1606
ères 1600
arri@@ 1590
aires 1588
façon 1585
eff@@ 1583
eau 1581
F@@ 1577
no@@ 1577
inter@@ 1572
te@@ 1570
tant 1567
ég@@ 1557
ble 1556
sa 1555
n 1554
uni@@ 1553
travail@@ 1547
ô@@ 1544
aine 1543
personnes 1542
Qu@@ 1535
5 1533
ture 1532
cr@@ 1529
pass@@ 1525
alors 1519
toutes 1517
veux 1516
bi@@ 1509
mer@@ 1503
fr@@ 1497
enfants 1493
utilis@@ 1492
conn@@ 1486
bl@@ 1486
cap@@ 1483
entr@@ 1469
A 1469
mor@@ 1461
ass@@ 1461
oc@@ 1458
h 1453
ig@@ 1451
nouv@@ 1448
aines 1447
our 1444
besoin 1443
um@@ 1438
sur@@ 1438
2@@ 1434
der 1423
soci@@ 1415
ge 1409
pendant 1408
ff@@ 1404
produ@@ 1403
jou@@ 1395
cul@@ 1392
idée 1391
ici@@ 1391
cher@@ 1388
sé@@ 1388
appel@@ 1386
0 1384
Voici 1380
plan@@ 1378
ains 1378
sol@@ 1375
ard 1373
t-@@ 1373
pris 1371
ress@@ 1369
Com@@ 1362
sans 1358
heu@@ 1357
pays 1357
port@@ 1356
ev@@ 1353
Ch@@ 1351
and@@ 1347
des@@ 1346
ique 1345
ay@@ 1343
x 1342
por@@ 1338
part 1336
tres 1336
its 1328
essay@@ 1324
quelques 1323
histoire 1321
lui 1321
voy@@ 1314
V@@ 1313
ets 1302
moins 1301
ions 1300
hui 1297
jamais 1292
ir@@ 1292
fais@@ 1291
sor@@ 1281
fl@@ 1280
derni@@ 1276
ise 1275
prendre 1271
non 1269
éch@@ 1256
tement 1256
gi@@ 1252
parler 1250
plu@@ 1248
to@@ 1247
un@@ 1247
trans@@ 1244
pu@@ 1243
p 1240
sp@@ 1234
toujours 1231
après 1228
min@@ 1225
man@@ 1220
rement 1219
m 1215
ace 1215
ion 1212
seu@@ 1210
cher 1208
ss@@ 1201
seulement 1200
rait 1197
ren@@ 1196
sus 1192
est-ce 1190
problème 1188
compl@@ 1187
ème 1185
soit 1185
erre 1176
K@@ 1170
ign@@ 1167
trois 1163
W@@ 1162
voyez 1160
itu@@ 1159
partie 1154
chaque 1153
cho@@ 1153
parti@@ 1152
endre 1149
avant 1147
men@@ 1147
ements 1145
personne 1142
étaient 1139
trouv@@ 1138
êtes 1137
ci 1132
tionn@@ 1129
! 1125
élé@@ 1123
rap@@ 1121
contr@@ 1119
logi@@ 1118
ous 1116
avais 1115
... 1113
quel 1112
Elle 1111
ordin@@ 1108
viv@@ 1104
000 1104
onne 1103
toute 1103
lement 1100
bre 1099
peuvent 1098
jour 1097
nomb@@ 1094
vent 1090
Maintenant 1090
2 1088
nes 1088
iste 1087
vol@@ 1084
cet 1082
pouvons 1081
ach@@ 1079
bo@@ 1077
puis 1074
out 1071
ist@@ 1071
sorte 1068
intéress@@ 1067
cour@@ 1065
manière 1065
alité 1064
aujourd&apos; 1062
ais@@ 1059
ès 1059
mettre 1058
donn@@ 1058
constru@@ 1057
fem@@ 1052
première 1052
rel@@ 1052
mal@@ 1049
moment 1049
pouv@@ 1048
dem@@ 1047
aiss@@ 1046
; 1045
répon@@ 1043
k 1043
ète 1041
système 1040
lig@@ 1038
ateur 1037
milli@@ 1036
porte 1035
commencé 1033
ilà 1031
ables 1031
cro@@ 1031
ds 1031
bon 1028
étais 1026
demand@@ 1024
point 1023
ail@@ 1022
question 1021
ette 1009
pren@@ 1007
sy@@ 1005
exemple 1003
gar@@ 1003
peut-être 1002
trav@@ 1001
cri@@ 1000
sûr 1000
semble 997
veu@@ 996
sem@@ 993
anc@@ 992
croy@@ 989
dro@@ 988
travail 988
quer 987
de@@ 986
thé@@ 986
ène 985
proj@@ 983
quel@@ 983
ve@@ 980
« 979
4@@ 977
Un 977
iti@@ 977
deven@@ 977
auv@@ 974
regar@@ 973
pourquoi 968
vu 965
ités 965
Une 964
endro@@ 958
alis@@ 958
assez 957
grand 957
ing@@ 955
meill@@ 954
décou@@ 951
parl@@ 947
vers@@ 945
ver 941
aller 941
Cela 940
rs 939
ages 936
petit 936
ra@@ 932
met@@ 931
» 929
fonc@@ 928
ennent 927
march@@ 926
uc@@ 925
rien 925
près 923
enf@@ 920
mer 917
ales 917
w@@ 915
qu 914
trou@@ 913
ceci 912
inv@@ 911
grande 909
In@@ 908
19@@ 906
depuis 906
tent 902
tat@@ 900
regard@@ 898
tiques 897
pri@@ 894
arr@@ 894
Merci 893
id@@ 893
fu@@ 893
one 892
présent@@ 890
diff@@ 890
z-vous 889
environ 889
ution 887
jusqu&apos; 885
10 884
i-@@ 883
millions 883
éco@@ 882
end 881
os 880
tour@@ 879
dr@@ 879
appelle 879
genre 878
som@@ 878
ches 878
aî@@ 877
sup@@ 876
ment@@ 872
ler 870
gran@@ 870
tu 869
fer@@ 866
expéri@@ 866
00 864
ences 864
û@@ 863
aff@@ 863
huma@@ 863
liv@@ 862
trouver 862
idé@@ 860
font 859
Vo@@ 859
train 859
cô@@ 858
fac@@ 858
mis 857
abor@@ 856
tra@@ 852
qui@@ 851
Parce 849
mil@@ 848
dre 847
dent 845
important 845
sions 844
pe@@ 844
hum@@ 842
technologie 839
génér@@ 839
montrer 837
moy@@ 836
ant@@ 835
att@@ 834
ient 833
3@@ 832
ves 831
ar 831
ines 830
sens 829
car 828
vr@@ 825
els 825
tiv@@ 824
Quand 823
sc@@ 821
gl@@ 820
ieu 818
enne 818
vos 817
3 816
ête 816
import@@ 814
entes 814
avaient 813
gro@@ 813
pourrait 809
auc@@ 809
suiv@@ 807
peti@@ 807
forme 807
dic@@ 807
vou@@ 806
Ça 805
connaiss@@ 802
acc@@ 801
passé 799
cont@@ 799
entre@@ 797
créer 796
appar@@ 796
rir 794
économ@@ 794
fs 794
cer@@ 794
be 793
peux 793
8@@ 792
hi@@ 791
Dans 791
étudi@@ 788
pres@@ 787
écr@@ 787
esse 787
aur@@ 785
coll@@ 785
faut 785
conc@@ 784
quelqu&apos; 783
cas 783
% 782
sais 779
bas 777
mat@@ 776
cin@@ 775
quement 774
mes@@ 773
Ou@@ 772
ps 771
6@@ 771
particu@@ 769
voici 768
utiliser 768
ner 766
passe 765
comprendre 764
dollars 763
grou@@ 762
iture 762
crois 761
mag@@ 756
antes 756
1 753
bonne 753
50 752
nouveau 751
ain@@ 751
lors@@ 751
devons 750
premier 750
commenc@@ 747
mis@@ 746
î@@ 745
possible 744
4 743
imp@@ 740
9@@ 739
rez 739
lent 739
trai@@ 737
reux 733
ateurs 732
cours 731
obj@@ 730
cerveau 730
arriv@@ 728
bou@@ 728
plutôt 728
but 727
anti@@ 725
der@@ 724
bles 724
commun@@ 723
Afrique 722
hab@@ 719
développ@@ 719
simplement 719
aut 719
énergie 718
proc@@ 718
déjà 717
aison 716
ente 715
penser 714
homme 713
ier 713
air 712
ari@@ 712
sul@@ 710
ites 709
bu@@ 708
En@@ 707
rac@@ 705
Pour 705
problèmes 705
pé@@ 704
serv@@ 703
to 703
poli@@ 702
per 699
g 699
année 699
ies 698
imagin@@ 698
petite 696
eil 695
organis@@ 694
20 694
évol@@ 694
act@@ 687
argent 686
ainsi 686
Bi@@ 686
chez 685
vient 685
ensuite 685
jeu@@ 684
laquelle 683
Un@@ 682
part@@ 682
cal@@ 679
met 679
réalis@@ 678
dou@@ 677
mod@@ 677
ition 677
illes 677
sen@@ 676
cip@@ 673
à-@@ 673
ure 672
exp@@ 672
5@@ 670
val@@ 667
7@@ 665
donner 664
rem@@ 664
données 664
.@@ 662
puis@@ 662
app@@ 659
cli@@ 658
bio@@ 657
mati@@ 657
gen@@ 656
ix 655
fin 652
jours 651
str@@ 651
prop@@ 650
cent 645
arti@@ 641
suite 640
san@@ 640
plac@@ 639
vert 635
8 634
embl@@ 634
cle 634
simple 629
jour@@ 625
science 623
prise 622
publi@@ 622
cid@@ 622
Su@@ 620
6 620
place 618
lic@@ 616
adi@@ 615
inst@@ 615
prot@@ 615
ut 614
prin@@ 612
fil@@ 609
ors 609
rent 609
omb@@ 608
cam@@ 608
expl@@ 606
mu@@ 604
pes 600
probab@@ 600
ta@@ 596
z-@@ 593
image 593
fo@@ 592
œ@@ 592
É@@ 592
long@@ 591
phot@@ 591
U@@ 590
mal 589
cep@@ 585
vern@@ 585
C 585
dom@@ 584
personn@@ 582
7 582
chi@@ 579
direc@@ 578
pris@@ 578
ind@@ 578
OK 576
Al@@ 575
ards 574
signi@@ 571
inc@@ 568
oug@@ 566
sec@@ 565
ière 565
type 561
ots 561
nu@@ 557
ï@@ 555
bat@@ 554
prof@@ 552
os@@ 552
ars 551
ancer 550
cord 550
til@@ 549
ile 547
ne@@ 546
pen@@ 545
col@@ 544
extr@@ 543
concep@@ 540
coup 539
program@@ 539
0@@ 536
envir@@ 534
prim@@ 534
nature 534
mê@@ 532
anim@@ 532
scientifi@@ 531
gén@@ 531
ban@@ 528
bil@@ 528
q 521
rec@@ 521
inf@@ 519
oy@@ 518
stitu@@ 518
tou@@ 517
vir@@ 515
af@@ 513
enn@@ 512
ase 510
montr@@ 509
pression 508
30 507
ect@@ 507
Q@@ 506
popul@@ 505
eci 505
ances 501
esti@@ 500
hom@@ 500
port 499
spec@@ 497
oul@@ 496
tic@@ 495
veau 495
mach@@ 495
El@@ 495
phy@@ 495
neu@@ 495
hy@@ 494
nor@@ 493
An@@ 492
secon@@ 490
bli@@ 489
log@@ 488
continu@@ 488
ause 488
fic@@ 484
emp@@ 482
ues 482
nat@@ 481
truc@@ 480
tru@@ 480
appro@@ 479
b 479
ru@@ 478
ple@@ 476
100 473
sour@@ 472
bas@@ 471
pon@@ 470
ones 469
ide 469
dur@@ 467
um 465
oir 463
j 463
sti@@ 462
conf@@ 461
iv@@ 459
informa@@ 458
sim@@ 457
9 457
can@@ 456
struc@@ 455
cent@@ 455
fam@@ 454
anci@@ 453
ton 453
ments 453
Par@@ 451
consi@@ 451
z 449
actu@@ 448
era 447
long 447
imag@@ 445
TED 442
action 441
intel@@ 440
lit@@ 438
prés@@ 435
reli@@ 431
mas@@ 430
go@@ 430
Re@@ 430
èmes 429
technologi@@ 425
lang@@ 424
musi@@ 424
pas@@ 422
étu@@ 421
face 421
questions 417
be@@ 414
quelle 413
information 410
design 410
sub@@ 410
abil@@ 409
ju@@ 408
produc@@ 406
ber@@ 406
archit@@ 405
ris@@ 404
ograp@@ 404
bal@@ 402
grap@@ 402
film 401
minutes 400
ange 398
ls 396
premi@@ 395
tive 394
ing 394
arg@@ 393
dam@@ 393
ection 391
indus@@ 391
&#91; 390
&#93; 390
ectr@@ 388
lim@@ 388
ade 388
form@@ 386
respon@@ 382
eng@@ 382
act 381
tal@@ 381
am 381
intér@@ 379
public 379
mus@@ 379
art 377
loc@@ 376
tures 376
possi@@ 376
jo@@ 376
ann@@ 375
suc@@ 374
cur@@ 374
cas@@ 372
sph@@ 371
histo@@ 371
B 371
surface 369
aus@@ 366
tribu@@ 365
sig@@ 365
indivi@@ 365
solu@@ 363
New 360
hu@@ 359
e-@@ 359
hor@@ 359
char@@ 357
syst@@ 356
exact@@ 356
tho@@ 354
off@@ 352
ax@@ 352
site 350
200@@ 349
ce@@ 346
pati@@ 346
pol@@ 343
,@@ 343
ends 339
ty@@ 339
est-@@ 339
nov@@ 337
exc@@ 337
ation@@ 337
Oh 337
six 337
int 336
or 336
out@@ 333
fas@@ 333
ge@@ 333
ate 332
Yor@@ 332
S 329
util@@ 329
ell@@ 328
N 326
Ar@@ 325
gie 325
ature 325
ducation 325
D 324
ative 322
sel@@ 322
Intern@@ 321
ec 321
contin@@ 320
ima@@ 319
û 318
num@@ 318
indi@@ 315
ali@@ 314
sci@@ 313
peu@@ 311
Mo@@ 305
icul@@ 304
dévelop@@ 304
reu@@ 303
tech@@ 296
ext@@ 295
otre 295
H 295
cha@@ 293
est@@ 293
constr@@ 289
tun@@ 288
Go@@ 287
lev@@ 287
inten@@ 287
az@@ 286
lar@@ 286
ote 285
progr@@ 279
vrai@@ 277
my@@ 277
dec@@ 275
ed 273
ail 272
pend@@ 270
mem@@ 268
man 266
oi 264
Y@@ 264
famil@@ 262
– 261
jus@@ 259
St@@ 257
tur@@ 257
me@@ 256
ong@@ 255
temp@@ 254
change 254
ho@@ 252
we@@ 252
J 251
id 250
are 249
stu@@ 249
ever 248
pre@@ 246
minu@@ 246
ans@@ 246
fro@@ 246
enc@@ 245
Z@@ 244
ital 243
ome 243
forma@@ 242
ey 241
ay 241
jam@@ 240
ole 237
faç@@ 237
sh@@ 237
and 237
pul@@ 235
20@@ 235
nam@@ 230
ak@@ 230
million 223
ger 222
duc@@ 222
ple 222
G 220
I 218
L 215
´ 211
dat@@ 210
mom@@ 209
ol 205
ms 200
T 198
ors@@ 198
go 195
dia 195
bor@@ 194
bus@@ 194
ect 193
ational 191
Ma@@ 190
onom@@ 190
use 188
cre@@ 188
sa@@ 186
t-être 183
fric@@ 181
/ 179
organ@@ 177
exemp@@ 177
glob@@ 176
À 176
tôt 172
ki@@ 172
Th@@ 170
erg@@ 168
tre@@ 167
Cel@@ 166
all 166
ques@@ 165
he@@ 164
od 163
sû@@ 163
ia 162
don 160
time 160
M 159
nd 159
design@@ 157
ah 157
he 157
ame 155
har@@ 155
aw@@ 154
iz@@ 154
ch 154
X@@ 153
ill 152
beau@@ 152
arch@@ 151
oll@@ 151
ôt 149
lot 149
jourd&apos; 149
ope 148
exam@@ 147
din@@ 147
ous@@ 147
gs 146
ates 145
bre@@ 145
ù 144
ye@@ 143
st 136
ave 133
E 133
tern@@ 132
beso@@ 132
core 132
fe 132
fig@@ 130
P 130
ke 130
ot 128
his@@ 127
sive 126
pat@@ 124
ok 122
hist@@ 121
exper@@ 120
ad 119
la@@ 118
ong 118
F 117
gh@@ 115
do 115
clo@@ 114
fir@@ 114
th 110
course 107
W 107
iness 105
déj@@ 103
second 103
sort 102
pers@@ 102
ks 102
land 102
ects 98
get 97
$ 97
the 97
sure 95
ry 94
V 93
bel@@ 93
prob@@ 93
ë@@ 92
glo@@ 91
of 91
doll@@ 89
om 87
ze 86
ft 84
wit@@ 84
Afric@@ 84
gre@@ 83
ther@@ 83
Y 83
org@@ 82
dy 82
K 82
X 81
° 80
dre@@ 80
ity 79
mark@@ 78
ick@@ 78
verse 78
R 77
dge 76
let 75
ly 75
apos@@ 74
ater 74
ago 73
éner@@ 72
times 72
ack 72
tries 71
U 71
fri@@ 71
ial 70
dri@@ 69
ths 69
kin@@ 68
ws 68
dd@@ 68
.. 66
TE@@ 66
O 66
pic@@ 65
,000 64
king 64
ich 63
oun@@ 60
Wh@@ 60
w 60
… 60
ics 60
ber 59
ank 58
The 58
by 57
“ 57
velop@@ 56
four 55
ess 55
fa@@ 55
wer 55
ell 54
ld 54
sk@@ 54
right 53
if 52
Ear@@ 52
” 51
probl@@ 50
ow 49
ï 48
ic 46
bot@@ 46
v 46
ff 45
Ê@@ 45
ast 45
wn 45
than 45
ak 43
side 41
ke@@ 41
ty 40
shi@@ 40
bit 40
ere 40
ical 39
tle 39
ew 39
up 38
wi@@ 38
ist 37
ever@@ 36
ary 36
ish@@ 36
any@@ 35
ice 35
well 35
ys 35
so 35
low 35
hal@@ 33
some 33
em 33
ties 33
igh@@ 33
Mer@@ 33
ther 32
over 31
my 29
&@@ 29
ight 28
can 28
ound 27
fe@@ 27
ep 26
ings 26
ands 26
ear@@ 26
even 26
way 25
Z 25
sho@@ 24
q@@ 24
thr@@ 24
the@@ 23
red 23
ü@@ 23
ide@@ 23
for 23
more 23
tic 22
ach 22
— 22
als 22
fun@@ 21
ness 20
ish 20
day 20
show 20
ked 20
wr@@ 19
‘ 19
Americ@@ 19
her 19
conom@@ 18
™ 18
see 17
off 17
ory 17
ign 17
got 17
ö@@ 17
wan@@ 17
them@@ 17
we 17
back 16
no 16
read@@ 16
own 16
techno@@ 16
hou@@ 15
each 15
² 15
¨ 15
onc 15
Now 15
ting 14
) 14
Â@@ 14
compu@@ 14
partic@@ 13
spe@@ 13
wh@@ 13
simpl@@ 13
= 13
bes@@ 13
space 13
ll 13
chil@@ 13
live 12
try 12
elop@@ 12
ally 12
look 12
line 12
è 11
&apos;@@ 11
any 11
* 11
♪ 11
ë 11
lem 11
wal@@ 10
½ 10
ding 10
ould 10
ays 10
ten 10
One 9
ful 9
á@@ 9
put 9
his 9
ving 9
onal 9
tw@@ 9
ree 9
+ 9
ss 9
Î@@ 9
wor@@ 9
star@@ 8
In 8
We 8
now 8
# 8
logy 8
kes 8
life 8
( 7
very 7
old 7
à@@ 7
ough 7
come 7
Q 7
work 7
ñ@@ 7
interes@@ 6
ã@@ 6
ese 6
º 6
too 6
Afri@@ 6
ning 5
ô 5
quot@@ 5
aid 5
coun@@ 5
had 5
has 5
ways 5
£ 5
people 5
differ@@ 5
ȇ@@ 5
æ@@ 5
loo@@ 5
ful@@ 4
same 4
beg@@ 4
Ç@@ 4
percent 4
ating 4
ergy 4
hap@@ 4
If 4
ited 4
® 4
bet@@ 4
happ@@ 4
how 4
ä@@ 4
wing 4
may@@ 4
hel@@ 4
she 4
á 3
_ 3
under@@ 3
econom@@ 3
They 3
call@@ 3
ú 3
And 3
ated 3
hav@@ 3
uch 3
ople 3
What 3
scho@@ 3
€ 3
wom@@ 3
@ 3
 3
kind 3
fact 3
talk 3
ely 3
This 3
love 2
� 2
world 2
lear@@ 2
building 2
better 2
¾ 2
ó@@ 2
new 2
experi@@ 2
ems 2
Amer@@ 2
away 2
aliz@@ 2
feel 2
play 2
him 2
only 2
you 2
sm@@ 2
Africa 2
ned 2
why 2
You 2
gener@@ 2
down 2
It 2
made 2
Œ@@ 2
© 2
body 2
dren 2
É 2
Here 2
Ė@@ 2
^ 2
¥ 2
water 1
did 1
ted 1
Ì@@ 1
about 1
fore 1
example 1
story 1
quite 1
system 1
pret@@ 1
most 1
ext 1
good 1
ght 1
through 1
next 1
È@@ 1
make 1
whole 1
have 1
your 1
ought 1
real 1
ween 1
will 1
â 1
ị@@ 1
š@@ 1
give 1
working 1
Ô 1
went 1
know 1
take 1
big 1
ú@@ 1
ň@@ 1
children 1
So 1
less 1
&#@@ 1
ying 1
