, 121573
. 102975
the 78514
to 47984
a 47045
of 45861
and 39805
that 34846
I 33325
in 31092
is 27972
it 26609
you 26388
&apos;s 23057
we 20576
And 19675
e@@ 19529
ed 18538
ing 17244
this 16780
s@@ 16724
on 14546
&quot; 14306
-- 13487
y 13179
o@@ 12764
b@@ 12694
w@@ 12488
are 12106
t@@ 12022
was 11712
in@@ 11652
h@@ 11559
f@@ 11326
re@@ 11064
es 10950
have 10746
an 10542
for 10517
c@@ 10510
they 10116
g@@ 10043
l@@ 9968
s 9858
p@@ 9842
d@@ 9491
al 9431
r@@ 9422
be 9280
with 9193
? 9182
at 9181
can 9023
as 8922
&apos;t 8895
all 8857
what 8845
one 8840
about 8619
So 8562
or 8542
er@@ 8345
ly 8121
st@@ 8073
i@@ 7924
n@@ 7872
-@@ 7734
t 7639
as@@ 7347
there 7281
do 7243
al@@ 7230
ar@@ 7229
not 7173
S@@ 7171
on@@ 6969
en 6947
d 6832
m@@ 6830
y@@ 6648
u@@ 6592
&apos;re 6544
It 6541
a@@ 6438
at@@ 6433
like 6211
or@@ 6082
k@@ 6072
so 6022
people 6014
: 5930
di@@ 5863
from 5850
out 5827
el@@ 5806
ac@@ 5771
very 5585
ro@@ 5573
ity 5554
ers 5537
my 5524
an@@ 5463
th@@ 5459
know 5381
er 5307
just 5286
e 5259
le@@ 5243
k 5215
ation 5198
but 5150
The 5059
p 5049
ti@@ 4998
We 4977
But 4965
up 4962
going 4940
ate 4916
et 4908
M@@ 4873
if 4851
these 4812
v@@ 4808
our 4774
mo@@ 4732
un@@ 4713
me 4698
he 4673
en@@ 4668
ch@@ 4651
ar 4605
de@@ 4593
is@@ 4539
li@@ 4462
them 4452
A@@ 4400
by 4394
n 4368
su@@ 4342
think 4314
which 4282
because 4216
get 4214
it@@ 4171
us 4152
see 4138
h 4095
ce 4081
had 4076
o 4021
l 3989
et@@ 3960
ts 3953
C@@ 3952
more 3941
really 3934
D@@ 3929
when 3924
B@@ 3914
thing 3902
here 3886
ds 3885
co@@ 3873
ol@@ 3871
op@@ 3865
ad@@ 3831
This 3820
&apos;ve 3811
how 3808
em@@ 3783
would 3755
ec@@ 3740
You 3705
th 3693
lo@@ 3657
your 3653
&apos;m 3652
who 3630
N@@ 3620
way 3605
time 3560
se@@ 3554
then 3525
he@@ 3523
est 3500
world 3499
were 3497
con@@ 3468
m 3463
ve 3455
se 3427
where 3424
me@@ 3423
tr@@ 3405
things 3398
don 3391
P@@ 3377
am@@ 3362
ad 3354
has 3341
their 3299
tion 3292
ks 3268
ally 3256
ic@@ 3251
actually 3242
L@@ 3221
some 3221
po@@ 3221
le 3215
ur@@ 3210
go 3196
ri@@ 3150
into 3138
ap@@ 3103
years 3092
ma@@ 3065
T@@ 3055
now 3053
ent@@ 3046
ex@@ 3045
will 3038
able 3036
il@@ 3017
es@@ 3008
ul@@ 3007
vi@@ 2957
sh@@ 2953
ag@@ 2948
be@@ 2912
want 2891
dis@@ 2874
pl@@ 2869
G@@ 2859
z@@ 2850
♫ 2832
other 2818
H@@ 2815
1@@ 2815
E@@ 2811
ent 2782
wor@@ 2777
F@@ 2763
bo@@ 2734
ter@@ 2731
said 2722
to@@ 2721
qu@@ 2717
age 2714
per@@ 2712
si@@ 2710
ter 2703
make 2697
could 2671
They 2670
been 2660
c 2648
ence 2634
Now 2606
ne@@ 2595
ine 2595
om@@ 2592
right 2575
R@@ 2574
ch 2568
W@@ 2560
for@@ 2535
got 2526
ther 2515
ture 2501
ab@@ 2501
something 2473
us@@ 2460
come 2455
king 2453
cre@@ 2451
ely 2449
little 2444
res@@ 2440
wh@@ 2422
ting 2418
fi@@ 2372
ked 2364
ard 2361
much 2346
av@@ 2318
That 2310
O@@ 2304
gr@@ 2303
say 2288
work 2275
kind 2266
most 2265
pr@@ 2257
im@@ 2257
ies 2250
ver@@ 2245
and@@ 2240
ect 2235
I@@ 2230
two 2228
ous 2224
ci@@ 2223
w 2217
; 2216
no 2213
than 2208
first 2205
back 2203
ev@@ 2187
gi@@ 2182
br@@ 2180
od 2176
au@@ 2169
look 2162
ess@@ 2142
ment 2136
those 2132
tic@@ 2131
ot@@ 2124
sp@@ 2121
no@@ 2105
ated 2102
ess 2075
body 2073
les 2062
over 2058
try 2051
we@@ 2049
ig@@ 2037
new 2002
also 1999
life 1996
What 1993
old 1979
J@@ 1978
even 1954
g 1949
lot 1939
only 1938
par@@ 1910
ful 1909
oun@@ 1904
do@@ 1893
any 1885
There 1884
ans 1881
&apos;ll 1872
his 1867
am 1866
enti@@ 1853
str@@ 1850
ra@@ 1842
fo@@ 1841
down 1831
she 1830
take 1827
did 1812
ain 1808
go@@ 1808
A 1807
st 1791
ents 1768
around 1761
many 1757
coun@@ 1743
need 1739
ph@@ 1737
good 1735
ted 1727
gu@@ 1721
ic 1718
der 1717
tur@@ 1715
ir@@ 1715
j@@ 1710
In 1708
put 1707
te@@ 1690
fin@@ 1687
day 1685
ty 1684
pos@@ 1683
ge 1677
re 1660
0@@ 1649
its 1648
her 1644
ai@@ 1634
ain@@ 1627
cr@@ 1615
different 1610
doing 1608
Well 1572
ase 1571
ws 1558
id@@ 1557
ast 1555
being 1555
tu@@ 1553
happen@@ 1551
pro@@ 1547
ever 1538
b 1529
through 1527
same 1522
ber 1522
any@@ 1518
If 1517
ue 1516
als 1507
ay 1506
de 1504
K@@ 1502
ance 1501
ni@@ 1500
pi@@ 1491
some@@ 1484
f 1480
fe@@ 1480
end 1479
mi@@ 1473
ary 1473
ning 1471
He 1466
ta@@ 1464
every 1463
r 1457
pre@@ 1449
Ch@@ 1441
i 1441
use 1440
ong 1439
mat@@ 1435
wr@@ 1428
ble 1428
ves 1428
min@@ 1422
sion 1420
lu@@ 1415
ations 1410
car@@ 1410
um@@ 1402
el 1399
side 1396
tions 1395
ill@@ 1393
called 1393
2@@ 1390
ing@@ 1390
pe@@ 1387
ati@@ 1379
ical 1374
&apos;d 1374
com@@ 1367
made 1363
bl@@ 1361
tic 1360
ating 1360
ice 1355
ight 1354
Wh@@ 1354
x@@ 1353
int@@ 1343
three 1343
inter@@ 1342
ant 1339
ors 1335
comp@@ 1329
iz@@ 1317
ays 1316
spec@@ 1311
red 1304
ame 1301
tri@@ 1296
der@@ 1295
self 1294
dec@@ 1289
bi@@ 1285
end@@ 1282
Th@@ 1280
loo@@ 1279
sho@@ 1276
ke 1274
all@@ 1273
ou@@ 1271
well 1265
ets 1258
bas@@ 1254
year 1252
ous@@ 1250
plan@@ 1247
pu@@ 1247
In@@ 1245
happ@@ 1244
fr@@ 1238
tal@@ 1229
talk 1224
pic@@ 1224
x 1223
why 1221
buil@@ 1218
ite 1217
ory 1213
ho@@ 1213
stu@@ 1210
dev@@ 1203
percent 1197
idea 1192
great 1188
ear@@ 1188
human 1186
ms 1182
te 1177
change 1176
ol 1172
fact 1168
gen@@ 1165
pres@@ 1162
our@@ 1161
ish 1155
last 1149
lear@@ 1147
cor@@ 1143
went 1142
ems 1141
uc@@ 1137
big 1135
tell 1134
fu@@ 1134
des@@ 1132
didn 1128
ach@@ 1127
sur@@ 1126
mon@@ 1124
ps 1124
thought 1123
Y@@ 1121
gre@@ 1121
another 1118
hav@@ 1117
find 1112
ding 1112
sort 1112
ep 1111
ons 1109
dic@@ 1108
low 1107
5 1104
started 1100
bit 1099
igh@@ 1098
off 1096
.@@ 1096
place 1093
show 1091
ave 1087
hel@@ 1085
cel@@ 1084
ob@@ 1083
ago 1082
course 1082
kes 1081
give 1078
U@@ 1077
so@@ 1077
Al@@ 1073
ang@@ 1070
ars 1070
,000 1070
ay@@ 1064
soci@@ 1060
wing 1059
fl@@ 1056
with@@ 1053
lic@@ 1052
uni@@ 1052
tive 1051
ls 1048
should 1046
cl@@ 1046
important 1045
own 1044
sol@@ 1043
used 1042
bil@@ 1040
compl@@ 1035
today 1035
let 1035
eng@@ 1032
por@@ 1025
mean 1025
sm@@ 1025
after 1020
ke@@ 1015
sc@@ 1015
ft 1014
water 1011
V@@ 1009
bu@@ 1005
ded 1005
kno@@ 1001
&apos; 1000
ce@@ 998
vis@@ 994
start 993
rel@@ 993
before 989
every@@ 989
part 983
times 983
wn 980
system 977
problem 976
ically 975
rem@@ 974
4@@ 974
beg@@ 974
ound 970
ving 969
better 968
om 967
does 967
came 966
cu@@ 966
compu@@ 965
tro@@ 964
19@@ 963
never 963
ved 960
him 959
cul@@ 958
gro@@ 957
! 955
art 953
again 951
whole 949
ten@@ 948
next 941
0 937
story 934
aliz@@ 933
man@@ 932
technology 927
looking 924
il 923
dr@@ 923
ned 922
ok 920
point 918
sy@@ 915
Americ@@ 913
Because 912
iti@@ 911
cap@@ 907
might 906
still 906
hou@@ 905
long 903
3@@ 901
read@@ 901
comm@@ 899
jo@@ 898
onal 897
gs 894
trans@@ 893
num@@ 892
done 890
together 889
shi@@ 889
cou@@ 887
ying 886
ties 884
bre@@ 884
few 883
ist@@ 882
comes 880
hi@@ 880
bot@@ 879
ited 876
too 876
gl@@ 876
5@@ 874
aying 870
un 865
dia 863
each 862
sure 859
cho@@ 858
million 858
loc@@ 858
experi@@ 858
scho@@ 856
man 855
love 852
incre@@ 852
wer 850
between 848
produc@@ 848
When 847
ser@@ 846
ands 846
ist 842
doesn 841
the@@ 841
tre@@ 839
act 832
ack 831
ell@@ 830
question 827
How 825
eff@@ 823
gener@@ 822
real 820
wanted 818
log@@ 816
design 814
sk@@ 811
Thank 810
away 810
ten 809
ver 808
10 808
ses 807
ots 806
light 806
less 806
ia 805
ings 805
ach 802
reas@@ 802
wom@@ 801
mar@@ 801
mark@@ 800
call 794
dd@@ 793
8@@ 792
understand 792
dat@@ 792
ari@@ 791
ss 790
ple 785
vol@@ 783
children 783
ater 782
OK 782
brain 781
cent@@ 778
always 777
6@@ 776
person 776
inv@@ 774
clo@@ 774
’ 774
du@@ 773
iness 772
um 772
spe@@ 769
chang@@ 769
ide@@ 766
stuff 766
mus@@ 766
ish@@ 765
ative 764
sup@@ 764
fri@@ 763
coming 763
ze 763
four 761
ects 761
fun@@ 757
Africa 753
tra@@ 752
working 751
ru@@ 748
found 745
trying 744
00 744
ey 742
bus@@ 740
ot 740
believe 740
proj@@ 738
ful@@ 737
liv@@ 737
oc@@ 735
live 733
hom@@ 732
sa@@ 732
rs 730
may 729
els 726
ough 726
commun@@ 725
sense 723
ree 722
inst@@ 722
partic@@ 720
everything 719
ates 719
dn 718
example 718
space 717
inc@@ 715
pen@@ 714
money 713
line 713
ther@@ 713
9@@ 712
la@@ 712
expl@@ 712
fac@@ 711
Here 710
out@@ 710
cri@@ 710
cont@@ 710
thinking 709
dre@@ 708
took 705
2 705
proc@@ 705
probab@@ 705
One 704
building 704
wal@@ 703
rec@@ 702
kids 698
ants 693
play 693
ics 691
quite 688
sub@@ 688
selves 686
ational 685
ici@@ 684
enough 684
ement 683
getting 683
hal@@ 683
ion 682
pret@@ 678
them@@ 677
elop@@ 676
interesting 676
sel@@ 675
ution 675
famil@@ 674
ys 673
ected 673
dollars 673
form 670
using 670
tries 670
cli@@ 668
econom@@ 668
These 666
may@@ 665
making 665
energy 664
feel 663
power 661
7@@ 660
abil@@ 659
ones 659
vers@@ 659
air 657
ah 656
imag@@ 655
ill 653
e-@@ 653
ise 652
ans@@ 652
mis@@ 650
ness 647
gh@@ 644
col@@ 644
ure 643
second 640
kin@@ 640
Ear@@ 638
beau@@ 635
mor@@ 635
my@@ 632
ere 629
possible 628
per 627
nat@@ 624
ak 624
grou@@ 622
anc@@ 619
ope 619
20 619
ry 618
50 615
ff@@ 615
fig@@ 615
ant@@ 615
wi@@ 614
plac@@ 614
ths 613
sec@@ 611
arg@@ 610
dri@@ 608
ile 606
ial 602
conn@@ 602
design@@ 602
ell 600
mil@@ 600
ick@@ 600
Un@@ 599
information 598
dge 598
bio@@ 598
An@@ 594
id 592
har@@ 590
val@@ 590
aw@@ 589
verse 588
hum@@ 587
ograp@@ 583
dy 581
hist@@ 580
... 579
des 578
exp@@ 578
tiv@@ 578
ines 577
tw@@ 576
lig@@ 576
cur@@ 575
res 575
science 574
coll@@ 574
af@@ 573
ale 573
ye@@ 572
land 571
chil@@ 568
ways 567
vern@@ 566
sive 565
iv@@ 564
bor@@ 563
star@@ 563
fai@@ 561
mas@@ 559
dem@@ 559
simple 559
probl@@ 556
pat@@ 554
ends 554
app@@ 553
char@@ 550
Mo@@ 549
phy@@ 545
ank 543
ces 542
cep@@ 540
prot@@ 540
ass@@ 538
ak@@ 536
organ@@ 535
ge@@ 534
differ@@ 533
suc@@ 532
nam@@ 530
cam@@ 530
logy 528
off@@ 527
poli@@ 525
cert@@ 522
hu@@ 519
dro@@ 519
can@@ 518
os@@ 517
ber@@ 516
ards 516
ought 516
lev@@ 512
phot@@ 512
ote 510
ital 508
ins 508
acc@@ 503
glob@@ 501
S 500
lar@@ 500
8 498
fer@@ 496
1 496
nor@@ 495
mag@@ 495
ger 494
enc@@ 494
respon@@ 494
envir@@ 492
struc@@ 492
mach@@ 492
tat@@ 491
est@@ 490
duc@@ 490
vir@@ 486
popul@@ 483
hy@@ 481
car 481
ew 480
moment 479
nature 479
En@@ 479
sig@@ 478
solu@@ 478
ages 477
six 477
Go@@ 474
icul@@ 473
ali@@ 473
New 472
ann@@ 471
progr@@ 468
ection 466
ut 465
son 465
met@@ 464
direc@@ 463
ome 462
face 461
ment@@ 460
oul@@ 458
ace 458
fe 456
lit@@ 456
ty@@ 453
aff@@ 452
tures 451
cro@@ 450
ght 445
&#91; 445
&#93; 445
ve@@ 444
musi@@ 443
St@@ 440
ation@@ 438
obj@@ 438
exc@@ 437
imp@@ 437
fas@@ 437
prof@@ 433
az@@ 433
4 433
pers@@ 432
anim@@ 432
ner 430
ris@@ 430
long@@ 430
port 428
rai@@ 428
ail 425
bel@@ 424
ences 424
arti@@ 424
itu@@ 422
arr@@ 422
7 422
mem@@ 422
ail@@ 421
100 421
pe 421
Oh 421
qui@@ 419
ains 417
sen@@ 416
lang@@ 416
serv@@ 414
TED 414
3 414
pul@@ 414
tru@@ 413
mer 413
9 413
em 412
ven@@ 409
pas@@ 409
cer@@ 408
30 408
6 408
ens 407
t-@@ 405
ese 405
appro@@ 403
ich 403
din@@ 402
os 402
fic@@ 397
men@@ 397
under@@ 397
interes@@ 396
nov@@ 395
underst@@ 395
ont 393
reli@@ 393
sions 390
indus@@ 389
sor@@ 388
Ar@@ 387
action 386
ki@@ 385
ments 384
eu@@ 384
sou@@ 383
tun@@ 379
ectr@@ 379
fa@@ 379
pon@@ 379
inf@@ 378
ducation 377
ature 376
public 376
minutes 376
ect@@ 373
hap@@ 372
syst@@ 372
form@@ 372
archit@@ 371
oug@@ 371
Intern@@ 371
alis@@ 371
ire 370
ext@@ 369
stitu@@ 369
indivi@@ 369
200@@ 366
tle 365
exact@@ 365
cle 362
ple@@ 361
ition 360
pend@@ 359
ax@@ 359
questions 354
ton 351
ange 351
V 350
contin@@ 346
aid 346
anti@@ 345
tribu@@ 343
att@@ 343
surface 342
entr@@ 341
pol@@ 338
Re@@ 338
pati@@ 338
diff@@ 337
Yor@@ 337
la 334
hor@@ 333
B 331
20@@ 330
cal@@ 329
ever@@ 328
ima@@ 328
lim@@ 327
sph@@ 325
vo@@ 324
scienti@@ 324
ade 323
ide 323
simpl@@ 323
ordin@@ 323
tern@@ 320
cas@@ 320
D 320
u 318
site 315
gar@@ 313
sti@@ 312
ancer 311
cip@@ 306
ues 306
era 303
part@@ 302
pris@@ 302
contr@@ 294
neu@@ 292
exper@@ 292
wit@@ 290
ches 290
ext 289
possi@@ 289
tou@@ 288
mod@@ 285
dent 285
dur@@ 284
truc@@ 283
image 283
mu@@ 282
ju@@ 278
mal 277
grap@@ 274
Z@@ 272
dam@@ 272
film 270
sim@@ 269
produ@@ 268
ople 267
act@@ 266
jour@@ 266
bal@@ 264
conc@@ 263
C 262
Com@@ 262
oll@@ 261
ow 260
pri@@ 260
Afric@@ 256
,@@ 255
nd 255
sour@@ 254
intel@@ 254
ren@@ 254
dom@@ 253
trav@@ 253
met 253
actu@@ 251
port@@ 250
ld 250
ances 246
ements 246
concep@@ 246
cour@@ 244
constr@@ 243
sci@@ 243
ban@@ 242
mer@@ 242
Par@@ 241
T 240
ait 240
Su@@ 239
mal@@ 237
ites 237
anci@@ 236
prin@@ 236
technologi@@ 235
iev@@ 233
esti@@ 231
tho@@ 228
fil@@ 228
pou@@ 227
Bi@@ 224
tech@@ 223
Ou@@ 223
consi@@ 222
abor@@ 221
Ma@@ 221
conf@@ 220
millions 219
int 218
On 217
esp@@ 215
fore 213
dou@@ 211
que 211
bat@@ 211
organis@@ 209
vie 208
ions 208
extr@@ 208
exam@@ 208
aut@@ 207
imagin@@ 205
arri@@ 205
ier 204
thr@@ 203
type 202
believ@@ 202
iss@@ 201
ma 199
bon 198
peti@@ 198
program@@ 197
emp@@ 194
P 192
ales 192
minu@@ 191
fam@@ 191
ong@@ 190
une 189
ir 188
ause 188
ler 188
rap@@ 187
forma@@ 187
secon@@ 187
pes 186
scientifi@@ 186
pass@@ 186
prim@@ 186
erg@@ 185
H 185
continu@@ 184
nu@@ 182
M 182
aus@@ 180
chi@@ 180
inten@@ 174
call@@ 174
signi@@ 173
parti@@ 173
temp@@ 173
z 173
ie 172
ss@@ 171
org@@ 171
adi@@ 170
ould 170
hab@@ 166
tes 166
pression 165
arch@@ 164
trou@@ 162
ind@@ 162
rent 161
vers 160
ai 160
aller 159
vent 158
cord 158
quot@@ 154
onom@@ 154
oy@@ 150
sul@@ 149
doll@@ 149
E 149
/ 148
import@@ 147
G 147
cin@@ 146
viv@@ 145
O 143
thin@@ 143
cha@@ 140
pren@@ 138
R 136
ign 136
fir@@ 133
til@@ 133
F 133
aur@@ 132
ables 132
cid@@ 132
sus 131
rac@@ 131
mom@@ 131
entre@@ 127
omb@@ 125
fro@@ 125
ll 121
fem@@ 121
tent 120
train 119
X@@ 119
ign@@ 118
jus@@ 116
TE@@ 116
logi@@ 115
enn@@ 114
ff 114
etting 113
q 113
W 112
Qu@@ 112
K 111
L 110
ole 108
onn@@ 107
&apos;@@ 107
fs 107
mes 106
core 106
cent 103
his@@ 99
techno@@ 93
ne 92
sem@@ 92
wan@@ 91
prise 90
El@@ 90
bles 86
dit 85
$ 83
cher 81
glo@@ 79
san@@ 79
publi@@ 78
plu@@ 78
bes@@ 77
till 76
N 75
appar@@ 74
tant 74
X 73
plus 73
ils 72
mes@@ 70
iture 67
000 66
vous 66
ques 66
ques@@ 65
eurs 65
ix 64
aine 64
milli@@ 61
prop@@ 60
trai@@ 60
i-@@ 60
Vo@@ 58
s-@@ 58
indi@@ 55
- 52
che 52
ient 51
v 50
eur 50
ette 49
embl@@ 49
ille 48
grand 48
gran@@ 48
bli@@ 46
Q@@ 45
jam@@ 43
lent 43
&@@ 42
J 42
tour@@ 41
auc@@ 41
vert 39
La 39
q@@ 38
mon 37
util@@ 37
ais@@ 37
chose 36
U 35
va 35
ez 35
Mer@@ 35
dren 34
nes 34
si 33
Y 32
du 32
gie 31
som@@ 31
ou 31
rement 29
bet@@ 29
sa 29
comment 28
gens 28
ors@@ 27
cher@@ 27
au 26
aire 25
regard@@ 25
uch 25
Q 25
Z 25
quel@@ 25
ci 24
pour 24
pays 24
ergy 24
pens@@ 23
conom@@ 23
pour@@ 23
informa@@ 22
regar@@ 20
pense 20
demand@@ 20
prob@@ 20
est-@@ 19
tu 19
aiss@@ 18
é 18
lement 18
eil 18
mati@@ 17
reu@@ 17
ateur 17
voy@@ 17
velop@@ 16
eau 16
fon@@ 16
% 16
ween 15
) 15
fric@@ 15
esn 14
gether 14
fin 14
lem 13
quel 13
Cel@@ 12
ateurs 12
# 12
march@@ 12
ö@@ 12
seu@@ 10
oi 10
enf@@ 10
premi@@ 10
elle 10
apos@@ 10
petite 9
constru@@ 9
erre 9
— 9
aires 8
Il 8
+ 8
ouv@@ 8
bou@@ 8
á@@ 8
ante 8
ù 7
arriv@@ 7
aut 7
ieu 7
ais 7
tionn@@ 7
– 7
entre 6
je 6
coup 6
Afri@@ 6
ó 6
suite 6
cas 6
oir 6
( 5
vos 5
aines 5
ec 5
exemp@@ 5
derni@@ 5
par 5
dire 5
j 5
ente 5
quer 5
ü@@ 5
semble 4
voir 4
bas 4
dans 4
Le 4
vou@@ 4
í@@ 4
premier 4
z-@@ 4
elles 4
non 4
aux 4
tique 4
ã@@ 4
enne 4
pas 4
encore 3
ñ@@ 3
esse 3
Et 3
qui 3
histo@@ 3
= 3
nous 3
parl@@ 3
iste 3
@ 3
ique 3
Amer@@ 3
jour 3
ä@@ 3
dé@@ 3
^ 3
dre 3
ù@@ 2
â@@ 2
ï@@ 2
fait 2
lui 2
moi 2
onne 2
cet 2
é@@ 2
personn@@ 2
jou@@ 2
* 2
É@@ 2
porte 2
heu@@ 2
rien 2
ème 2
è@@ 2
antes 2
tiques 2
donn@@ 2
chez 2
ć 1
rir 1
genre 1
commenc@@ 1
Quand 1
tout 1
Je 1
tous 1
jours 1
quelque 1
Une 1
Dans 1
Alors 1
sens 1
mis 1
ress@@ 1
hui 1
moy@@ 1
eu 1
º@@ 1
auv@@ 1
˚ 1
tres 1
ré@@ 1
puis@@ 1
… 1
ée 1
penser 1
ò@@ 1
à@@ 1
être 1
travail 1
Les 1
bien 1
Elle 1
illes 1
avez 1
aison 1
Merci 1
beaucoup 1
ó@@ 1
font 1
£ 1
essay@@ 1
pendant 1
ées 1
ā@@ 1
bonne 1
mais 1
ça 1
Ça 1
appel@@ 1
sur 1
eux 1
cours 1
à 1
