#version: 0.2
p o
t h
e n
e s</w>
po s
a n
o u
a pos
& apos
i n
q u
o n
r e</w>
&apos ;</w>
a i
t i
e r
e s
d e</w>
l e</w>
th e</w>
o n</w>
a r
e r</w>
i s</w>
en t</w>
a l
a t</w>
r e
o r
o m
ou s</w>
e l
in g</w>
e n</w>
t o</w>
t r
e t</w>
qu e</w>
&apos ;
i t
c h
a v
c e</w>
an d</w>
o f</w>
p r
i s
a s</w>
o t
n e</w>
l es</w>
e u
a u
i t</w>
e m
i l
l a</w>
es t</w>
i n</w>
s e</w>
e d</w>
a t
m e</w>
o u</w>
l i
th at</w>
s u
on s</w>
d i
a c
p l
c om
u n</w>
w h
a n</w>
qu ot
t e</w>
quot ;</w>
& quot;</w>
ti on</w>
i c
y ou</w>
a s
l &apos;</w>
e c
th e
a b
d es</w>
n o
po u
ai t</w>
s i
m a
n d</w>
an s</w>
r i
&apos; s</w>
u ne</w>
c on
an t</w>
l o
r o
d &apos;</w>
ai s</w>
s t
ou t</w>
l y</w>
en t
e t
- -</w>
a p
v ous</w>
w e</w>
m o
p ar
pr o
e v
A nd</w>
o r</w>
T h
n ous</w>
e z</w>
a g
e x
qu i</w>
u s
o l
on t</w>
a l</w>
t u
a m
th is</w>
d ans</w>
i l</w>
u s</w>
em ent</w>
v er
v i
p as</w>
E t</w>
d é
pou r</w>
v e</w>
o p
é t
c ou
r é
j e</w>
e re</w>
i r</w>
p e
a r</w>
u t</w>
c i
qu &apos;</w>
b e
p er
a tion</w>
d u</w>
ou r</w>
t re</w>
u n
a re</w>
in t
g r
k e</w>
m ent</w>
f f
av e</w>
a y</w>
a u</w>
w as</w>
i m
l d</w>
g o
t s</w>
al ly</w>
i g
en d
v o
h ave</w>
a ti
on e</w>
f or</w>
u l
c &apos;</w>
pl us</w>
r s</w>
the y</w>
s e
b e</w>
a i</w>
s i</w>
al l</w>
s om
c es</w>
b i
ch o
w it
m on
d o
eu r</w>
s h
é r
f or
f ai
eu x</w>
w or
wit h</w>
t o
l e
c an</w>
c o
n &apos;</w>
&apos; t</w>
su r</w>
wh at</w>
u c
po r
el le</w>
on n
an g
o w</w>
a y
ab out</w>
es s
t es</w>
th in
S o</w>
d e
r es</w>
no w</w>
g i
j us
er s</w>
m es</w>
f i
s o</w>
a in
è s</w>
h t</w>
t er</w>
p en
e c</w>
d s</w>
p u
il s</w>
a d</w>
ou r
j &apos;</w>
g en
th er</w>
d o</w>
s ont</w>
the re</w>
al l
av ec</w>
è re</w>
no t</w>
th ing</w>
a d
et te</w>
f ait</w>
ai n</w>
n e
en ce</w>
n i
t er
J e</w>
p h
u m
u r
au x</w>
d is
s o
&apos; re</w>
I t</w>
é e</w>
c el
ent s</w>
s t</w>
t e
s es</w>
op le</w>
ç a</w>
in e</w>
f ro
li ke</w>
ag e</w>
ar s</w>
C &apos;</w>
é s</w>
it é</w>
ou v
t out</w>
f o
b l
pe ople</w>
on c</w>
d ev
c ette</w>
com me</w>
ab le</w>
s p
es e</w>
b o
b ut</w>
eu rs</w>
fro m</w>
en ti
fai re</w>
com m
au se</w>
ê tre</w>
m i
p ar</w>
r ai
a ce</w>
I l</w>
av ons</w>
qu el
m e
ét ait</w>
it y</w>
it e</w>
ver y</w>
e l</w>
k ing</w>
m y</w>
s on</w>
ou g
as s
k now</w>
b le</w>
di ff
p eu
jus t</w>
g s</w>
ot re</w>
or s</w>
at e</w>
r es
qu es</w>
s er
ec ause</w>
Th e</w>
m ais</w>
s &apos;</w>
y e
s tr
u p</w>
M ais</w>
W e</w>
ou ld</w>
m an
B ut</w>
go ing</w>
ai ent</w>
i f</w>
d er
m ar
h e</w>
é es</w>
th ese</w>
0 0</w>
b r
em p
ic h</w>
l u
f in
m il
ap p
ic i</w>
s y
el l</w>
t ou
g e</w>
an d
tr ès</w>
p re
u e</w>
bi en</w>
t -
N ous</w>
es s</w>
an ce</w>
d es
por t
the m</w>
b y</w>
w ay</w>
il l
tr i
lo o
e y</w>
ti ons</w>
b u
t ed</w>
thin k</w>
g et</w>
m ê
pou v
é ri
ti l
wh ich</w>
W h
pr é
b ecause</w>
se e</w>
i re</w>
ti c
c er
o b
mon de</w>
h ad</w>
o d</w>
d u
ay s</w>
tu re</w>
f r
an ts</w>
ch ang
int er
si on</w>
mo re</w>
som e
s or
a me</w>
f u
ac tu
o ther</w>
re ally</w>
c r
wh en</w>
l ement</w>
w n</w>
t ing</w>
t a
h ere</w>
g ht</w>
gen s</w>
m in
u re</w>
il l</w>
v er</w>
é n
cho se</w>
tr o
Th is</w>
d it</w>
h ow</w>
&apos; ve</w>
t h</w>
per s
tr av
mê me</w>
w ould</w>
p i
ar d</w>
l s</w>
in s</w>
cel a</w>
ti me</w>
Y ou</w>
h e
be au
av ez</w>
ét é</w>
y our</w>
&apos; m</w>
i e</w>
wh o</w>
tr es</w>
t é</w>
é l
e au</w>
c or
d on</w>
ev er
i ma
th en</w>
ou nd</w>
pou r
wor ld</w>
w ere</w>
g u
c re
e u</w>
ol l
A l
cou p</w>
wh ere</w>
è me</w>
thin gs</w>
g o</w>
k s</w>
o ir</w>
l eur</w>
au s
h as</w>
l it
c ar
t en
ati ons</w>
the ir</w>
v rai
mil li
j ou
vo ir</w>
su r
s ol
o ù</w>
D onc</w>
c e
som e</w>
V ous</w>
com p
s s
an n
actu ally</w>
g ar
c ro
J &apos;</w>
end re</w>
ai re</w>
ch e</w>
int en
c u
w e
d er</w>
in to</w>
ac k</w>
qu and</w>
L a</w>
ye ars</w>
ai d</w>
f e
te ch
w ill</w>
h u
an s
a le</w>
su is</w>
vrai ment</w>
i r
on ne</w>
ai l
c l
s el
k in
it s</w>
si m
t ous</w>
i es</w>
en s</w>
v es</w>
oug h</w>
cho ses</w>
p e</w>
peu t</w>
o i</w>
vi r
t emp
p le</w>
on g</w>
w ant</w>
con n
av oir</w>
beau coup</w>
im port
qu es
t le</w>
con t
v is
I n
n otre</w>
t al
v en
t w
aus si</w>
l à</w>
s ci
el les</w>
C h
r a
po n
lo g
au tre</w>
pen s
ev er</w>
as t</w>
sy st
d onc</w>
f ac
d ay</w>
d y</w>
lo gi
vi e</w>
ou l
s aid</w>
c h</w>
th o
inten ant</w>
ma ke</w>
par ce</w>
m on</w>
C e</w>
m er
Th ey</w>
cou ld</w>
d uc
c ré
st ar
be en</w>
is t
d em
pe ti
qu oi</w>
is e</w>
di re</w>
h i
ri ght</w>
u til
pl an
pr es
N ow</w>
h um
un i
s ec
f e</w>
d eux</w>
quel que</w>
ent re</w>
f on
v ol
et s</w>
L es</w>
is s
go t</w>
tech no
ar ri
L e</w>
en c
p ass
pro bl
cou r
in t</w>
O n</w>
vo y
temp s</w>
par ti
so ci
some thing</w>
an c
Q u
com e</w>
m et
fi r
el y</w>
i d
lit tle</w>
ec t</w>
en f
s eu
i z
e ff
s ou
pro b
fo is</w>
g re
c ap
d onn
k ed</w>
uc h</w>
m &apos;</w>
av ait</w>
ti que</w>
en d</w>
c ul
v ent</w>
m uch</w>
in g
f l
par t</w>
m é
pe u</w>
Th at</w>
l er</w>
0 00</w>
V o
s ay</w>
ig ht</w>
au tres</w>
I ls</w>
wor k</w>
kin d</w>
mo st</w>
re c
util is
f a
th an</w>
i dé
a m</w>
n o</w>
tw o</w>
st u
com pl
b ack</w>
pre mi
m at
a ch
fir st</w>
n ouv
o c
m a</w>
cer t
pouv ez</w>
loo k</w>
or y</w>
pr ès</w>
diff er
pen se</w>
tr ans
au t
tho se</w>
pers onn
v otre</w>
n at
ex p
a f
at ed</w>
s -
j our
m or
o ver</w>
lo t</w>
s em
a se</w>
es p
ic i
bo dy</w>
re e</w>
tr y</w>
pl u
c i</w>
re l
mo i</w>
ig n
p end
f f</w>
pos si
pr endre</w>
il le</w>
E n</w>
al is
r ait</w>
l l</w>
ne w</w>
li fe</w>
ima g
tr ouv
al so</w>
Wh at</w>
b li
ol d</w>
ver s</w>
i de
pu is</w>
ev en</w>
d in
tu r
diff ér
ou n
v ais</w>
c ent</w>
h om
po int</w>
on ly</w>
h ap
bu il
h is
fu l</w>
for ma
re gar
en vir
di c
ce p
an y</w>
p s</w>
l eurs</w>
i on</w>
import ant</w>
i ti
Th ere</w>
jou rs</w>
com ment</w>
an te</w>
h is</w>
&apos; ll</w>
1 9
or g
m om
at er</w>
ai ss
b et
ques tion</w>
co re</w>
d n</w>
no s</w>
s c
sh e</w>
do wn</w>
i v
ta ke</w>
d ing</w>
om b
gr an
fa ç
s en
di d</w>
en tr
sp ec
d r
ain s</w>
Al ors</w>
el op
on al</w>
comm enc
v oul
g ro
g e
i c</w>
ar ound</w>
. .</w>
man y</w>
th r
m u
cou n
o k</w>
ne ed</w>
go od</w>
al ement</w>
b as
t y</w>
pro j
p ut</w>
I n</w>
jus te</w>
pl ace</w>
c ri
ever y
w i
ac h</w>
S i</w>
ann ées</w>
E l
g l
his to
1 0</w>
. ..</w>
som mes</w>
ar g
s avez</w>
ai l</w>
in v
d oll
ac t
pro du
& #
d ont</w>
&# 9
li c
b es
h er</w>
gr ap
v a</w>
s ti
t ant</w>
su p
oug ht</w>
re m
p ul
y ing</w>
i ère</w>
u se</w>
w s</w>
C om
ma intenant</w>
org an
li g
en core</w>
differ ent</w>
do ing</w>
d re
ain e</w>
L &apos;</w>
el lement</w>
ver s
tr a
è res</w>
li v
con str
p as
ai res</w>
f ace</w>
un der
si g
ch a
faç on</w>
s a</w>
it u
f am
b er</w>
j am
bes o
W ell</w>
c all
f ri
b il
w er</w>
d ec
u tion</w>
é g
t y
be ing</w>
en n
an y
hap pen
el s</w>
es t-
trav ail
m en
personn es</w>
P ar
al s</w>
thr ough</w>
mom ent</w>
s ame</w>
I f</w>
in d
al ors</w>
tou tes</w>
v eux</w>
l a
au t</w>
ar y</w>
i ons</w>
f il
d ro
ar i
par tic
M a
techno logi
enf ants</w>
in forma
z -
pro gr
n ing</w>
on g
H e</w>
h o
log y</w>
ever y</w>
b el
pu bli
ain es</w>
r en
an t
comm un
w r
int ér
ti ve</w>
beso in</w>
si de</w>
doll ars</w>
or din
chang e</w>
v e
pro c
e m</w>
sec on
ec i</w>
ch er
en g
ic al</w>
con tr
ag es</w>
an k</w>
pend ant</w>
in es</w>
ti v
ou s
m is
call ed</w>
t at
idé e</w>
em ents</w>
i ce</w>
s é
app el
gr ou
ti c</w>
m s</w>
p ays</w>
Vo ici</w>
o l</w>
ig n</w>
&apos; d</w>
possi ble</w>
pr is</w>
r ess
g én
ai r</w>
ot s</w>
5 0</w>
ma de</w>
ch il
at ing</w>
f er
h eu
c oll
s ans</w>
O K</w>
e w</w>
l ong</w>
w ays</w>
i que</w>
mon tr
th ree</w>
cont in
in st
m ent
su ite</w>
m er</w>
ar t</w>
re d</w>
p er</w>
c li
pré s
ess ay
su s</w>
quel ques</w>
lu i</w>
histo ire</w>
ex pl
ar r
a ff
2 0</w>
c ar</w>
r ap
prob ab
ac c
mo ins</w>
w ell</w>
sh o
hu i</w>
o le</w>
sel f</w>
jam ais</w>
fr ic
fai s
p ic
ch er</w>
en ces</w>
m al
in c
o s</w>
der ni
U n
2 0
j o
n on</w>
ex per
qu i
v al
é ch
t ement</w>
k i
bi o
pro duc
pl ac
ye ar</w>
ma g
par ler</w>
vi v
re ment</w>
h app
u m</w>
si ons</w>
lo c
c ent
ex t</w>
tou jours</w>
a près</w>
tal k</w>
po li
r u
b on</w>
v eau</w>
des ign</w>
wh y</w>
sor t</w>
e ar
min u
ac t</w>
jour d&apos;</w>
n um
é tu
fo re</w>
per cent</w>
seu lement</w>
sci ence</w>
n er</w>
ide a</w>
est- ce</w>
cour se</w>
sim ple</w>
probl ème</w>
gre at</w>
c ol
under st
hum an</w>
E n
t- être</w>
so it</w>
ex emp
er re</w>
im p
at t
is h</w>
i ev
f em
fac t</w>
ob j
ch es</w>
tro is</w>
s û
ab les</w>
voy ez</w>
el l
pr ot
ag o</w>
pr i
parti e</w>
i le</w>
cha que</w>
ver n
le ar
l ast</w>
av ant</w>
pr en
m us
ter n
w ent</w>
em s</w>
pers onne</w>
lo w</w>
ét aient</w>
b it</w>
c am
ê tes</w>
e p</w>
ti onn
bi g</w>
è mes</w>
t ell</w>
, 000</w>
ig h
d ent</w>
on es</w>
di dn</w>
qu el</w>
él é
th ought</w>
n es</w>
m an</w>
h av
an other</w>
C el
ser v
av ais</w>
o ff</w>
fin d</w>
El le</w>
sh ow</w>
l et</w>
al es</w>
in di
tou te</w>
ph ot
milli ons</w>
star ted</w>
j our</w>
all er</w>
b re</w>
su b
peu vent</w>
f t</w>
qu elle</w>
ai s
v elop
A fric
n omb
ar ch
is te</w>
ar ds</w>
Ma intenant</w>
k es</w>
h el
ati ve</w>
A n
c et</w>
pouv ons</w>
milli on</w>
gi ve</w>
inter es
ab or
tr ou
gi e</w>
ex am
an ti
o s
sor te</w>
ab il
intér ess
constr u
man ière</w>
ar ti
al ité</w>
w ing</w>
au jourd&apos;</w>
o wn</w>
met tre</w>
di a</w>
k e
ti mes</w>
sim pl
o m</w>
at eur</w>
wi th
re u
premi ère</w>
ô t</w>
con c
sh ould</w>
er g
dem and
ré pon
ou t
us ed</w>
è te</w>
sci enti
di rec
syst ème</w>
ph y
T E
por te</w>
i tion</w>
to day</w>
commenc é</w>
il à</w>
b re
s m
ét ais</w>
me an</w>
dé velop
t ent</w>
l ong
af ter</w>
on om
nat ure</w>
w ater</w>
e -
informa tion</w>
c al
t re
gr and</w>
d ed</w>
exemp le</w>
peu t-être</w>
d at
sem ble</w>
k no
sû r</w>
le m</w>
v eu
c le</w>
O u
star t</w>
qu er</w>
trav ail</w>
m as
cro y
be fore</w>
po pul
n or
o grap
ma ch
th é
è ne</w>
pro f
par t
til l</w>
com pu
ci p
v ing</w>
tr ain</w>
syst em</w>
be g
dev en
U n</w>
prob lem</w>
or s
ic ally</w>
h y
au v
c an
bet ter</w>
pour quoi</w>
i a</w>
do es</w>
c ame</w>
v u</w>
it és</w>
U ne</w>
an im
n ever</w>
mo d
M er
hi m</w>
v ed</w>
end ro
ass ez</w>
su re</w>
me ill
dé cou
ag ain</w>
wh ole</w>
par l
c ur
str uc
it es</w>
i -
n ext</w>
bel iev
Cel a</w>
mar ch
A mer
peti t</w>
fam il
st ory</w>
al iz
b us
m et</w>
Amer ic
sh i
fon c
techno logy</w>
ri en</w>
por t</w>
enn ent</w>
w an
b ot
n ed</w>
loo king</w>
ent re
regar d
b er
c in
t our
h ou
s a
ti es</w>
re ad
i er</w>
au r
3 0</w>
q u</w>
c eci</w>
B ecause</w>
B i
m y
gran de</w>
ch ar
su c
s till</w>
m ight</w>
de puis</w>
organ is
imag in
ge ther</w>
f s</w>
t ôt</w>
ti ques</w>
in f
Mer ci</w>
1 00</w>
tr u
end s</w>
prés ent
d one</w>
z- vous</w>
to gether</w>
envir on</w>
t u</w>
d ou
c lo
sti tu
jus qu&apos;</w>
h ab
i ent</w>
fe w</w>
é co
to o</w>
ap pro
f ic
pr is
it ed</w>
ec t
com es</w>
o ff
is t</w>
gen re</w>
app elle</w>
mar k
in ess</w>
e ach</w>
a î
res pon
ima ge</w>
ati onal</w>
an ds</w>
ay ing</w>
ap par
o t</w>
mu si
ma l</w>
exp éri
s k
we en</w>
at es</w>
hu ma
trouv er</w>
d d
anc er</w>
f ont</w>
exper i
su l
s cho
ec ts</w>
S u
m is</w>
c ô
ec tion</w>
TE D</w>
es n</w>
lo ve</w>
M o
in cre
d re</w>
au c
z e</w>
Par ce</w>
pr in
bet ween</w>
g lo
Wh en</w>
m es
i d</w>
sol u
do esn</w>
l ang
technologi e</w>
gén ér
pl e
montr er</w>
mo y
m ents</w>
d om
r ac
con om
3 ;</w>
1 ;</w>
&#9 3;</w>
&#9 1;</w>
r is
N ew</w>
in gs</w>
s ens</w>
it ure</w>
tu res</w>
ac tion</w>
v r
i eu</w>
H ow</w>
re li
gen er
Qu and</w>
vo s</w>
en ne</w>
re al</w>
dé j
dre n</w>
t en</w>
wan ted</w>
ê te</w>
f our</w>
si x</w>
ent es</w>
av aient</w>
a h</w>
a way</w>
v ou
b les</w>
Th ank</w>
pour rait</w>
su iv
l ess</w>
for me</w>
Ç a</w>
li ght</w>
w om
t on</w>
re as
conn aiss
is h
s s</w>
pass é</w>
l ev
tr ai
th er
et ting</w>
cré er</w>
ri r</w>
ot e</w>
é conom
c all</w>
p eux</w>
underst and</w>
i de</w>
D ans</w>
én er
es se</w>
c as</w>
étu di
u es</w>
é cr
n eu
al i
p es</w>
l ar
con cep
f aut</w>
a di
chil dren</w>
quel qu&apos;</w>
es t
s pe
l ent</w>
br ain</w>
b as</w>
ind us
s ais</w>
f un
ic ul
al ways</w>
per son</w>
minu tes</w>
arch it
ati on
qu ement</w>
ex c
ques tions</w>
r ent</w>
f as
b an
partic u
vo ici</w>
utilis er</w>
R e
op e</w>
ec tr
stu ff</w>
a k
pas se</w>
b at
com prendre</w>
ty pe</w>
tr uc
com ing</w>
cro is</w>
G o
n am
g h
des ign
ch i
for m
an tes</w>
O h</w>
b or
publi c</w>
Afric a</w>
premi er</w>
ci d
b onne</w>
wor king</w>
nouv eau</w>
l ors
it al</w>
ic s</w>
ex tr
d ur
er a</w>
dev ons</w>
ang e</w>
an ces</w>
li ve</w>
h ar
f ound</w>
f ig
tr ying</w>
sig ni
at eurs</w>
secon d</w>
a w
tri es</w>
f ul
believ e</w>
re z</w>
n u
progr am
b ou
arri v
indi vi
A fri
reu x</w>
no v
cou rs</w>
es ti
sp ace</w>
cer veau</w>
ma y</w>
plu tôt</w>
s our
l ine</w>
sen se</w>
Afri que</w>
ex act
pr im
en te</w>
simpl ement</w>
s an
i x</w>
exam ple</w>
every thing</w>
dévelop p
a z
éner gie</w>
scienti fi
déj à</w>
ai son</w>
h al
g er</w>
pens er</w>
li m
20 0
w al
mon ey</w>
hom me</w>
e il</w>
O ne</w>
r y</w>
pr ise</w>
H ere</w>
A r
sur face</w>
a x
a de</w>
pro p
thin king</w>
y s</w>
tri bu
cor d</w>
buil ding</w>
to ok</w>
probl èmes</w>
peti te</w>
om e</w>
P our</w>
p é
duc ation</w>
h ist
at ure</w>
ann ée</w>
ki ds</w>
S t
s ph
pl ay</w>
é vol
th em
int el
h or
erg y</w>
c as
In tern
si ve</w>
m em
E ar
qu ite</w>
an ci
ch ez</w>
sel ves</w>
j u
arg ent</w>
ain si</w>
vi ent</w>
en suite</w>
p ati
j eu
en ough</w>
la quelle</w>
g etting</w>
em bl
th s</w>
po l
con f
pre t
ré alis
p at
il les</w>
ic k
glo b
d ri
interes ting</w>
ver t</w>
ma ti
d ge</w>
à -
pres sion</w>
l and</w>
ec ted</w>
con si
i al</w>
contin u
fil m</w>
ec onom
us ing</w>
for m</w>
ma y
Y or
o y
tu n
n ess</w>
a k</w>
ver se</w>
f in</w>
b al
Th ese</w>
s ite</w>
ma king</w>
fe el</w>
d am
ex t
en ergy</w>
donn ées</w>
donn er</w>
pu is
po wer</w>
happen ed</w>
dev elop
T out</w>
coun try</w>
cre ate</w>
P our
l um
g é
é v
v ari
s ing
v ille</w>
t ot
t ers</w>
st o
plu part</w>
n é
g le</w>
scho ol</w>
or ies</w>
ne e
archit ec
plan ète</w>
at s</w>
pos e</w>
al ity</w>
or ig
w er
f ol
s ouv
fi ve</w>
at ten
tic al</w>
vr ai</w>
trou ve</w>
sp ir
s al
rai ent</w>
probab ly</w>
l é
trav ers</w>
s ous</w>
mi eux</w>
s avoir</w>
des sus</w>
éri eur</w>
to p</w>
pou voir</w>
num ber</w>
en semble</w>
do it</w>
ul ar</w>
tro p</w>
Ear th</w>
s itu
he al
b ri
1 5</w>
w on
ic es</w>
g ou
ar e
nouv elle</w>
ser ait</w>
e as
may be</w>
for ce</w>
su j
phot ograp
ci r
any thing</w>
an de</w>
N o</w>
suc c
s au
pos ition</w>
veu t</w>
v ont</w>
mo is</w>
fo od</w>
ser a</w>
s ays</w>
im porte</w>
h ig
at re</w>
we e
t eur</w>
in d</w>
vis ion</w>
sy m
dat a</w>
ch e
Intern et</w>
t able</w>
fu ture</w>
con tre</w>
c eux</w>
qu é</w>
ph one</w>
cert ain</w>
read y</w>
in croy
idé es</w>
ic ro
esp ace</w>
w as
popul ation</w>
po int
b ro
all ons</w>
tal king</w>
i res</w>
bil li
sm all</w>
re ven
bo ok</w>
pret ty</w>
n s</w>
ev ol
Yor k</w>
M y</w>
A m
ten ir</w>
pi e
f ab
ch em
ag it</w>
hel p</w>
t élé
re ad</w>
r er</w>
me ans</w>
4 0</w>
le ft</w>
w at
p a
mod è
e y
endro it</w>
Com ment</w>
c ause</w>
re cher
eu x
as k</w>
plan et</w>
i ques</w>
f our
ent ly</w>
t in
ag er</w>
ac k
pu iss
mo ve</w>
w ard</w>
b on
on s-
Un is</w>
s et</w>
ro om</w>
nomb re</w>
b est</w>
soci al</w>
rai son</w>
jour n
cô té</w>
ac ro
e aux</w>
v en</w>
proj et</w>
m ul
chang er</w>
p ap
march é</w>
s av
se en</w>
l aiss
pass er</w>
p ing</w>
a ma
ti s
o to</w>
ap e</w>
E u
è ce</w>
op por
lo w
in nov
be come</w>
reli gi
cl as
g al
m ain</w>
ide as</w>
hal f</w>
bus iness</w>
L i
t- il</w>
li eu</w>
h un
mach ine</w>
cul ture</w>
travail l
con v
S he</w>
ve ill
cap ac
re g
su m
gr and
prin cip
particu li
h aut</w>
wh e
happ en</w>
ti l</w>
pic ture</w>
id enti
tat s-
buil d</w>
aut our</w>
phy s
l in
diff ici
ic k</w>
at u
expéri ence</w>
tats- Unis</w>
gou vern
è tres</w>
p ay
i ème</w>
go es</w>
ous ly</w>
or t</w>
em ber</w>
è rement</w>
qu atre</w>
eu se</w>
us es</w>
t es
el se</w>
sy n
imag es</w>
em pl
comp te</w>
Ch r
C on
ér ic
inv ent
c at
th ough</w>
d ess
ar m
Pour quoi</w>
with out</w>
p ed</w>
p an
es pr
arri ve</w>
an ima
acro ss</w>
abil ity</w>
s in
it er</w>
Eu ro
lar ge</w>
expl o
vi e
shi p</w>
m ou
P u
seu le</w>
st e
différ entes</w>
hav ing</w>
e z-vous</w>
6 0</w>
prop re</w>
on -
con cer
ag r
technologi es</w>
he ad</w>
dé c
cert ains</w>
cel u
ô le</w>
trouv é</w>
struc ture</w>
enf ant</w>
d el
Vo ilà</w>
p t</w>
F r
t ard</w>
sa w</w>
fem me</w>
fai tes</w>
J o
C A</w>
t el
b es</w>
n our
gro s</w>
Wh y</w>
sol ution</w>
pr om
compu ter</w>
produ it</w>
probl ems</w>
le -
et y</w>
vis u
v ement</w>
ti ce</w>
si eurs</w>
b ad</w>
N or
su ch</w>
res te</w>
g g
compl ex
B on</w>
wor ks</w>
k en</w>
coun tries</w>
ch am
b â
b ur
gu y</w>
go vern
v ue</w>
et er</w>
s aying</w>
c ase</w>
c ancer</w>
L et</w>
oc cu
par ents</w>
ter r
ol s</w>
ess enti
ph oto</w>
ac cord</w>
r ou
ang er</w>
re aliz
l à-
au g
al y
t old</w>
rai s
constru ire</w>
do c
cor ps</w>
b lo
at te
ri ons</w>
parti r</w>
lors que</w>
inter n
bas ically</w>
D es</w>
D e</w>
Ch in
é li
po s</w>
p li
happen s</w>
d ays</w>
ab solu
ma kes</w>
l ed</w>
is ion</w>
h er
si è
all ez</w>
Al l</w>
onn ement</w>
o f
fais ons</w>
di men
G od</w>
voul ez</w>
or i
m ère</w>
hom e</w>
dis co
C eci</w>
én or
A u
st s</w>
m ess
z ing</w>
liv re</w>
ex tra
won der
s éri
com b
Ou i</w>
M on
n uc
envir on
comp as
c op
beau ti
ri ez</w>
min d</w>
i ez</w>
dev ez</w>
R i
c y
logi e</w>
cli m
é po
proc ess</w>
grou pe</w>
c ity</w>
th ers</w>
pos iti
o x
dis t
dam ent
ch ance</w>
ré fl
experi ence</w>
ail le</w>
vo ilà</w>
reas on</w>
oppor tun
mê mes</w>
ch an
billi on</w>
C ette</w>
Bi en</w>
ni veau</w>
indus tri
us t</w>
en du</w>
d ra
suj et</w>
es si
d onne</w>
constr uc
po t
is ts</w>
indivi du
vi ol
t ellement</w>
probab lement</w>
ma j
h ard</w>
diffici le</w>
ap pe
E h</w>
A u</w>
b ase</w>
Qu &apos;</w>
éri que</w>
soci été</w>
r a</w>
plac es</w>
par le</w>
liv ing</w>
l arg
k il
j eu</w>
il li
atten tion</w>
as ked</w>
è tement</w>
su per
su ff
o se</w>
m icro
c le
as h
a -
0 ,000</w>
milli ards</w>
l ing</w>
inst e
and ing</w>
C es</w>
tic s</w>
mon di
loo ks</w>
l ater</w>
h igh
ré alité</w>
p u</w>
on ce</w>
incre di
hum an
h and</w>
essay er</w>
T erre</w>
ê t</w>
gen ce</w>
eff ec
c are</w>
av ions</w>
bot h</w>
uni vers</w>
tur n</w>
p sy
m aison</w>
glob al</w>
tra di
st -
pro fon
p auv
cou ple</w>
b res</w>
In dia</w>
w o
ré sul
no thing</w>
le ad
ind re</w>
ons- nous</w>
comm er
D &apos;</w>
pro ch
hist ory</w>
f ais</w>
er y</w>
co û
ac tiv
regard ez</w>
N on</w>
p les</w>
at h</w>
wh ile</w>
uni verse</w>
seu l</w>
r am
proj ect</w>
d et
commenc er</w>
épo que</w>
vis i
vi ew</w>
mal adi
espr it</w>
chil d</w>
beauti ful</w>
wom en</w>
fem mes</w>
D ieu</w>
ra di
f ar</w>
sp é
souv ent</w>
nouv elles</w>
en se
d -
é qui
v ér
n é</w>
commun ic
with in</w>
san té</w>
re t
il i
ai r
vi de
F or</w>
œ u
plu sieurs</w>
every body</w>
dé t
B e
vo it</w>
vi dé
th ous
pr end</w>
lum ière</w>
chang ement</w>
al ready</w>
viv re</w>
ur al</w>
mat er
br ing</w>
2 5</w>
t em
g ag
compl ètement</w>
b ar
B r
v ill
travail ler</w>
éco le</w>
y oun
t eurs</w>
pro pos</w>
pie ce</w>
c é
ré e</w>
rac on
moy en</w>
cin q</w>
cel lu
situ ation</w>
P e
8 0</w>
imag ine</w>
al most</w>
intéress ant</w>
A s</w>
o -
hig h</w>
s avons</w>
re mar
eu re</w>
ser vi
r endre</w>
possi bil
it ing</w>
se e
musi c</w>
mis sion</w>
ir d</w>
he ard</w>
0 s</w>
sé qu
signi fi
ordin ateur</w>
rap id
d ents</w>
am our</w>
y eux</w>
iti es</w>
in stitu
hum ain</w>
ai se</w>
tr ue</w>
o ce
ni e</w>
n et
h ope</w>
uni vers
ti f</w>
spé ci
gu erre</w>
L e
In de</w>
ven ir</w>
pres que</w>
phy si
n er
co g
bâ ti
r end
gal ax
anim aux</w>
ai mer
ter re</w>
te ach
cap able</w>
t est</w>
oc é
loo ked</w>
li ves</w>
ke ep</w>
ér er</w>
u p
spec ies</w>
regar der</w>
compl et
ai me</w>
sing le</w>
l es
whe ther</w>
pr iv
organ iz
buil t</w>
hou se</w>
différ ents</w>
ans wer</w>
répon se</w>
r ais</w>
proc es
on d</w>
e qu
dé f
di e</w>
con di
El les</w>
mat ter</w>
lang u
compas sion</w>
b ly</w>
y et</w>
t or</w>
t ez</w>
mé di
M ar
ég alement</w>
huma ins</w>
extra ordin
Un ited</w>
U ni
s enti
is su
appel é</w>
ur y</w>
r om
nour r
nat u
heu res</w>
derni ère</w>
l is
fonc tionn
di g
b ig
ro bo
grou p</w>
em ble</w>
cog ni
ter ri
mo ther</w>
in side</w>
Q ue</w>
Com me</w>
19 9
sor ti
dé but</w>
r é</w>
fr ont</w>
fo c
de l</w>
I s
ti on
proces sus</w>
pouv ait</w>
point s</w>
g ets</w>
ent endu</w>
ai de</w>
Th en</w>
1 2</w>
r è
exp li
conn ec
Americ a</w>
kin ds</w>
t ête</w>
peti ts</w>
d y
au rait</w>
ap prendre</w>
voul ais</w>
pri x</w>
donn é</w>
é cri
th ro
ter n</w>
t end
B o
some body</w>
f ant
con st
c a
us tr
ti tu
or der</w>
mon ths</w>
W or
un der</w>
lear n</w>
it self</w>
fig ure</w>
com par
S tat
g ri
g a
comm ence</w>
pot enti
pens é</w>
musi que</w>
mus t</w>
k ay</w>
gi r
famil y</w>
expl or
b out</w>
U .
ré s</w>
pen d</w>
o i
et tes</w>
en s
di es</w>
mo der
lig ne</w>
con tro
ch ac
é tr
mar che</w>
m ouv
f lo
f av
dis ent</w>
anima l</w>
lig h
at ta
é qu
wr ong</w>
ver sion</w>
t és</w>
our ces</w>
demand é</w>
at or</w>
t ons</w>
cou l
complet ely</w>
ré us
par tout</w>
man i
conc entr
réfl éch
happ y</w>
architec ture</w>
mat éri
f re
modè le</w>
comp any</w>
ab lement</w>
D e
wh at
vir us</w>
un til</w>
t ly</w>
rem ember</w>
p tion</w>
ex ist
dé cid
auc un</w>
Go o
A in
si mil
le quel</w>
des c
ch all
au di
ai der</w>
vide o</w>
op en</w>
mo del</w>
is n</w>
Euro pe</w>
E st-
st re
Ain si</w>
er ing</w>
e g
d is</w>
commun ity</w>
ag ne</w>
G r
ra ther</w>
o il</w>
int érieur</w>
a ds</w>
Stat es</w>
S h
wor d</w>
ti onal</w>
in ning</w>
ense ign
a th
Chr is</w>
mon tre</w>
ex iste</w>
arr ê
é ro
o ver
l et
in e
com port
ati v
voy ons</w>
ter min
ré se
pl an</w>
n om
è ces</w>
v é
of ten</w>
gu es</w>
c ess
5 00</w>
was n</w>
r un</w>
fam ille</w>
ar tic
am es</w>
si e</w>
hun dre
dec id
1 1</w>
por ter</w>
imp act</w>
g au
ren contr
M on</w>
w ar</w>
st ate</w>
pu r
jo b</w>
ac cep
youn g</w>
n on-
hab itu
f all
ent er</w>
Y e
Est- ce</w>
p age</w>
meill eur</w>
â ce</w>
ro b
res ear
psy cho
m i</w>
diff icul
ch au
E x
wonder ful</w>
ta king</w>
pris es</w>
gr ound</w>
fab ri
f ish</w>
développ ement</w>
am éric
2 00</w>
w on</w>
s ex
po wer
envir onnement</w>
N o
A v
op er
my self</w>
happen ing</w>
c entre</w>
anim als</w>
an e</w>
s ait</w>
ré ellement</w>
log ical</w>
i- même</w>
abor d</w>
O r</w>
él ectr
sto p</w>
ox y
gar d
ci v
ama zing</w>
M ars</w>
no m</w>
n ame</w>
logi que</w>
bi r
b ec
é mo
re présent
qu anti
mark et</w>
lev el</w>
eff et</w>
au té</w>
ér ence</w>
ta ken</w>
mer veill
ét at</w>
é ti
é cou
recher che</w>
ful ly</w>
sour ce</w>
ré gi
our selves</w>
ma tique</w>
is me</w>
er s
el ectr
do is</w>
derni er</w>
lit er
vo iture</w>
sin ce</w>
sem bl
mes ure</w>
an aly
al ong</w>
ac es</w>
ç u</w>
regar de</w>
quel les</w>
l ots</w>
heal th</w>
fe et</w>
exact ly</w>
cert aines</w>
c les</w>
N e
te l</w>
t i</w>
rapid ement</w>
n ight</w>
m ot
l ec
il y</w>
histo ires</w>
st ories</w>
g ame</w>
fr on
decid ed</w>
arri ver</w>
é vi
vou dr
ri ère</w>
jou er</w>
inf lu
incroy able</w>
fu tu
f -
aî tre</w>
as p
al o
S e
res t
ou i</w>
con som
Goo gle</w>
produc tion</w>
p ère</w>
mor t</w>
e d
b ers</w>
w ards</w>
n i</w>
as tr
a ke</w>
t omb
signifi e</w>
me a
lo in</w>
f el
com pos
oul dn</w>
e ducation</w>
dé fin
coul dn</w>
ch ed</w>
cert ain
écr it</w>
what ever</w>
vidé o</w>
t aille</w>
r ons</w>
exact ement</w>
er t
em ment</w>
wor ds</w>
s qu
he art</w>
décou vert</w>
Americ an</w>
évol ution</w>
some one</w>
derni ères</w>
compl e
av er
am is</w>
partic ular</w>
m en</w>
inv esti
gu ys</w>
f ut</w>
cho is
ang er
am oun
1 8</w>
mo sph
hou rs</w>
hom mes</w>
gr âce</w>
endro its</w>
m ement</w>
k new</w>
it ation</w>
intel li
hap s</w>
gau che</w>
un s</w>
ta kes</w>
is m</w>
tur ns</w>
tech ni
long temps</w>
hu ge</w>
oce an</w>
mo ving</w>
be hav
aut om
auc une</w>
are a</w>
S ou
v it
ress emble</w>
gran des</w>
cré é</w>
con du
cho ix</w>
capac ité</w>
s ent
on d
govern ment</w>
el ing</w>
de pend
commer ci
mé dic
d ar
t om
phot os</w>
le ast</w>
langu age</w>
con sci
L o
coll ec
c entr
t at</w>
he ar</w>
c elle</w>
ad ap
us h</w>
su gg
oug h
m ètres</w>
i or</w>
Ye ah</w>
res ul
futu r</w>
dem ande</w>
comb in
ap pris</w>
vi ennent</w>
soci ety</w>
si ze</w>
re -
pé tro
ob serv
intel lig
consi dé
voudr ais</w>
st ati
siè cle</w>
peti tes</w>
nourr iture</w>
iss ent</w>
décid é</w>
bec ame</w>
at mosph
per f
nat ural</w>
mon t
import ante</w>
gran ds</w>
al im
P h
z- moi</w>
eng ine
e ase</w>
commun auté</w>
ch ing</w>
am i</w>
R o
ress embl
p ai
onn es</w>
fi el
at tr
an g</w>
él ec
wor ked</w>
vill age</w>
ver ed</w>
sc ale</w>
out side</w>
om e
m ét
G re
w ed</w>
s even</w>
s ac
or ie</w>
o h</w>
inc lu
im possible</w>
fant as
f ur
ess es</w>
am en
ac i
si r</w>
pati ent</w>
fi er</w>
er t</w>
deven ir</w>
bo o
beg inning</w>
cent ury</w>
wom an</w>
th re
sig n
ph il
mul ti
gr av
en voy
b ul
atu res</w>
Pu is</w>
z one</w>
syst ems</w>
minu te</w>
it ting</w>
ish ed</w>
is tes</w>
innov ation</w>
S o
P as</w>
w ar
per met
m eu
fon d</w>
f ree</w>
et ing</w>
e f</w>
dis tribu
differ ence</w>
aug ment
Am érique</w>
é ni
pl ay
co de</w>
cel ls</w>
a que</w>
a p</w>
O u</w>
ç ons</w>
t ér
str at
qu ick
op h
h ors</w>
cre ated</w>
contro l</w>
co st</w>
ar ing</w>
parl é</w>
mi dd
me di
ex cep
di ri
ad ul
pu t
p al
né cess
ne ws</w>
mil ieu</w>
le y</w>
dev ient</w>
ac ter
Jo h
robo t</w>
co ol</w>
voul ons</w>
photograp h
heu reux</w>
g ène</w>
cellu les</w>
th è
hy dro
huma ine</w>
fri ends</w>
dev rait</w>
at o
aimer ais</w>
7 0</w>
produ ire</w>
pos er</w>
p éri
mach ines</w>
kno wn</w>
in vol
es sion</w>
cal cul
arriv é</w>
ré c
i ther</w>
fai te</w>
di vers
aî t</w>
ar ly</w>
G e
ty pes</w>
t ac
spec i
fi que</w>
f ille</w>
en -
dy nam
dis ease</w>
En gl
1 0
vi es</w>
différ ence</w>
di ed</w>
é ducation</w>
th ird</w>
o d
kil om
enti er</w>
c au
ati que</w>
ain st</w>
M i
A f
ven tion</w>
sim ul
per met</w>
mess age</w>
m é</w>
gouvern ement</w>
dro ite</w>
cr u
all é</w>
A c
ple in</w>
p ast</w>
nee ds</w>
mo t</w>
milli ers</w>
contin ue</w>
ati c
S .</w>
énor me</w>
tur ned</w>
t or
servi ce</w>
see ing</w>
pl y</w>
ob tenir</w>
in k</w>
fin alement</w>
direc tion</w>
ch é</w>
att end
ac y</w>
C o
ti ent</w>
them selves</w>
do m</w>
d û</w>
ass embl
abil ité</w>
to m</w>
pres ent
p il
ob vi
g one</w>
forma tion</w>
enti re</w>
de al</w>
T r
sen te</w>
per haps</w>
em o
ear ly</w>
poli tique</w>
par ts</w>
mi les</w>
k y</w>
interes ted</w>
h on
bu y</w>
bas ed</w>
b ed</w>
C ar
1 8
uni que</w>
ro c
pou ss
fin ally</w>
eu ses</w>
deven u</w>
bâti ment</w>
am éli
ter ms</w>
quick ly</w>
ment al</w>
dev i
com bien</w>
amoun t</w>
ag ainst</w>
resear ch</w>
er ait</w>
concep t</w>
an a</w>
O kay</w>
I D
É tats-Unis</w>
is er</w>
g ave</w>
fav or
b ab
ang l
P o
E ver
k ey</w>
i vent</w>
heu re</w>
ess ed</w>
eff ic
des cri
chac un</w>
vol ution</w>
v ite</w>
stu dents</w>
scientifi ques</w>
quel s</w>
puis se</w>
ne y</w>
for mer</w>
f ici
ch im
au -
ai ls</w>
agr icul
po n</w>
p lic
o is</w>
every one</w>
conc lu
ati f</w>
évol u
économ ie</w>
éch elle</w>
s li
l ab
k ill
esp èce</w>
dis par
dev ant</w>
car te</w>
a jou
D o</w>
è rent</w>
rel ation
publi c
ma ins</w>
h au
ais se
a do
P l
s ound</w>
pré sente</w>
af in</w>
I s</w>
â ge</w>
signi fic
lear ned</w>
kno w
hab it
environ ment</w>
comm en
can not</w>
veu lent</w>
sou ff
respon s
res p
pré c
clo se</w>
syst èmes</w>
program me</w>
p ain</w>
iti é</w>
end ed</w>
ell ing</w>
d eux
com pris</w>
ai rement</w>
T o
è nes</w>
ré du
o thers</w>
midd le</w>
m ots</w>
in spir
in fr
at ely</w>
Chin a</w>
sel on</w>
pos é</w>
ob ten
m ine</w>
le ave</w>
l y
l au
k er</w>
in str
con vers
v re</w>
tour n
pos ed</w>
orig in
in tro
de fin
construc tion</w>
br u
ag e
produ its</w>
celu i</w>
vi ens</w>
thous ands</w>
ter me</w>
ordin ateurs</w>
at om
wal k</w>
visi ble</w>
me dic
in er</w>
es c
ent -
beg an</w>
ap pr
am a</w>
v illes</w>
some times</w>
m auv
g en</w>
M al
s il
inste ad</w>
fi c</w>
en ir</w>
e ight</w>
T u</w>
équi pe</w>
pétro le</w>
pati ents</w>
mouv ement</w>
sh are</w>
en e
d anger
ar -
ér o</w>
sel f-
ing éni
g ars</w>
ey es</w>
ent u
cro iss
chang es</w>
utilis é</w>
tri ed</w>
s ent</w>
n ot
is ter</w>
i ve</w>
h old</w>
gr ad
f lu
bu re
app li
ais se</w>
Y es</w>
wo od</w>
w in
si onn
fac ile</w>
evol ution</w>
ev oir</w>
comp li
am ment</w>
util ise</w>
ur b
s se</w>
entre prise</w>
em ent
c us
P ar</w>
r est</w>
progr am</w>
jeu nes</w>
heu re
fas cin
f un</w>
comm on</w>
ad v
W i
ê tres</w>
stu dy</w>
ser i
physi que</w>
i rs</w>
er ie</w>
cert aine</w>
a h
9 0</w>
is tr
gro w</w>
an z
lit tér
intelli gence</w>
for mes</w>
demand er</w>
b one</w>
to -
sorti r</w>
sor tes</w>
s cre
re cogni
prés ent</w>
pens ez</w>
esp ère</w>
améli or
T i
Ch ine</w>
tur al</w>
st and
secon de</w>
per spec
liv res</w>
ist an</w>
fin i</w>
R ight</w>
étudi ants</w>
pens ent</w>
oug e</w>
obj et</w>
chang é</w>
cel l</w>
b ack
J ust</w>
t our</w>
extr ê
constru it</w>
chang ed</w>
travail le</w>
rais ons</w>
long er</w>
grap hi
gi ven</w>
fon dament
as soci
H o
w in</w>
s on
r ê
l and
know le
eas y</w>
cur ité</w>
con tribu
ter mes</w>
pl as
mi d
là- bas</w>
iss ons</w>
différ ent</w>
d a</w>
ac tions</w>
Pe ople</w>
sal le</w>
s pend</w>
nu it</w>
nor mal</w>
meill eure</w>
enc y</w>
con fi
cap it
boo ks</w>
ac tive</w>
N ot</w>
A t
él è
thé orie</w>
particuli er</w>
nouv eaux</w>
loc al</w>
h ands</w>
fri end</w>
f ly</w>
aur a</w>
C ert
y -
prof ess
op ér
it able</w>
is ions</w>
incredi ble</w>
dimen sions</w>
bl ack</w>
as s</w>
Wor ld</w>
En suite</w>
él ev
vol u
ti onne</w>
ti le</w>
o de</w>
mo itié</w>
informa tions</w>
in iti
condi tions</w>
y our
wee k</w>
us ement</w>
solu tions</w>
rè g
r on
pi èce</w>
h ô
eng ag
d é</w>
au th
rése au</w>
pré f
pre dic
li re</w>
c ot
bl an
I mag
z er
tiv ement</w>
oun d
your self</w>
for ces</w>
fa ther</w>
e at</w>
F or
v acc
t a</w>
opportun ity</w>
h ic
dro it</w>
difficul t</w>
bi le</w>
N A</w>
é p
we b</w>
it h</w>
im pro
for ward</w>
dé plac
deux ième</w>
br ought</w>
J u
ver te</w>
s er</w>
mo lé
me an
jeu ne</w>
entre pren
d en
co lo
cent aines</w>
ven u</w>
tru c</w>
st at
import ance</w>
imagin er</w>
i an</w>
ful l</w>
en cour
con se
col on
U. S.</w>
vir tu
tr an
rob ots</w>
p eur</w>
mag ni
ma p</w>
l ég
e ither</w>
comp an
chi ff
ac ti
S ec
un ch</w>
the ory</w>
simpl y</w>
s po
pren ez</w>
por ts</w>
li ber
aut ant</w>
ab o
E tats-Unis</w>
B u
é tique</w>
vo ie</w>
titu de</w>
th y</w>
mé dec
ma thé
l anc
h ol
cul p
ci ties</w>
V i
I ci</w>
vi de</w>
so ient</w>
r un
or m
end ing</w>
cent er</w>
audi ence</w>
D i
w ouldn</w>
st age</w>
per i
liter ally</w>
i um</w>
f au
et é</w>
entr er</w>
dé mo
ét és</w>
z ed</w>
til s</w>
ti m
sup er</w>
star ting</w>
sou s-
s si
religi on</w>
par fois</w>
oun t
obj ets</w>
nee ded</w>
h ind</w>
essay é</w>
dis ait</w>
de ath</w>
cle ar</w>
P ro
résul tat</w>
qu ent</w>
lear ning</w>
g es</w>
b all</w>
ain ed</w>
S ome</w>
S A</w>
é tions</w>
wr ite</w>
v ag
si ble</w>
pens ons</w>
pas sion</w>
mo lec
is ent</w>
ing ly</w>
fonc tionne</w>
c ut</w>
arri ère</w>
T o</w>
P r
C am
v as
tat s</w>
t ely</w>
sem aines</w>
se a</w>
proj ets</w>
ni ce</w>
mor ning</w>
fais ant</w>
dom aine</w>
différ ente</w>
cl in
char ge</w>
celu i-
u su
océ an</w>
h eur</w>
D av
A t</w>
ét ant</w>
truc s</w>
tour ner</w>
sp ent</w>
sho ws</w>
sh ape</w>
power ful</w>
n ds</w>
knowle dge</w>
fr an
for t</w>
fin anci
fin al</w>
esp èces</w>
e ful</w>
bot tom</w>
W e
O 2</w>
G u
C a</w>
A D
sen s
sem aine</w>
rel ation</w>
re uses</w>
pap er</w>
li b
imp li
do ivent</w>
der rière</w>
wee ks</w>
sé curité</w>
realiz ed</w>
qu it
pres ent</w>
o re
mondi ale</w>
low ed</w>
comport ement</w>
Ch ar
tal ked</w>
st y
gi ves</w>
ex te</w>
cu le</w>
Ri ch
3 00</w>
tro is
pouv ais</w>
po or</w>
f ine</w>
f ast</w>
comp ag
behav ior</w>
alim ent
ail leurs</w>
ach eter</w>
a des</w>
wr ote</w>
so l</w>
rap port</w>
me dia</w>
laiss er</w>
fiel d</w>
f it</w>
dur ing</w>
ch ev
b loo
b act
bact éri
D ar
val eur</w>
t ation</w>
s ch
pr es</w>
maladi e</w>
is ation</w>
cr ati
cher ch
be hind</w>
aut or
ar ts</w>
Qu el
remar qu
r an</w>
occu p
iz e</w>
fer ence</w>
ec tu
dévelop per</w>
d it
civ il
I ra
val ue</w>
underst anding</w>
te am</w>
se pt</w>
s itting</w>
ré sou
par mi</w>
op ti
f er</w>
comm uni
clim ate</w>
1 6</w>
z ones</w>
wh ite</w>
voul ait</w>
sol eil</w>
pro pres</w>
ing ton</w>
in tu
conn u</w>
col le
ain ing</w>
D NA</w>
ye ar-
t op
po nd</w>
parti cip
nuc lé
nuc le
mil it
man u
ma them
eux -
dé pend
ci dent</w>
Ever y
C an</w>
sec re
s culp
p ay</w>
obj ec
im m
fac il
d on
conf érence</w>
con ten
con séqu
any body</w>
am s</w>
M ay
t ors</w>
mati n</w>
gro wing</w>
design ers</w>
aver age</w>
as truc
M e
H e
C O2</w>
è tes</w>
règ les</w>
ri ed</w>
j eux</w>
h op
gé ni
fic ation</w>
cu ri
b acter
ap er</w>
AD N</w>
vo itu
quanti té</w>
ot y
gro w
fil ms</w>
ati ves</w>
ang i
ai e</w>
S ome
vit esse</w>
t ab
sex u
mati ère</w>
loc k</w>
h and
doll ar</w>
cor rec
com pr
b ons</w>
as es</w>
ai m
ag no
Re gard
travaill é</w>
r ay
prin ci
pi r
ph ones</w>
perspec tive</w>
nomb reux</w>
no tion</w>
in sp
ill s</w>
hum ans</w>
grap h
fun c
en ge</w>
dis cus
comple x</w>
c aus
br an
bon heur</w>
bo ard</w>
ali for
C alifor
th ank</w>
sup port</w>
suiv re</w>
sh ort</w>
per for
o p</w>
natu rel
n ec
m ang
li e</w>
infr astruc
in s
gl ace</w>
econom y</w>
ec h</w>
are as</w>
Qu i</w>
N ig
vo is</w>
parti es</w>
er ed</w>
croiss ance</w>
compu ters</w>
coll abor
atte indre</w>
ar ed</w>
absolu tely</w>
t él
t elling</w>
r .</w>
kno ws</w>
he ad
c u</w>
ant age</w>
a tri
é b
z z
um ents</w>
run ning</w>
ou tils</w>
ne igh
lo st</w>
l uc
econom ic</w>
chang ing</w>
and a</w>
a king</w>
voy age</w>
t elle</w>
se ems</w>
produ ce</w>
pour riez</w>
fel t</w>
fais ait</w>
design ed</w>
car act
Engl ish</w>
19 8
y a</w>
télé phone</w>
succ ès</w>
résou dre</w>
réalis é</w>
op en
ob ser
l abor
gre en</w>
In di
spec tac
s mo
ru les</w>
h ai
fi ed</w>
eu e</w>
dom in
communic ation</w>
Al l
wat ch</w>
ten d</w>
t rem
su st
scientifi que</w>
ro w</w>
rest aur
prof essi
mo tiv
maladi es</w>
lors qu&apos;</w>
l on
galax ies</w>
foc us</w>
em b
con s
av enir</w>
ad op
P au
è tre</w>
so li
o is
montr é</w>
happ iness</w>
expli quer</w>
dr u
disco vered</w>
b s</w>
Sou th</w>
Rich ard</w>
H ar
t aux</w>
re l</w>
re ality</w>
r ont</w>
pre u
pour raient</w>
pou vi
phil os
pat tern</w>
et c
concep tion</w>
av es</w>
T ou
P eu
so f
s tic
ré el</w>
pré ci
pic tures</w>
obj ect</w>
grow th</w>
cré e</w>
chall enge</w>
c lu
bor n</w>
ach iev
v rir</w>
ser ont</w>
sc ène</w>
s ement</w>
rec ently</w>
re gi
p ages</w>
mor al</w>
h as
es -
entre prises</w>
dé mi
compan ies</w>
av ail
v ic
ren du</w>
mo ved</w>
k ers</w>
indus try</w>
in a</w>
im pression</w>
g ol
fo re
f all</w>
dist ance</w>
contr ô
b én
ê me</w>
tend ance</w>
su dd
st ep</w>
scienti sts</w>
ress ources</w>
racon ter</w>
pour rions</w>
po is
institu tions</w>
do ig
d en</w>
bi z
b ene
ati onn
Dav id</w>
A p
trois ième</w>
ti rer</w>
spe ak</w>
so on</w>
premi ers</w>
perfor man
nucle ar</w>
le g
hav en</w>
gr é</w>
gir l</w>
gi ving</w>
f ar
et c</w>
colo r</w>
K en
Av ec</w>
pro pri
issu e</w>
h en
génér ation</w>
fac es</w>
ant ly</w>
al tern
R us
M a</w>
serv ices</w>
ré s
péri ode</w>
pr ess</w>
m au
k et</w>
in te</w>
etc .</w>
en e</w>
al low</w>
B ro
vi vent</w>
ma tion</w>
lo se</w>
g ènes</w>
de gre
cam p
artic le</w>
al lo
P er
Ou r</w>
M c
é cl
to x
reas ons</w>
positi ve</w>
mon ter</w>
mo di
li k
incredi bly</w>
gener ation</w>
develop ing</w>
convers ation</w>
b onnes</w>
ar t
appro che</w>
am us
élé ments</w>
u le</w>
s ing</w>
re qu
r end</w>
mar cher</w>
mag az
hundre ds</w>
for d</w>
dé s
dé b
dis ant</w>
cont act</w>
ér é</w>
écri re</w>
voitu res</w>
relation ship</w>
re fl
p ped</w>
maj or</w>
l ate</w>
jus tice</w>
i ds</w>
fun dament
beg in</w>
è de</w>
w ind</w>
u les</w>
realiz e</w>
journ ée</w>
j um
invol ved</w>
industri e</w>
g ue</w>
four n
de ep</w>
con stitu
br as</w>
bl ue</w>
t as</w>
pren ons</w>
ou bli
oc cas
lead ers</w>
iv al
experi ment</w>
es po
de dans</w>
contr ôle</w>
biz ar
be comes</w>
H I
y er</w>
vér ité</w>
ti ss
mater ial</w>
g er
din gs</w>
cu is
cou leur</w>
con science</w>
cli matique</w>
as h</w>
appel er</w>
ê ts</w>
économ ique</w>
terri ble</w>
mau vais</w>
famil i
empl oy
e th
develop ed</w>
dem ment</w>
connaiss ance</w>
any one</w>
étu de</w>
to ols</w>
séri e</w>
st and</w>
réfléch ir</w>
ré p
num bers</w>
net work</w>
ho od</w>
gu ess</w>
for c
fe eling</w>
di ver
all ait</w>
C ol
tic ally</w>
se em</w>
s w
pr ac
pl aying</w>
p ire</w>
ou rs</w>
modè les</w>
mo vie</w>
meill eurs</w>
liv ed</w>
l an
in qui
g es
con serv
chau ff
agricul ture</w>
N ational</w>
tr a</w>
tin y</w>
sho wed</w>
pap ier</w>
nomb reuses</w>
fi x
eff ici
de ad</w>
dar k</w>
b le
ash ington</w>
ag ir</w>
Uni vers
B er
put ting</w>
prot ég
maj or
ki d</w>
individu al</w>
grou pes</w>
cher cher</w>
c o</w>
bu d
av ion</w>
W ashington</w>
ul arly</w>
on to</w>
n ational</w>
mi gr
d ers</w>
c ars</w>
at ur
ab ly</w>
2 4</w>
wor th</w>
read ing</w>
re présente</w>
pouv aient</w>
plan e</w>
mas s</w>
lic ations</w>
li er</w>
f en
effec tivement</w>
cel le-
ass is</w>
O b
Joh n</w>
J us
D on</w>
0 0
ré es</w>
cel l
big ger</w>
at ors</w>
Lo ok</w>
viol ence</w>
vi eux</w>
te ach</w>
spe ed</w>
qu alité</w>
mauv aise</w>
m enti
imagin ation</w>
high -
fil les</w>
dé cl
di tion</w>
N e</w>
t an
sub j
resul t</w>
lang age</w>
inst ant</w>
d us</w>
cho ice</w>
al one</w>
C or
B ri
suff is
s ever
produc t</w>
pos s
no body</w>
mo de</w>
i als</w>
hu it</w>
h our</w>
fo ot</w>
end ant</w>
cont ent</w>
ch arg
b us</w>
absolu ment</w>
œu r</w>
résul tats</w>
réc emment</w>
port able</w>
phys ical</w>
pers onal</w>
pauv res</w>
mom ents</w>
bil ity</w>
O f</w>
M an
J ap
A g
z o
w ish</w>
trav ers
to wards</w>
st ars</w>
s ong</w>
proch aine</w>
part ager</w>
o ds</w>
nec ess
investi ss
int é
h é
extrê mement</w>
contin ent</w>
avail able</w>
ar bres</w>
I T</w>
t- on</w>
sol ve</w>
r an
poli tical</w>
l ap
int ell
hor ri
f ils</w>
dur ant</w>
d au
a b</w>
N A
Fr anc
E inste
us h
ti fs</w>
rou te</w>
pl ants</w>
o re</w>
m ount
l as
ic ité</w>
ev id
ent end
cr ise</w>
bén é
ato ire</w>
N otre</w>
4 00</w>
é mer
tre es</w>
t ar
re té</w>
po ni
po m
fai ts</w>
do or</w>
cre ating</w>
bre ak</w>
as king</w>
arti fici
acc ès</w>
vrai e</w>
s mar
r ôle</w>
perf ect</w>
pens ais</w>
opti mis
o es</w>
ho sp
f il</w>
commerci al</w>
ar en</w>
ac ts</w>
Einste in</w>
Be au
w ers</w>
proj ects</w>
n av
mon th</w>
m anger</w>
intellig ent</w>
i tions</w>
go al</w>
for ms</w>
dis poni
dev rions</w>
cy cle</w>
chang ements</w>
certain ly</w>
b elle</w>
ari a</w>
a- t-il</w>
1 4</w>
écr an</w>
trans form
ter m</w>
sur viv
su it</w>
st op
ro ad</w>
rap ide</w>
radi o</w>
pl at
particuli èrement</w>
médic am
mo vement</w>
mar i
l ines</w>
infrastruc ture</w>
im es</w>
heure usement</w>
er reu
d ying</w>
clas si
bloo d</w>
b all
A près</w>
. 000</w>
ét oi
étoi les</w>
élec tri
st er</w>
st er
sav ent</w>
ra dic
r ic
r ate</w>
pour tant</w>
per cep
pens ée</w>
me et</w>
lic ation</w>
l am
espo ir</w>
enn es</w>
eff ect</w>
appro ach</w>
C ar</w>
19 7
year- old</w>
utilis ant</w>
uc k</w>
ti ci
t ree</w>
scientifi c</w>
s auv
puiss ance</w>
on y</w>
lu i-même</w>
issu es</w>
ish ing</w>
in tr
f y</w>
car bone</w>
cap ables</w>
ap es</w>
ais ons</w>
S an</w>
F in
y es</w>
tw are</w>
st es</w>
ri gh
ph én
lik ely</w>
les quelles</w>
exper im
e e</w>
car di
bure au</w>
Li fe</w>
A d
til l
terr ain</w>
str ong</w>
s ave</w>
ro r</w>
pol lu
ograp hi
génér al</w>
dis ons</w>
chan son</w>
car bon</w>
c eau</w>
b oug
ar d
M ême</w>
M il
D é
1 ,
wr it
wal king</w>
w all</w>
v end
u t
tot ally</w>
to wn</w>
sever al</w>
s le
s ites</w>
ob s</w>
mes ur
mer ci</w>
il lu
fig u
dev ice</w>
cr is
conv ain
be y
an ni
Su d</w>
Regard ez</w>
Peu t-être</w>
techni que</w>
stu pi
ris que</w>
ris k</w>
res ources</w>
pr ice</w>
inst all
entu ally</w>
en reg
ec i
cap ital</w>
ar gu
B y</w>
ét onn
é lo
t on
sof tware</w>
si ez</w>
sho wing</w>
re ach</w>
peri od</w>
n an
merveill eux</w>
ma tiques</w>
grou ps</w>
expl ain</w>
eu sement</w>
el op</w>
ec es</w>
dri ve</w>
conn aître</w>
chiff res</w>
c it
T ur
H om
4 5</w>
v él
un es</w>
tru th</w>
ser ies</w>
s it</w>
pr int
phén om
moy enne</w>
lau n
iti ve</w>
exist ence</w>
dig ital</w>
continu er</w>
bey ond</w>
bacter ia</w>
ar ily</w>
ad d</w>
utilis ent</w>
qu ence</w>
per du</w>
nor m
n ant</w>
mas se</w>
le ad</w>
it aire</w>
inter est</w>
gen e
g el
exc iting</w>
dé r
dev elop</w>
de hors</w>
con sum
chem in</w>
ati s
angl ais</w>
Wh ere</w>
O r
C an
tr ad
sé par
sur tout</w>
succ ess
so ir</w>
simil ar</w>
scho ols</w>
qu ant</w>
pro per
nam ed</w>
n ine</w>
littér alement</w>
in ce</w>
enti ons</w>
ation ale</w>
ang le</w>
ab l
S y
Beau coup</w>
w n
vis age</w>
ve aux</w>
str ai
sol ar</w>
si a</w>
ser t</w>
sen si
re ly</w>
n ation</w>
la w</w>
intér êt</w>
influ ence</w>
g ot
extraordin aire</w>
esp eci
especi ally</w>
enf in</w>
décou vrir</w>
de e
d ate</w>
cré ation</w>
cid ent
celui- ci</w>
c ad
bat ter
a ï
Nig er
u te</w>
se par
poli ce</w>
pe ine</w>
neu r
mu r</w>
ir st</w>
fr ag
devi ennent</w>
develop ment</w>
co c
chall eng
cam era</w>
bas ic</w>
an thro
acc ess</w>
M us
19 6
é ment</w>
w ants</w>
vo ix</w>
sust ain
sou hai
qu ar
organis ation</w>
neu ro
ist en</w>
ess ing</w>
du ce</w>
des truc
co eur</w>
arrê ter</w>
L ors
travail lent</w>
suiv ante</w>
régi on</w>
pi eces</w>
li es</w>
l ors</w>
hist or
gre at
exemp les</w>
déf i</w>
cro ire</w>
complex e</w>
br ill
bo x</w>
ac ks</w>
M IT</w>
étu des</w>
ét ape</w>
éco les</w>
vé cu</w>
tot alement</w>
sup pose</w>
star ts</w>
sol aire</w>
réus si</w>
r ue</w>
r ing</w>
pré hen
partic ularly</w>
pa int
on ed</w>
obvi ously</w>
mathem atic
mater ials</w>
l ess
kilom ètres</w>
ival ent</w>
intern et</w>
incre as
hig her</w>
grad u
g est</w>
ec o
der son</w>
del à</w>
ain t</w>
We b</w>
0 -
sym bo
reven ir</w>
qu ality</w>
pi ed</w>
lo i</w>
exam ples</w>
ent endre</w>
en orm
cir cul
b éb
as sur
ag ing</w>
May be</w>
Cert ains</w>
étudi er</w>
vol on
st oc
res ter</w>
po ver
n y</w>
ma gi
fre e
ey e</w>
e fully</w>
cul tures</w>
coun t</w>
conn ected</w>
com peti
Chin ese</w>
B ill</w>
B ar
An y
9 9</w>
1 3</w>
sti mul
seri ous</w>
s avais</w>
re cor
r ich</w>
qu és</w>
prot oty
obj ects</w>
men er</w>
lo wer</w>
l iste</w>
journ alis
intéress ante</w>
im medi
g am
ext érieur</w>
evid ence</w>
du r</w>
d ly</w>
bab y</w>
V al
F irst</w>
Am éric
1 50</w>
ç on</w>
visu al</w>
tot al</w>
str i
rencontr é</w>
r y
pr ét
pr ati
pour rais</w>
mor ceau</w>
l av
intell ectu
in sec
g y
for tu
expéri ences</w>
esp ér
cor ru
con ver
ch in
cel les</w>
bre a
ab and
Wh ich</w>
H u
E very</w>
Afric an</w>
électr icité</w>
wr iting</w>
t au
secre t</w>
s ell</w>
re çu</w>
plan tes</w>
pauv reté</w>
no tice</w>
iz ed</w>
i des</w>
f arm
bri dge</w>
be au</w>
appel ée</w>
a fric
S ol
Pl us</w>
Mo st</w>
Af gh
1 7</w>
trouv ent</w>
pré par
nuclé aire</w>
nat ely</w>
moy ens</w>
is é</w>
incroy ablement</w>
ic ity</w>
human ité</w>
g as</w>
fr app
comm un</w>
ch es
TE D
è n
trai tement</w>
st ay</w>
sp read</w>
s at
réalis er</w>
no ir</w>
mea sure</w>
m ise</w>
logi ques</w>
iz ation</w>
h onn
ex er
en ly</w>
e ch
cu l</w>
b unch</w>
activ ité</w>
ac ter</w>
L à</w>
wor l
tri c</w>
ther e
succ ess</w>
spec ial</w>
re cord</w>
r ouge</w>
probab il
potenti al</w>
p it
os au
l un
ex pression</w>
com préhen
centr al</w>
cau ses</w>
c af
aff aires</w>
Wh o</w>
W al
T V</w>
HI V</w>
w il
t ent
sci ences</w>
s ed</w>
pover ty</w>
on c
oll y
mé tho
mean ing</w>
matéri aux</w>
long ue</w>
log ici
ke e
in j
ga z</w>
g ames</w>
f eu
ev entually</w>
direc tement</w>
de ed</w>
d ance</w>
ci el</w>
cap e</w>
arti s
aisse z-moi</w>
x im
we b
v it</w>
t â
su res</w>
st or
rel ations</w>
pro che</w>
possibil ité</w>
pe au</w>
m it</w>
larg er</w>
fin ir</w>
favor ite</w>
di x</w>
di pl
dev ait</w>
d i</w>
cu les</w>
c en
aur ais</w>
ass er</w>
An derson</w>
v ot
um ent
terr or
t al</w>
some where</w>
some how</w>
sk in</w>
senti ment</w>
scre en</w>
ri es</w>
res pond</w>
présent ation</w>
ple ase</w>
ma in
im médi
divers ité</w>
car tes</w>
ag ed</w>
abo ve</w>
T w
R ob
Pau l</w>
Li ke</w>
Ch aque</w>
ér is
ye ah</w>
ti ves</w>
thous and</w>
su n</w>
stre et</w>
soci étés</w>
sim ples</w>
répon dre</w>
pu bl
pat tern
mou rir</w>
moder n</w>
l é</w>
k m</w>
hy po
for th</w>
fo ot
ex pen
every where</w>
el ec
dé mar
bio log
al li
ai sir</w>
ag ent</w>
we a
so ft</w>
sli de</w>
ré g
pul l</w>
particu les</w>
p ê
p ping</w>
or ge</w>
off ice</w>
mé can
mor ts</w>
magaz ine</w>
din osau
cont exte</w>
c œur</w>
b omb
ati fs</w>
NA SA</w>
temp ér
po lic
philos oph
performan ce</w>
or d</w>
ne w
mor tal
inté gr
hundre d</w>
gr atu
gir ls</w>
faç ons</w>
f es
eff ort</w>
ec k</w>
d ites</w>
che f</w>
c ach
bizar re</w>
ap préci
ali ve</w>
Wi ki
S a
3 5</w>
ur ity</w>
tech n
struc tures</w>
ri di
pl ant</w>
phys ics</w>
p y
p p
or b
ne l</w>
mod els</w>
ist ance</w>
fol low</w>
est- il</w>
essenti ally</w>
envoy er</w>
di agno
dem o
clas s</w>
ch ir
certain ement</w>
buil dings</w>
big gest</w>
aut eur</w>
anti -
alis ation</w>
al ing</w>
ai ses</w>
T imes</w>
S i
Nor d</w>
5 ,000</w>
w ai
uni quement</w>
trai ter</w>
stu dent</w>
st anding</w>
sor ts</w>
poli tiques</w>
per man
op in
li bre</w>
inter vie
im men
h it</w>
fur ther</w>
fundament al</w>
extraordin ary</w>
ext rem
en om
dé termin
d le</w>
bo y</w>
av anc
am bi
Qu el</w>
E ven</w>
2 000</w>
u ment</w>
s end</w>
ri ch
recher ches</w>
ou d</w>
or dre</w>
n et</w>
min istr
l isten</w>
exp ect</w>
démi e</w>
cour t</w>
be ings</w>
b our
t ait</w>
sup posed</w>
su n
sti ques</w>
sti c</w>
shi ps</w>
se -
re ci
port é</w>
origin al</w>
magni fique</w>
m él
ign or
fl u</w>
ext inc
excep t</w>
cl air</w>
av antage</w>
atmosph ère</w>
ach es</w>
P ak
A l</w>
vol er</w>
utilis ons</w>
tem per
sk y</w>
s is</w>
pe dia</w>
part i</w>
l ist</w>
in fin
gener al</w>
ell -
dé tru
cha î
cam ér
ag ue</w>
Nor th</w>
Is l
sh e
s pr
pic k</w>
olly wood</w>
le gs</w>
l è
jour ney</w>
insp i
in vention</w>
he av
gi es</w>
eu m</w>
er ai</w>
em is
ear th</w>
bactéri es</w>
asp ect</w>
all ais</w>
al g
W est</w>
Th ose</w>
univers ité</w>
tion ary</w>
t &apos;</w>
sty le</w>
respon se</w>
r ace</w>
p ig
onn er</w>
o od</w>
milli ard</w>
me chan
mas sive</w>
lo wing</w>
is co</w>
flo or</w>
expen sive</w>
c lear
bio logy</w>
appro pri
ado re</w>
Com bien</w>
Char les</w>
é pi
vi end
usu ally</w>
ul aire</w>
tre at
tou ch</w>
th es
t as
strat é
sp ati
s we
s atis
premi ères</w>
ma le</w>
ma inten
larg est</w>
in ez</w>
imp anz
hau te</w>
fron ti
fi re</w>
emp ê
développ é</w>
divers ity</w>
del i
d ès</w>
cé ré
cour ant</w>
confi ance</w>
comp lic
ativ ité</w>
ar m</w>
T u
S er
P ers
- je</w>
wi fe</w>
w ise</w>
viv ant</w>
trans formation</w>
tr ait</w>
séri eux</w>
sur prise</w>
sau ver</w>
pers on
per mettre</w>
par ten
o w
me ant</w>
k a</w>
gre w</w>
grand -
fam ous</w>
dess ous</w>
conc evoir</w>
co in</w>
bio logie</w>
am i
ad a</w>
actu ellement</w>
M ex
Ken ya</w>
D is
w ait</w>
um in
tradi tionn
th me</w>
t ex
sym p
répon du</w>
prot ection</w>
o eu
indivi dus</w>
h a</w>
for est</w>
f us
es ts</w>
dou te</w>
coll è
clas se</w>
bud get</w>
av ère</w>
atmosph ere</w>
arr y</w>
Sec ond</w>
P endant</w>
O n
In stitu
D H</w>
A h</w>
6 00</w>
sur pris
success ful</w>
ré si
res s</w>
r assembl
qu arti
pr ennent</w>
pl a
pie ds</w>
ni a</w>
l at
kill ed</w>
inv est
id ent</w>
g ent
fortu nately</w>
fab ric
extrem ely</w>
exc ited</w>
essenti ellement</w>
cri tical</w>
cont ext</w>
celle- ci</w>
arri vent</w>
any way</w>
N &apos;</w>
Au jourd&apos;</w>
soci ale</w>
reven u</w>
re mark
pris on</w>
organiz ation</w>
n ote</w>
invent ed</w>
ill ustr
g ers</w>
cr az
cam p</w>
c ents</w>
al lowed</w>
ac cor
T ous</w>
Ne w
vi ve</w>
to i</w>
sto re</w>
sour is</w>
sm aller</w>
san g</w>
pouss er</w>
pay er</w>
pattern s</w>
on e-
in visible</w>
h ur
ex ion</w>
ev e</w>
essay ons</w>
coû t</w>
complic ated</w>
co ff
ch impanz
S ci
B en
wat ching</w>
tel ls</w>
tau ght</w>
sour ces</w>
si on
sh ar
ser ve</w>
re ti
r ot
qu ée</w>
ob lig
k ill</w>
individu als</w>
im self</w>
ill ing</w>
do g</w>
distribu tion</w>
an ks</w>
aliz ed</w>
aiss ance</w>
activ ity</w>
Qu elle</w>
C ity</w>
B F</w>
A ustr
ver rez</w>
u tile</w>
tu er</w>
tomb er</w>
teach ers</w>
secon des</w>
sa fe</w>
ré un
re qui
qu e
ph enom
phenom en
per mis</w>
opportun ité</w>
mo bile</w>
l ever</w>
l ancer</w>
iss ez</w>
gen es</w>
ess aie</w>
e gr
depend ent</w>
co ver</w>
c enti
b a</w>
ay ant</w>
ativ ity</w>
actu al</w>
Lors que</w>
vo is
viv ons</w>
techni ques</w>
stand ard</w>
re ç
p pe</w>
ograp h
océ ans</w>
no ther</w>
h i</w>
gag ner</w>
fon d
eu res</w>
enorm ous</w>
en ci
con ference</w>
commenc ent</w>
b a
amélior er</w>
W ith</w>
T ro
M in
Af ter</w>
A nother</w>
é ma</w>
v in</w>
urb an</w>
u pon</w>
u g
smar t</w>
sho t</w>
se x</w>
se in</w>
ré volution</w>
pol l
pay s
n ée</w>
n ul
mark eting</w>
invent é</w>
im pres
habitu de</w>
h imself</w>
ex is
engine ering</w>
en jo
diri ge
di am
dem i</w>
cre ative</w>
au- dessus</w>
at ement</w>
ar bre</w>
a po
ID S</w>
val u
thre e-
teach er</w>
oxy gène</w>
organis mes</w>
j et
ho t</w>
f é
electr icity</w>
cu e
bu t
al though</w>
R é
O ù</w>
G al
Americ ans</w>
A re</w>
éro s</w>
y ez</w>
ven ue</w>
sy mé
sph ère</w>
s ses</w>
ré cu
r ange</w>
pré si
pro vo
prim er</w>
po issons</w>
ot h</w>
fonc tion</w>
fl ying</w>
duc tion</w>
do wn
cri me</w>
craz y</w>
atte int</w>
astr onom
asp ects</w>
S p
Franc isco</w>
B on
tri b
t ée</w>
sym me
st om
s pon
ob s
neu f</w>
mus cle</w>
mi r
li en</w>
les quels</w>
is ol
heal thy</w>
fi é</w>
e br
dé sor
cur r
corru ption</w>
conclu sion</w>
cli ents</w>
cir cu
ci pl
ch ron
bi bli
b loc
amen er</w>
am ong</w>
ad ministr
ad d
V I
Niger ia</w>
écou ter</w>
um ul
trou ble</w>
sou nds</w>
s low</w>
resp ect</w>
regard é</w>
proc é
ound ation</w>
op pos
met tent</w>
mal aria</w>
inter face</w>
ill ed</w>
e duc
det er
cris is</w>
co o
blan c</w>
bal e
b ing</w>
S te
S &apos;</w>
Bi g</w>
1 7
- là</w>
val eurs</w>
pois son</w>
pass ent</w>
par avant</w>
organis ms</w>
on line</w>
l it</w>
import antes</w>
ic ago</w>
explor er</w>
en vers</w>
el ess</w>
dro its</w>
concer ne</w>
char acter</w>
br û
argu ment</w>
ai rs</w>
P re
M an</w>
J ames</w>
Ge orge</w>
Ch icago</w>
vo ice</w>
ven ant</w>
squ are</w>
se p
répon ses</w>
recogni ze</w>
pré cé
potenti el</w>
oxy gen</w>
ol der</w>
obvi ous</w>
obser ver</w>
objec tif</w>
lis ten
graphi que</w>
g ing</w>
fantas tic</w>
fall ait</w>
f eu</w>
dé ci
dou ble</w>
dist inc
d an
cor respon
conf lic
cas es</w>
c a</w>
ai ment</w>
ac ting</w>
ac qu
Su r</w>
O k</w>
I tal
G er
éri eure</w>
w ell-
there fore</w>
t- ils</w>
sim plic
ri che</w>
respons abilité</w>
r ise</w>
progr ès</w>
pro por
pr ouv
po ids</w>
pan ne
ou vert</w>
on ique</w>
mot eur</w>
intern ational</w>
in dic
in come</w>
imagin ez</w>
got ten</w>
g é</w>
fabri quer</w>
en th
em erg
dis cipl
danger ous</w>
c élè
beau té</w>
au paravant</w>
M icro
M S</w>
H um
E ast</w>
Dar win</w>
étr ange</w>
wal ked</w>
to ire</w>
ti ers</w>
th i
sudd enly</w>
su me</w>
str ange</w>
py ram
produc ts</w>
produc ed</w>
positi f</w>
photograp h</w>
oun c
orig ine</w>
nul le</w>
natu rel</w>
n ég
int egr
hi er</w>
gar der</w>
fai ble</w>
condu it</w>
cl ass
ch ers</w>
bl ement</w>
aff i
af ter
Th e
J a
F ro
Afgh an
A IDS</w>
writ ten</w>
voul aient</w>
vo ient</w>
vari ous</w>
v endre</w>
us er</w>
tri e</w>
tes ts</w>
tel ev
t ap
sub st
ré f
ret our</w>
respon si
pro vi
pol y
plan ètes</w>
plan ets</w>
min ds</w>
iss ant</w>
is es</w>
instr ument</w>
immedi ately</w>
h all
géni al</w>
for êt</w>
f ou
démo crati
dis cours</w>
de -
commun aut
beau ty</w>
b ought</w>
b om
au x
altern ative</w>
al ités</w>
B ush</w>
élo ign
wer en</w>
w el
voul u</w>
volu me</w>
v ely</w>
v an</w>
ti les</w>
thè se</w>
ta x
sur vive</w>
sc ope</w>
roc k</w>
ro le</w>
publi que</w>
prof it</w>
polic y</w>
percep tion</w>
pa tho
nor d</w>
mis sions</w>
mi le</w>
land s
j obs</w>
dra w</w>
cul tu
compréhen sion</w>
ch al
beso ins</w>
be l</w>
ann ing</w>
all ée</w>
a tr
wor se</w>
ver tes</w>
v res</w>
tour ne</w>
te x</w>
suiv ant</w>
som met</w>
sho wn</w>
rédu ire</w>
re volution</w>
re present
princi pe</w>
pi le</w>
ma m
iss ement</w>
et h</w>
essay e</w>
eff or
du re</w>
dre am</w>
direc t</w>
conten u</w>
chois ir</w>
c ab
au to-
as se</w>
appar eil</w>
all és</w>
L u
Har v
Afghan istan</w>
étr ang
ver ture</w>
v ul
trem end
tes -
stu di
spir itu
speci fic</w>
ré com
program m
pr int</w>
poli tici
pi èces</w>
partic les</w>
no ire</w>
neigh bor
lig nes</w>
lanc é</w>
ill er</w>
gre ater</w>
fo ssi
f ré
ex ist</w>
esc ope</w>
er ont</w>
em br
cle an</w>
chir ur
ch ent</w>
car ry</w>
bat tre</w>
allo ws</w>
aff aire</w>
Tr ès</w>
R B</w>
D es
évi demment</w>
écri v
web site</w>
vé hic
v an
tru ly</w>
t ail</w>
stic k</w>
st ly</w>
sign al</w>
secon ds</w>
s car
remark able</w>
pri or
preu ve</w>
play ed</w>
num éro</w>
mathé matiques</w>
liber té</w>
le ase</w>
la b</w>
intér esse</w>
ing ing</w>
informa tique</w>
incre ase</w>
in deed</w>
i ers</w>
h ér
h ot
fu el</w>
form ed</w>
fas hi
famil ies</w>
enti èrement</w>
dur able</w>
comp éti
ch ap
caract éris
bo is</w>
b att
aw are</w>
av ing</w>
ag é</w>
ab sor
J e
Austr al
tradi tional</w>
thr ough
sup pl
r ai</w>
pr atique</w>
pl aît</w>
or ches
n ers</w>
mon te</w>
l or
ke pt</w>
fas ter</w>
exc it
dé cri
design er</w>
desc end
d il
cuis ine</w>
cou p
connaiss ez</w>
chi en</w>
bre ad</w>
ac cident</w>
P aci
H y
H ey</w>
é ment
val ues</w>
trans former</w>
tr ic
telev ision</w>
st ar</w>
se em
resul ts</w>
restaur ant</w>
regi on</w>
progr ess</w>
permet tent</w>
o id</w>
médicam ents</w>
médi as</w>
my st
mo i-même</w>
lang ue</w>
gén é
famil les</w>
f low</w>
dis cu
d ence</w>
d anger</w>
cor tex</w>
bou te
av is</w>
au- delà</w>
anc y</w>
alis er</w>
aff ec
a qu
Y our</w>
G en
win do
vi a</w>
télé vision</w>
ther n</w>
sor ti</w>
soci aux</w>
si as
qu o
pi an
p air</w>
p aid</w>
ois eaux</w>
mount ain</w>
medic al</w>
mani pul
k y
hosp ital</w>
ech no
dic tion</w>
cur rent</w>
clo ser</w>
c old</w>
aut onom
att endre</w>
améric ain</w>
ac king</w>
St eve</w>
Pu bli
M id
2 1
we ight</w>
utilis ation</w>
ti z
sig n</w>
rel ated</w>
r i</w>
priv il
nécess aire</w>
nu tri
m ate</w>
li qui
int es</w>
inclu ding</w>
ic on</w>
gh ter</w>
g ang</w>
for te</w>
fai r
entrepren eurs</w>
eng th</w>
ear lier</w>
e pi
discus sion</w>
con çu</w>
b its</w>
ant a</w>
and -
aliz ation</w>
actu elle</w>
H aw
Ac tu
ti ens</w>
sur g
suj ets</w>
su sp
sc ri
sau f</w>
ram en
plac er</w>
pl ong
lu t
ligh ts</w>
instr uments</w>
famili ar</w>
facil ement</w>
evol ved</w>
enti ss
enn u
el le-
décou verte</w>
déc en
dé s</w>
cor por
convain c
con fron
cat astr
c ens
ad y</w>
Y ou
VI H</w>
Pers onne</w>
7 5</w>
trav el</w>
to ol</w>
t ements</w>
om s</w>
ographi c</w>
occas ion</w>
mem bres</w>
immédi atement</w>
fin ding</w>
enti ère</w>
enti r</w>
ent- ils</w>
effic ace</w>
dis appe
derni ers</w>
connaiss ent</w>
complex ité</w>
clear ly</w>
cl airement</w>
ch ant</w>
cel ebr
bo î
ay ons</w>
autom o
ati c</w>
améric ains</w>
alg ori
ag ement</w>
ac compl
ab str
V ir
S atur
Publi c</w>
Harv ard</w>
An gl
A R
ér ation</w>
vér itable</w>
tab le
s op
s am
pro pos
pr êt</w>
pollu tion</w>
oun ded</w>
naturel le</w>
mét ap
moder ne</w>
me -
laiss é</w>
l ay
is se</w>
gro sse</w>
fol lowing</w>
es ter
cré ativité</w>
conn ect</w>
as i
ar es</w>
any where</w>
a head</w>
Tw o</w>
M u
G ol
19 5
1 0,000</w>
wai ting</w>
w ever</w>
vi br
tran si
the tic</w>
sum mer</w>
su mer</w>
souv en
sec urity</w>
puiss ent</w>
professi onn
priv ate</w>
medic ine</w>
m iss
gén étique</w>
gri ppe</w>
grand i</w>
farm ers</w>
es tern</w>
envir onn
em er
donn ent</w>
der ed</w>
cr acy</w>
consom mat
connaiss ons</w>
co sts</w>
bio logical</w>
bal ance</w>
b and</w>
Tou tes</w>
Pak istan</w>
Ira q</w>
Go od</w>
Améric ains</w>
underst ood</w>
treat ment</w>
tre at</w>
tr ag
ti n</w>
tempér ature</w>
tem por
rése aux</w>
puiss ant</w>
p el
ous ness</w>
onn é</w>
n ur
mar ine</w>
man que</w>
li ons</w>
inst ance</w>
i les</w>
f aux</w>
dru gs</w>
d ens
contr oll
compag nie</w>
cha el</w>
blo g</w>
bel ow</w>
arti stes</w>
acc essi
R es
Micro soft</w>
Mi chael</w>
A us
zer o</w>
z aines</w>
teach ing</w>
t ech</w>
sec teur</w>
reven us</w>
re ce
présent er</w>
profess eur</w>
pres sure</w>
pl aisir</w>
mus ici
mo on</w>
mi x
lo is</w>
k i</w>
iss ait</w>
human ity</w>
great est</w>
for mid
fig ur
explo re</w>
en ing</w>
dé part</w>
des tro
dec ision</w>
cou leurs</w>
comple te</w>
ci tiz
ch rom
al -
ad or
acc él
T wit
S ID
SID A</w>
M r.</w>
In ter
E m
An gel
1 5
us eful</w>
ti en</w>
sh or
se ar
s ité</w>
rè gle</w>
ra se</w>
pu zz
protég er</w>
possi bly</w>
orig ami</w>
n ou
major ité</w>
l u</w>
inter action</w>
inf ec
import ants</w>
hy per
h am
gr am
gr ade</w>
fais aient</w>
et ers</w>
ent ed</w>
dev ais</w>
des tin
de b
cit oy
capit alis
camp agne</w>
appe l</w>
angi o
ak er</w>
acc umul
P al
L on
Isl am</w>
trou ver
tiv ely</w>
sph ere</w>
sop his
som me</w>
sol di
sol d</w>
signific ant</w>
s and
ré chauff
righ ts</w>
ri ches</w>
pouvi ons</w>
personn el</w>
p ital</w>
ni es</w>
ne ar</w>
met ap
me eting</w>
march és</w>
long -
jou e</w>
hor iz
he at</w>
has ard</w>
gouvern ements</w>
entr aî
dét ails</w>
déc ision</w>
disco ver</w>
dis eas
coû te</w>
cham bre</w>
al th</w>
achiev e</w>
S tre
P ri
Lon don</w>
Imag inez</w>
Gre at</w>
B l
équi p
équ ili
é th
wi de</w>
w arm
ver re</w>
ve hic
tw ice</w>
sustain able</w>
stati s
st on</w>
ru le</w>
rec y
ques -
qu ick</w>
pro vide</w>
lo ir</w>
lim ites</w>
ligh tly</w>
h an
fo ie</w>
fi ques</w>
expéri ment
explor ation</w>
en vie</w>
eff ets</w>
do s</w>
dat s</w>
cri tique</w>
bil ité</w>
be coming</w>
as ed</w>
arri ver
anc ed</w>
ab e
Uni on</w>
K e
ér ences</w>
won der</w>
v a
trans par
te -
suiv i</w>
sm all
s pl
s ons</w>
s avait</w>
per d
pens ait</w>
pass ait</w>
parl ait</w>
o thè
milit ary</w>
logici el</w>
ho le</w>
fais ais</w>
extr a</w>
environ mental</w>
emp ath
dec ade</w>
cô te</w>
conn ais</w>
concentr er</w>
con tra
au raient</w>
appel ons</w>
any more</w>
Univers ity</w>
R oc
Fr ance</w>
Cel u
Califor nia</w>
Bi ble</w>
év iter</w>
y ons</w>
w all
ven us</w>
ven ait</w>
tw o-
tremend ous</w>
tour né</w>
situ ations</w>
ry thme</w>
r al
prot ect</w>
phénom ène</w>
o ther
not es</w>
mat ch</w>
m ér
is ant</w>
fr ustr
four mis</w>
di vis
cre ativity</w>
cr af
cho ose</w>
car to
caf é</w>
bel i
aiss ent</w>
a w</w>
Wiki pedia</w>
S W</w>
Ob ama</w>
O x
N i
L os</w>
K i
K B</w>
ve -
thi op
temper ature</w>
ser aient</w>
sculp ture</w>
qu eue</w>
produ isent</w>
proch aines</w>
princip al</w>
parl ons</w>
off ici
nav ig
molé cules</w>
matéri el</w>
lo gues</w>
leg al</w>
jam bes</w>
er e
em por
déc isions</w>
dé e</w>
dri ving</w>
direc tly</w>
con ç
competi tion</w>
chaî ne</w>
ch air</w>
b ar</w>
av iez</w>
auth enti
C et</w>
Ag ain</w>
ô me</w>
électri que</w>
v aisse
v ac
trai ts</w>
ten sion</w>
suffis amment</w>
senti r</w>
s wit
per dre</w>
mat h</w>
lev els</w>
l aisse</w>
hô pital</w>
g ent</w>
fin ger</w>
fantas tique</w>
doig ts</w>
destruc tion</w>
dess in
dec ide</w>
conn ection</w>
coff ee</w>
chrom o
cellu le</w>
cal cul</w>
béb é</w>
blo gs</w>
ajou ter</w>
W ar</w>
Th om
St an
S we
K o
C l
3 D</w>
3 2</w>
1 ,000</w>
tr ack</w>
tiv ité</w>
tiv ity</w>
ter res
ter ed</w>
stu dies</w>
so ins</w>
ré vél
re ach
r ant</w>
qu an
pren ant</w>
pos t-
pauv re</w>
ou til</w>
opin ion</w>
on ic</w>
n ations</w>
journ al</w>
f actu
er res</w>
dro p</w>
dou bl
consom mation</w>
concep ts</w>
colle ge</w>
chin ois</w>
boug er</w>
M .</w>
Ch il
2 1</w>
wor st</w>
trans port
tra de</w>
tr om
tr aining</w>
tou cher</w>
t- elle</w>
sk ills</w>
si x
s oul
récu p
ress ent
responsi bility</w>
pl ans</w>
par adi
obten ez</w>
n one</w>
mont agne</w>
met ers</w>
lo b
li c</w>
horri ble</w>
gl ass</w>
gene tic</w>
g ig
figu red</w>
f al
ex position</w>
ess ence</w>
effici ent</w>
e ating</w>
déplac er</w>
dimen sion</w>
différ ences</w>
di r</w>
dec isions</w>
complex ity</w>
che ap</w>
bor d</w>
bi om
bi e</w>
at ory</w>
aliment aire</w>
Twit ter</w>
R ome</w>
Califor nie</w>
C al
û t</w>
è ge</w>
tradi tion</w>
tr ou</w>
through out</w>
st ation</w>
quot e</w>
pur pose</w>
pou nds</w>
possibil ités</w>
personn age</w>
pass ant</w>
parl ent</w>
paradi g
o log
médec ine</w>
mil le</w>
m as</w>
li fe
i ères</w>
fl ot
fe ar</w>
fair ly</w>
défin ition</w>
duc ed</w>
diseas es</w>
deven ue</w>
dev raient</w>
degre es</w>
cul tural</w>
consi d
co m</w>
ce aux</w>
ble u</w>
bir d</w>
at ti
as t
artic les</w>
ang u
T it
E st</w>
élev é</w>
v ê
v ote</w>
trouv ez</w>
su d</w>
strai ght</w>
sh el
popul ar</w>
par fait</w>
o eil</w>
no tic
men é</w>
mark ets</w>
li eux</w>
inspir ation</w>
galax y</w>
func tion</w>
fun ny</w>
f its</w>
ester day</w>
er n
enc ed</w>
effor ts</w>
d ans
communi ties</w>
ch aus
ai g
ac te</w>
ac ked</w>
Thom as</w>
P res
Mo ore</w>
Is ra
Br it
évolu é</w>
tem bre</w>
studi o</w>
rê ve</w>
ré sol
ri e</w>
religi ous</w>
re comm
program s</w>
profon d</w>
ph rase</w>
pass age</w>
mondi al</w>
met tez</w>
ma î
m ed</w>
l in</w>
iv ed</w>
i è
gr as</w>
galax ie</w>
fe ed</w>
f ight</w>
ent ure</w>
doc tor</w>
d rait</w>
cu t
condi tion</w>
comp ét
ci de</w>
challeng es</w>
br ains</w>
bo dies</w>
bas is</w>
R oy
O N
Jap an</w>
Fro m</w>
Angel es</w>
A b
1 .
év én
è se</w>
wh ose</w>
w is
tis h</w>
ti ennent</w>
sur r
sup ply</w>
subj ect</w>
sor ry</w>
sc op
ré ci
reg ard</w>
r oul
quel ques-
pre par
pe in
pas s</w>
necess arily</w>
men te</w>
me th
li br
labor atoire</w>
it ted</w>
ingéni eurs</w>
in dépend
g anda</w>
ex pos
ex pon
es h</w>
dé si
collec tive</w>
c ise</w>
auth or
arti sts</w>
anci ent</w>
ag ues</w>
ag ree</w>
ach eté</w>
Val ley</w>
F ren
D eux</w>
Can ada</w>
2 7</w>
ur r
tu be</w>
tra j
tim ate</w>
spe aking</w>
sat ell
satell ite</w>
regard ons</w>
princip es</w>
on str
ni veaux</w>
montr ent</w>
mo stly</w>
mesur er</w>
mess ages</w>
merveill euse</w>
low -
la ws</w>
l em
l ation</w>
g â
eas ily</w>
démocrati e</w>
dé ment</w>
dé cr
dynam ique</w>
doig t</w>
doc ument
dis aient</w>
capac ités</w>
capac ity</w>
bat eau</w>
ach et
ac cro
V ery</w>
L ond
En core</w>
1 6
étudi ant</w>
y el
travaill ons</w>
tionn aire</w>
su e</w>
st one</w>
sear ch</w>
s ev
ri er</w>
rencontr er</w>
rem pl
program mes</w>
profon dément</w>
profon d
pr essed</w>
poll en</w>
o kay</w>
n ent</w>
n aissance</w>
mag as
huma ines</w>
h éros</w>
gol f</w>
expon enti
er ais</w>
en z
effic ac
e er</w>
demo cracy</w>
consi der</w>
coll ap
cid ents</w>
ch ances</w>
br illi
b uc
ar ies</w>
am p</w>
ag re
W om
O c
Indi an</w>
D o
émo tions</w>
à- dire</w>
vie ill
u res</w>
tu é</w>
s lightly</w>
s cr
ri g
remarqu able</w>
prac tice</w>
pouvi ez</w>
popul ations</w>
pe ace</w>
p un
mé mo
lu e</w>
lead er</w>
l ou
l i</w>
industri al</w>
fashi on</w>
evol u
eux- mêmes</w>
est- à-dire</w>
entr ée</w>
em ic</w>
e k</w>
dem onstr
degre e</w>
cré atures</w>
cot é</w>
cor ner</w>
cont empor
communaut és</w>
com pon
chac une</w>
c y</w>
c anc
b ag
ap art</w>
anti bio
an alo
algori th
al le
Ox ford</w>
N at
Imag ine</w>
Chr ist
B ra
évi dent</w>
ét end
ét aire</w>
énor mes</w>
v éri
to il
thro w</w>
sou d
servi r</w>
s n
s ki
s at</w>
ri vi
remar qué</w>
re plic
r are</w>
quarti er</w>
pouv ons-nous</w>
ph ase</w>
pai x</w>
p ush</w>
ouv rir</w>
our ce</w>
magi c</w>
j au
gr ain</w>
gl amour</w>
fonctionn er</w>
esp aces</w>
erreu r</w>
di rait</w>
defin ition</w>
cru ci
cro w
conn ect
commer ce</w>
ci er</w>
bâti ments</w>
bibli othè
b in
av ancer</w>
av ance</w>
améric aine</w>
V otre</w>
Stre et</w>
Ou ais</w>
Lond res</w>
Ja pon</w>
I I</w>
A B</w>
z éro</w>
z en</w>
wor kers</w>
v el
tri ce</w>
t els</w>
sur faces</w>
régi ons</w>
ru p
rom an
re jo
rai se</w>
port ables</w>
poli tics</w>
p én
num érique</w>
new sp
n ez</w>
molec ules</w>
mem bre</w>
meill eures</w>
là- dessus</w>
it ablement</w>
int s</w>
in -
ig ne</w>
gag né</w>
fin ished</w>
fi x</w>
fabric ation</w>
f le
exp ected</w>
ex i
ex hi
ev ent</w>
entiss age</w>
en se</w>
em ail</w>
effec tive</w>
e ties</w>
e p
dan se</w>
célè bre</w>
ci vi
bir ds</w>
ans wers</w>
anima tion</w>
ag nes</w>
ac coun
I ran</w>
G h
Fren ch</w>
C .</w>
B as
A sie</w>
2 ,000</w>
élé ment</w>
wor ry</w>
ul ation</w>
tél é</w>
tom be</w>
sugg es
su m</w>
st ac
seu ls</w>
seem ed</w>
sec tion</w>
s ick</w>
r ationn
pian o</w>
occu per</w>
oc cur
institu tion</w>
immen se</w>
hydro gène</w>
g ed</w>
fran ch
formid able</w>
form ing</w>
eu r
er al</w>
eff ects</w>
ec ter</w>
e ils</w>
di rais</w>
conséqu ences</w>
camér a</w>
aur ons</w>
appr entissage</w>
app reci
ap pu
adul tes</w>
S un</w>
S ch
L aissez-moi</w>
Jus te</w>
Gr and</w>
D el
D an</w>
Ap ple</w>
Actu ally</w>
éti ez</w>
tâ che</w>
tur ning</w>
table au</w>
simul ation</w>
si f</w>
sh all</w>
sc en
s af
regard ant</w>
qu ences</w>
proch ain</w>
princi ple</w>
par k</w>
on al
nom mé</w>
mortal ité</w>
mo indre</w>
m ètre</w>
lands cape</w>
l en
j e
innov ations</w>
in ed</w>
h air</w>
fro id</w>
for get</w>
es thé
engine ers</w>
emo tional</w>
el a</w>
ec k
désor mais</w>
deven us</w>
dev riez</w>
cre ates</w>
commen ç
cho ices</w>
cher che</w>
call s</w>
br inging</w>
bou lot</w>
amus ant</w>
amen é</w>
am p
al ities</w>
a c</w>
S im
Quel qu&apos;</w>
P i
Joh n
H ollywood</w>
Every body</w>
C e
é missions</w>
us age</w>
tri al</w>
transi tion</w>
suppl ément
sel y</w>
re fu
r appelle</w>
possibil ity</w>
neu tr
mor ale</w>
min im
mathematic s</w>
ma xim
m un
m el
m aisons</w>
lim it
is try</w>
inter prét
indivi du</w>
in struc
govern ments</w>
fac t
experim ents</w>
er o</w>
er -
epi dem
enreg istr
di ence</w>
cre atures</w>
complex es</w>
cl é</w>
arti st</w>
appel ait</w>
am b
all aient</w>
ac ier</w>
Rob ert</w>
N ature</w>
Institu te</w>
D u
Av ant</w>
A sia</w>
- year-old</w>
épi démie</w>
è le</w>
w ave</w>
vis ite</w>
tou rs</w>
si onal</w>
scienti st</w>
sau ce</w>
qu ées</w>
phys ici
p â
open ed</w>
o logie</w>
neigh b
mo r</w>
li f
iè mement</w>
illu sion</w>
ig no
hydro gen</w>
he ads</w>
hall uc
gran dis
g in
fu sion</w>
free dom</w>
fai tement</w>
er ons</w>
envoy é</w>
elle- même</w>
déb at</w>
d est</w>
d ad</w>
cou rir</w>
contr aire</w>
cli ent</w>
cent age</w>
billi ons</w>
back ground</w>
ati vement</w>
at temp
ap er
air plane</w>
Th ink</w>
M any</w>
K ing</w>
Ju li
D r.</w>
C enter</w>
1 9</w>
w est</w>
v enti
ti di
tel e
t ol
spir it</w>
ré uni
prési dent</w>
prés ence</w>
poss ède</w>
pon t</w>
par faitement</w>
p ical</w>
o logy</w>
notic ed</w>
net works</w>
nat ur
mo ves</w>
listen ing</w>
intéress é</w>
inspi red</w>
h ell</w>
gri m
fin anc
f res
f igh
dé ch
di zaines</w>
dev oir</w>
descri be</w>
cri min
cour be</w>
conflic t</w>
con duc
c al</w>
bro ad
bre ak
bir th</w>
bio logique</w>
bi a</w>
be aux</w>
augment ation</w>
aug mente</w>
and er</w>
aliz e</w>
al titude</w>
Sci ence</w>
S on</w>
R w
P ren
vidé os</w>
télé phones</w>
stop ped</w>
ste ad</w>
prot é
proc ess
port ée</w>
pas sionn
nou s-
mor ceaux</w>
micro -
lo ved</w>
l ent
hol ding</w>
fi ce</w>
fas se</w>
es cal
er as</w>
empl o
el ements</w>
ec ting</w>
dom es
desc endre</w>
cor respond</w>
cons iste</w>
connec tions</w>
augment er</w>
as ter</w>
as ses</w>
You Tu
T ake</w>
M arti
De puis</w>
Au dience</w>
- up</w>
y esterday</w>
warm ing</w>
w illing</w>
vill ages</w>
ver sus</w>
uni ver
trans port</w>
ti mat
tal ks</w>
t une</w>
sur vivre</w>
ré action</w>
re duce</w>
pu ts</w>
prob able</w>
pos sé
pon s</w>
ph ere</w>
neighbor hood</w>
n és</w>
mus ée</w>
mo bil
mi rac
mi que</w>
m ène</w>
ingéni erie</w>
il a</w>
high ly</w>
er ez</w>
eas ier</w>
déj eu
décl ar
collè gues</w>
chois i</w>
chau d</w>
ber g</w>
anci en</w>
add ress</w>
YouTu be</w>
P or
N um
M ad
In stead</w>
C u
Angl et
A s
î le</w>
tu m
tra ff
te au</w>
spectac le</w>
so i</w>
sle ep</w>
rel ev
re vient</w>
quo tidi
produc tive</w>
possi bles</w>
plas tic</w>
opér ation</w>
motiv ation</w>
mem ory</w>
mea su
m ur
lo ad</w>
l ets</w>
jum p</w>
j a
it ement</w>
it ely</w>
in titu
in no
gén ome</w>
fon ds</w>
fer me</w>
el ed</w>
dra ma
dou leur</w>
direc tions</w>
dimen sional</w>
cre ation</w>
concer ned</w>
communic ate</w>
chem ical</w>
att ack</w>
atri ce</w>
at tribu
an k
am ène</w>
R em
B ay</w>
B C</w>
Anglet erre</w>
Al ex
4 7</w>
200 5</w>
émo tionn
wil d</w>
vo l</w>
vi ce</w>
v aut</w>
tu ni
tuni ties</w>
timat ely</w>
ter a</w>
so ign
sep tembre</w>
sembl ent</w>
secon d
se l</w>
s able</w>
ro y
religi ons</w>
recy cl
préc is</w>
prototy pe</w>
ple ine</w>
peu ple</w>
p ush
ou reux</w>
observ ation</w>
ob stac
n ets</w>
métho de</w>
mémo ire</w>
m ons</w>
las er</w>
kno wing</w>
is tic</w>
is ons</w>
impres sionn
halluc in
glo be</w>
for ment</w>
foc used</w>
fic tion</w>
er ve</w>
enth ou
elec tric</w>
eff on
dé bu
di v
dau ghter</w>
danger eux</w>
comp are</w>
char bon</w>
cel lent</w>
bi en-
be at</w>
ativ ely</w>
arriv és</w>
angi ble</w>
ag ré
W illi
W estern</w>
To day</w>
T al
Par fois</w>
P an
Mid dle</w>
Ho ward</w>
H is</w>
Go re</w>
éch ou
was te</w>
vou s-
usu al</w>
tr op
t ask</w>
sc ol
s é</w>
s low
s and</w>
ru es</w>
re ls</w>
preu ves</w>
par as
p in
oppor tunities</w>
neur ones</w>
ne g
n on
n ar
is tre</w>
intro du
inter act</w>
inten se</w>
i m</w>
fer a</w>
eng ine</w>
e ding</w>
cou che</w>
consci ousness</w>
commen çons</w>
cli p</w>
civil ization</w>
ci per</w>
cel er
boî te</w>
ay ez</w>
as sum
ap s</w>
ad ver
W ow</w>
S il
S al
L in
K .</w>
E thiop
œ il</w>
vis it</w>
ver ing</w>
ven ez</w>
v is</w>
trai te</w>
tes- vous</w>
sub -
st ates</w>
sp ending</w>
seri ously</w>
ré ser
ren contre</w>
profon de</w>
pres se</w>
oc cident
n arr
mé ment</w>
mouv ements</w>
mauv aises</w>
m ée</w>
it er
is és</w>
incroy ables</w>
hel ping</w>
heal th
har mon
gar de</w>
fl exi
explo sion</w>
ex plan
e dge</w>
décri re</w>
déci der</w>
d ol
cu stom
cr ick
cor al</w>
contrô ler</w>
collabor ation</w>
chang ent</w>
ch és</w>
catastr op
c lic
bo at</w>
ban de</w>
b ble</w>
arriv ée</w>
ap porter</w>
ac cidents</w>
W il
S tu
Pre mi
Ira k</w>
G o</w>
D id</w>
Any way</w>
étudi é</w>
équili bre</w>
én erg
éch an
y m
wall s</w>
vi ande</w>
ver ts</w>
t ext</w>
stu dying</w>
st em</w>
sou viens</w>
sol dats</w>
sing es</w>
sh oc
ri re</w>
re tourner</w>
re mer
rai d</w>
r ough
r appel
puis que</w>
pres ents</w>
popul aire</w>
pi erre</w>
pi c</w>
phil anthro
per c
pen ses</w>
pai g
organ ic</w>
mou se</w>
me at</w>
m â
luc ky</w>
li ens</w>
la w
k ets</w>
it or</w>
fu r</w>
fourn ir</w>
for table</w>
exper ts</w>
er ies</w>
enthou sias
dynam ic</w>
dri ven</w>
d avantage</w>
convainc re</w>
compli qué</w>
ch eck</w>
cat ch</w>
behav i
b ill
ap pl
am or
Ri en</w>
Hom me</w>
Con gr
Ce pendant</w>
Bri tish</w>
A ma
2 50</w>
ét abl
échan till
vou loir</w>
ti er</w>
stati stiques</w>
st uck</w>
st ers</w>
st able</w>
r ain
princip les</w>
pr end
pl o
par aly
op tions</w>
mu rs</w>
manu factu
le ads</w>
l ands</w>
intellig ents</w>
i di
ho re</w>
hel ped</w>
g ar</w>
fr u
flu x</w>
financi al</w>
exper t</w>
es cl
ect ly</w>
e ar</w>
dem an
cham p
cau ght</w>
caractéris tiques</w>
bou che</w>
bo ys</w>
bene fit</w>
b et</w>
au quel</w>
angio gen
ai m</w>
ag on
ag ers</w>
ac celer
Jap an
I m
D P</w>
Bo ston</w>
At lan
équ ivalent</w>
yel low</w>
vr ais</w>
ty pical</w>
ti r</w>
t aient</w>
sur veill
spec tr
separ ate</w>
sc ann
ré par
ressembl ent</w>
respon sible</w>
radi ation</w>
publ ished</w>
princip alement</w>
pour ra</w>
pl anning</w>
perf ectly</w>
organiz ations</w>
organis ations</w>
on iques</w>
net to
mo vies</w>
mo tion</w>
m én
lè ve</w>
let ter</w>
j un
it ch
is ément</w>
i ous</w>
gar çon</w>
f ying</w>
ent ôt</w>
dru g</w>
di vi
dess in</w>
de g
d um
considé r
con tient</w>
con sul
colle agues</w>
col or
cham p</w>
cam paig
c ass
b lock</w>
arm ée</w>
ari o</w>
appar eils</w>
alis é</w>
ail l
ai t-il</w>
ag os</w>
aff ir
ad ol
Sol eil</w>
Rw anda</w>
N ations</w>
M es</w>
M ag
J er
Every thing</w>
D ev
6 5</w>
2 6</w>
2 ,
. com</w>
ét o
ét e
él ection</w>
z es</w>
tr ust</w>
tr illi
su s
straté gie</w>
slow ly</w>
respons able</w>
relation ships</w>
r ying</w>
r entr
qu ette</w>
pê che</w>
princip ale</w>
pays age</w>
par ty</w>
p ing
or ange</w>
op s</w>
on ing</w>
obten u</w>
mani ères</w>
ly m
ju g
h us
graph ie</w>
gent lem
gen ome</w>
fr ère</w>
fl it</w>
fall u</w>
est ation</w>
erreu rs</w>
er aient</w>
equ ivalent</w>
ec tive</w>
dou b
disponi ble</w>
differ ences</w>
de au</w>
cré ent</w>
car ré</w>
c ard</w>
believ ed</w>
as se
Th anks</w>
P ouv
P ens
M y
Japan ese</w>
G ro
F i
ë l</w>
â tre</w>
volon té</w>
tre ated</w>
trad u
ti tre</w>
ti ble</w>
thin ks</w>
stre am</w>
som bre</w>
sion ate</w>
sh apes</w>
ro l
ri ver</w>
re tourn
re conn
r appeler</w>
prot e
ple a
phenomen on</w>
oug es</w>
miss ing</w>
mani f
lo go</w>
inv est</w>
im prim
habit at</w>
gen e</w>
fr am
fiel ds</w>
fai led</w>
f um
f illed</w>
ect eurs</w>
dom aines</w>
disco very</w>
di ab
design ing</w>
demand ez</w>
dem i-
deg rés</w>
d ente</w>
cro ss
connec ter</w>
compéti tion</w>
com prend</w>
clim at</w>
civil isation</w>
cad re</w>
artis te</w>
app lication</w>
accessi ble</w>
Stan ford</w>
Some times</w>
Ph ili
H é</w>
H er
