, 114902
. 103918
de 72940
la 37883
que 35526
et 35171
est 34276
le 33042
à 30606
les 30334
un 27529
l&apos; 26276
des 24067
en 23340
une 22309
d&apos; 20945
a 20511
vous 19930
qui 18255
nous 18155
ce 17129
dans 16210
pas 15970
Et 15935
pour 15312
je 13980
il 13689
&quot; 12883
qu&apos; 11445
du 11357
ne 10867
c&apos; 10436
plus 10185
on 9708
y 9135
? 8908
n&apos; 8907
sur 8886
ai 8838
-- 7934
j&apos; 7428
se 7333
sont 7325
avec 7251
au 7161
ils 6935
fait 6867
’ 6720
Je 6687
é 6669
: 6621
ces 6389
ont 6281
ça 6232
er 6153
C&apos; 6133
cette 5987
comme 5975
faire 5842
par 5778
si 5767
Il 5686
était 5637
tout 5468
avons 5244
s&apos; 5092
ou 5080
mais 5010
Mais 4989
me 4712
elle 4689
être 4609
très 4599
ent 4544
Nous 4511
aux 4407
re@@ 4343
ant 4213
ée 4151
é@@ 4150
monde 4086
bien 4065
ez 3982
dé@@ 3982
gens 3838
chose 3790
ons 3760
dit 3728
cela 3727
ait 3626
és 3623
in@@ 3564
te 3306
même 3302
où 3257
Donc 3256
Vous 3254
J&apos; 3215
été 3177
quand 3098
leur 3058
La 3056
suis 3021
vraiment 3013
s@@ 3008
♫ 2991
tous 2962
choses 2945
peut 2924
ans 2910
beaucoup 2881
notre 2844
aussi 2801
ré@@ 2799
autre 2761
donc 2741
parce 2691
Ce 2686
là 2661
mon 2650
voir 2636
son 2572
ici 2567
deux 2566
quelque 2564
ation 2560
Les 2550
dire 2525
Le 2517
S@@ 2476
es 2465
t@@ 2413
vie 2405
m&apos; 2372
ées 2368
elles 2326
peu 2313
r@@ 2298
autres 2287
Ils 2285
On 2277
avait 2255
e 2252
avoir 2249
ch@@ 2216
s 2185
entre 2185
pouvez 2174
l 2156
c@@ 2140
temps 2140
- 2140
i 2138
-@@ 2133
ais 2132
l@@ 2126
votre 2122
pense 2119
d@@ 2113
b@@ 2109
ement 2099
fois 2049
ie 2045
aient 2016
p@@ 2013
En 2012
eur 2001
avez 1980
mes 1969
v@@ 1941
ité 1928
d 1907
i@@ 1897
di@@ 1880
en@@ 1872
comment 1855
ma 1851
nos 1844
an@@ 1815
o@@ 1815
g@@ 1811
Alors 1794
vais 1756
m@@ 1750
qu@@ 1741
juste 1713
par@@ 1710
moi 1708
ale 1706
ses 1701
Si 1700
années 1698
age 1692
sommes 1690
savez 1688
eux 1685
dont 1670
re 1645
va 1627
maintenant 1619
D@@ 1616
L&apos; 1607
encore 1607
ou@@ 1598
B@@ 1597
eurs 1591
o 1590
is 1585
façon 1585
n@@ 1574
aire 1561
sa 1555
P@@ 1551
ac@@ 1548
C@@ 1545
personnes 1542
leurs 1532
is@@ 1522
alors 1519
toutes 1517
veux 1516
M@@ 1514
ar@@ 1513
it 1511
it@@ 1508
in 1493
enfants 1493
ère 1475
ques 1474
ti@@ 1471
tes 1470
eu 1448
besoin 1443
h@@ 1443
ants 1424
aires 1423
au@@ 1422
té 1421
an 1416
idée 1391
tant 1380
Voici 1380
ag@@ 1370
L@@ 1368
sans 1358
pays 1357
tr@@ 1336
ai@@ 1324
quelques 1323
histoire 1321
lui 1321
pendant 1319
c 1315
or@@ 1307
f@@ 1306
el 1302
moins 1301
a@@ 1299
hui 1297
am@@ 1296
eau 1292
al 1292
jamais 1292
con@@ 1289
ap@@ 1283
ations 1280
non 1269
ex@@ 1255
parler 1250
u@@ 1249
y@@ 1232
toujours 1231
li@@ 1228
après 1228
ab@@ 1228
on@@ 1226
T@@ 1224
E@@ 1215
vers 1210
seulement 1200
pré@@ 1199
A@@ 1193
ante 1191
est-ce 1190
problème 1188
soit 1185
al@@ 1183
av@@ 1179
ét@@ 1175
ter 1172
trois 1163
voyez 1160
u 1157
partie 1154
chaque 1153
R@@ 1150
personne 1142
étaient 1139
êtes 1137
er@@ 1134
! 1125
quoi 1124
... 1113
Elle 1111
ér@@ 1107
toute 1103
peuvent 1098
jour 1097
at@@ 1094
em@@ 1094
ine 1092
dis@@ 1090
Maintenant 1090
ri@@ 1086
cet 1082
pouvons 1081
t 1079
tique 1075
as@@ 1075
sorte 1068
manière 1065
aujourd&apos; 1062
e@@ 1054
première 1052
F@@ 1050
moment 1049
; 1045
ens 1044
système 1040
H@@ 1040
cou@@ 1035
commencé 1033
ue 1029
étais 1026
che 1023
point 1023
question 1021
pl@@ 1018
n 1018
im@@ 1012
avant 1010
ins 1008
co@@ 1006
exemple 1003
peut-être 1002
sûr 1000
è@@ 988
travail 988
po@@ 979
puis 979
« 979
N@@ 978
Un 977
tion 970
inter@@ 969
pourquoi 968
vu 965
Une 964
assez 957
grand 957
A 955
able 953
ance 950
avais 945
aller 941
Cela 940
bon 936
petit 936
ite 934
pro@@ 931
» 929
rien 925
ales 917
qu 914
gu@@ 914
ceci 912
grande 909
mettre 908
ent@@ 907
J@@ 907
depuis 906
tu@@ 905
ères 900
ique 899
Merci 893
environ 889
jusqu&apos; 885
10 884
millions 883
eu@@ 879
genre 878
pi@@ 875
j@@ 873
ad@@ 871
tu 869
es@@ 868
sou@@ 867
trouver 862
font 859
k@@ 859
train 859
pr@@ 855
prendre 854
us 850
Parce 849
important 845
cr@@ 842
fi@@ 842
technologie 839
G@@ 839
montrer 837
ic@@ 836
br@@ 836
r 833
ci@@ 833
per@@ 830
sens 829
car 828
si@@ 824
Quand 823
vos 817
000 817
cré@@ 814
tre 813
avaient 813
pourrait 809
V@@ 809
K@@ 808
forme 807
Ça 805
mar@@ 804
ts 803
passé 799
ph@@ 797
créer 796
ser@@ 794
peux 793
Dans 791
ers 791
faut 785
quelqu&apos; 783
cas 783
% 782
appelle 781
sais 779
com@@ 777
ment 776
tions 774
vi@@ 770
voici 768
utiliser 768
ro@@ 768
passe 765
comprendre 764
dollars 763
crois 761
onn@@ 760
car@@ 759
ill@@ 755
bonne 753
nouveau 751
devons 750
premier 750
ents 742
trans@@ 740
at 740
pris 737
près 735
om@@ 731
bi@@ 730
cerveau 730
plutôt 728
et@@ 725
els 724
Afrique 722
3 722
mo@@ 721
simplement 719
énergie 718
déjà 717
penser 714
homme 713
ages 709
sur@@ 709
gr@@ 707
Pour 705
problèmes 705
op@@ 703
ot@@ 701
ma@@ 701
ass@@ 701
ence 700
année 699
petite 696
20 694
su@@ 693
res 691
ul@@ 686
argent 686
ainsi 686
cher 685
chez 685
ensuite 685
2 683
laquelle 683
fer@@ 680
ions 677
as 674
ir@@ 671
pos@@ 669
I@@ 667
ess@@ 665
donner 664
ain 664
min@@ 664
données 664
ille 663
th@@ 661
Tout 661
ol@@ 661
ise 660
bl@@ 657
ir 656
ables 654
plupart 654
fin 652
jours 651
planète 651
so@@ 649
cent 645
all@@ 644
vrai 644
trouve 644
travers 643
mieux 642
sous 642
savoir 640
mon@@ 639
pouvoir 638
doit 638
enne 638
tent 637
trop 637
O@@ 635
end@@ 634
ensemble 634
nouvelle 633
serait 632
bles 631
quer 630
simple 629
quel 628
ur@@ 628
mois 627
el@@ 627
veut 627
mé@@ 627
vont 627
res@@ 626
ements 626
importe 626
sera 626
us@@ 625
ème 624
pou@@ 623
ville 622
ceux 622
mi@@ 622
idées 619
antes 619
espace 619
place 618
mer 618
ités 618
jou@@ 617
quement 617
cor@@ 612
5 612
agit 612
ches 612
50 610
ire 608
endroit 605
Comment 605
éri@@ 604
allons 602
ge 601
&apos; 600
mis 599
ver@@ 599
cours 598
st@@ 596
rez 595
pour@@ 595
nombre 594
côté 593
vo@@ 593
image 593
vient 592
ateur 592
raison 592
projet 591
marché 589
changer 586
passer 584
lieu 579
appar@@ 578
OK 576
haut 572
autour 566
utilis@@ 565
possible 565
m 565
sions 564
part 563
il@@ 563
expérience 563
ter@@ 562
ines 561
type 561
quatre 559
compte 555
Pourquoi 553
ten@@ 550
for@@ 549
mal@@ 547
alement 547
seule 546
différentes 545
dev@@ 544
ez-vous 543
â@@ 542
cour@@ 542
propre 542
C 541
W@@ 541
certains 540
trouvé 539
and@@ 539
Voilà 539
enfant 538
femme 536
faites 536
ég@@ 535
nature 534
tard 533
gros 533
contre 532
4 532
air 531
cl@@ 531
produit 530
z@@ 530
tri@@ 527
Bon 527
reste 527
vue 524
ang@@ 523
du@@ 522
no@@ 522
man@@ 521
donn@@ 521
its 520
mal 519
arrive 517
construire 516
dr@@ 515
iques 514
partir 514
lorsque 514
Des 513
corps 513
accord 512
allez 510
bas 507
30 507
faisons 507
voulez 506
mère 505
x 505
Ceci 505
teur 504
De 503
livre 502
3@@ 501
Oui 501
devez 499
conn@@ 498
1 496
groupe 496
tres 496
vis@@ 495
to@@ 494
voilà 492
un@@ 492
Bien 492
Cette 492
niveau 491
ist@@ 491
pass@@ 489
sujet 489
donne 488
Au 486
difficile 486
probablement 486
tellement 486
Qu&apos; 485
ves 484
dent 484
société 484
jeu 484
Eh 484
parle 483
1@@ 483
ets 482
milliards 482
Ces 481
ouv@@ 480
réalité 479
essayer 479
Terre 479
pu 478
avions 478
maison 476
univers 476
rem@@ 474
ob@@ 473
D&apos; 473
100 473
aine 473
fais 472
Non 471
bas@@ 471
regardez 471
tiques 471
commencer 469
ues 469
seul 469
époque 468
bo@@ 468
esprit 466
femmes 466
Dieu 466
nouvelles 464
cro@@ 464
souvent 464
j 463
santé 462
plusieurs 460
lo@@ 460
changement 459
voit 459
lumière 459
rel@@ 458
be 457
complètement 457
cu@@ 457
our@@ 456
travailler 456
teurs 455
école 455
photo 454
euse 453
cinq 453
fl@@ 453
rée 453
moyen 453
cer@@ 453
propos 452
8 451
intéressant 450
él@@ 450
2@@ 448
ellement 448
savons 448
ni@@ 448
s-@@ 448
cause 447
rendre 447
long 447
ig@@ 445
6 445
ordinateur 445
fs 443
humain 443
yeux 443
ateurs 442
TED 442
Inde 441
spéci@@ 441
guerre 441
pe 441
venir 440
vol@@ 440
génér@@ 440
presque 440
animaux 439
pu@@ 439
ban@@ 438
ette 438
terre 438
év@@ 437
aime 436
ier 436
érer 436
regarder 436
ven@@ 434
ign@@ 434
int@@ 433
era 433
différents 433
iste 432
Elles 432
réponse 432
ç@@ 430
qué 430
go@@ 430
également 429
alis@@ 429
humains 429
appelé 428
ances 428
heures 427
mor@@ 427
science 426
esse 426
vent 426
sé@@ 426
dernière 426
main 425
gé@@ 424
enti@@ 424
Comme 423
ies 423
sol@@ 422
ains 422
Que 422
début 422
fr@@ 421
entendu 420
aide 420
x@@ 420
pouvait 420
processus 420
sup@@ 419
ev@@ 419
aurait 417
apprendre 417
petits 417
cul@@ 417
ati@@ 417
questions 417
tête 417
prix 416
voulais 416
plan@@ 416
donné 416
bou@@ 414
quelle 413
ach@@ 413
h 413
fin@@ 411
ô@@ 410
information 410
design 410
commence 410
porte 409
pensé 409
musique 409
ren@@ 408
ec@@ 408
fai@@ 408
ligne 407
entr@@ 406
cont@@ 406
disent 406
gl@@ 406
marche 405
demandé 404
por@@ 404
tés 404
gi@@ 403
4@@ 402
partout 402
film 401
arr@@ 401
gar@@ 401
minutes 400
modèle 399
ête 399
Ch@@ 398
dessus 397
aucun 397
lequel 396
aider 396
os 395
Ainsi 394
fu@@ 394
port@@ 392
intérieur 392
enseign@@ 391
dis 390
montre 390
ète 390
existe 390
&#91; 390
&#93; 390
mêmes 389
illes 389
.@@ 388
men@@ 388
voyons 388
7 388
alité 387
iez 386
pli@@ 386
rend@@ 386
famille 385
base 383
f 383
voy@@ 383
ente 381
Mon 381
rer 381
ï@@ 380
Est-ce 380
meilleur 379
public 379
én@@ 379
ettes 378
rai@@ 377
développement 377
art 377
ner 376
environnement 376
ant@@ 376
éch@@ 375
abord 374
centre 374
réellement 374
sait 374
prend 373
19@@ 373
suite 373
effet 371
ons-nous 371
représent@@ 371
croy@@ 370
état 369
ci 369
recherche 369
surface 369
nom 369
comp@@ 369
dois 368
dernier 368
ss@@ 368
um 368
isme 368
le@@ 367
der 367
pen@@ 367
ade 367
pé@@ 366
tionn@@ 366
voiture 366
mesure 366
regarde 365
rement 365
certaines 365
ing@@ 364
rapidement 364
thé@@ 364
histoires 364
arriver 363
semble 363
jouer 362
incroyable 362
coup 361
oui 361
vivre 361
ress@@ 361
mort 360
New 360
père 360
met@@ 359
Par@@ 359
os@@ 359
col@@ 359
inc@@ 358
face 358
signifie 358
loin 358
personn@@ 357
5@@ 357
écrit 356
lu@@ 356
vidéo 356
taille 356
ve 356
exactement 356
découvert 355
e-@@ 354
dernières 354
évolution 354
bout 353
amis 353
fut 353
grâce 352
hommes 352
endroits 352
intéress@@ 351
ju@@ 351
gauche 351
images 351
iter 350
capable 350
site 350
longtemps 349
mu@@ 349
ê@@ 348
aucune 348
gen@@ 348
choix 347
capacité 347
grandes 347
ressemble 347
créé 347
z-vous 346
solution 346
ni 346
tement 346
ture 346
atta@@ 345
dét@@ 343
do@@ 343
celle 342
ain@@ 342
ra 342
mètres 341
futur 340
demande 339
ends 339
tel 339
force 339
appris 339
viennent 338
voudrais 337
siècle 337
15 337
Oh 337
décidé 337
six 337
nourriture 337
issent 337
importante 336
ager 336
grands 336
petites 335
ré 335
communauté 335
ites 334
part@@ 334
out@@ 333
amour 333
comm@@ 332
devenir 331
né@@ 331
ton 330
iss@@ 330
hi@@ 330
40 329
En@@ 329
Puis 329
U@@ 328
Pas 328
60 328
istes 328
Al@@ 328
Amérique 327
ats 327
fier 327
w@@ 327
meu@@ 327
Ou 326
position 325
Ar@@ 325
fac@@ 325
parlé 324
ler 324
trouv@@ 324
ff@@ 323
rés 323
fonctionn@@ 323
devient 323
milieu 322
tez 322
ect@@ 322
tro@@ 321
voulons 321
cellules 321
heureux 321
aimerais 320
Vo@@ 320
devrait 320
humaine 320
fond 320
produire 319
population 319
tou@@ 319
poser 319
tons 319
arrivé 319
faite 318
fon@@ 317
sion 317
att@@ 317
fille 317
rec@@ 316
essay@@ 316
différence 316
Mon@@ 315
entier 315
indi@@ 315
éducation 315
permet 314
rap@@ 314
gouvernement 314
cal@@ 314
9 314
allé 314
droite 314
plein 313
milliers 313
pens@@ 313
mot 313
identi@@ 313
obtenir 312
ché 312
énorme 312
anc@@ 312
prim@@ 312
finalement 312
dû 311
prom@@ 311
t-@@ 311
parti@@ 310
fo@@ 310
politique 308
k 308
continu@@ 308
devenu 307
bâtiment 307
euses 307
combien 306
vari@@ 306
technologies 306
ra@@ 306
se@@ 306
but 305
erait 305
am 305
ver 305
rent 305
États-Unis 304
York 304
tif 304
heure 303
t-il 303
chacun 303
viv@@ 303
ann@@ 302
puisse 302
scientifiques 302
Su@@ 302
vite 301
atif 301
certain 301
tenir 301
rou@@ 301
200@@ 301
échelle 300
économie 300
devant 300
espèce 300
carte 300
pren@@ 300
ari@@ 300
coll@@ 299
compos@@ 299
sub@@ 299
èrent 299
afin 298
culture 297
âge 297
off@@ 296
veulent 296
can@@ 296
aut@@ 296
souff@@ 296
vision 295
iser 295
programme 295
systèmes 295
compris 295
décou@@ 295
ais@@ 293
or 293
selon 293
posé 292
Internet 292
action 292
dou@@ 292
mots 292
celui 291
produits 291
ds 291
terme 290
chance 290
vre 290
organis@@ 290
ordinateurs 290
économ@@ 288
É@@ 288
villes 288
lev@@ 287
attend@@ 287
réalis@@ 287
de@@ 287
bio@@ 287
parl@@ 286
um@@ 286
pétrole 286
équipe 286
syn@@ 286
mouvement 286
Tu 286
z 285
machine 284
attention 284
In@@ 283
oul@@ 283
utilisé 283
nes 283
facile 282
dispar@@ 282
const@@ 282
entreprise 281
Par 281
appel@@ 281
utilise 281
ici@@ 281
jeunes 280
ide 280
photos 280
certaine 279
êtres 279
parents 279
iner 278
physique 278
ca@@ 278
porter 278
Qu@@ 277
formes 277
demander 277
table 276
logique 276
pensez 276
sortir 276
rons 276
espère 276
sortes 276
Chine 276
présent 276
emp@@ 275
bar@@ 275
structure 275
fini 275
seconde 275
livres 275
étudiants 274
sembl@@ 274
pensent 274
changé 274
objet 274
construit 273
te@@ 272
80 272
travaille 272
fondament@@ 272
chim@@ 272
raisons 272
puis@@ 271
termes 270
différent 270
super@@ 270
là-bas 270
nuit 269
meilleure 269
salle 269
ative 269
entes 269
per 268
î@@ 268
nouveaux 268
particulier 268
ment@@ 268
constru@@ 268
gars 268
théorie 268
Ensuite 267
anti@@ 267
rs 267
vers@@ 267
man 266
moitié 266
tis@@ 266
pose 266
informations 266
vou@@ 265
dé 265
œu@@ 265
ile 265
cap@@ 265
pièce 265
loc@@ 264
oi 264
préf@@ 264
lire 264
8@@ 264
oc@@ 264
ne@@ 264
jo@@ 264
réseau 264
extr@@ 263
aff@@ 263
points 263
9@@ 262
mission 261
g 261
cho@@ 261
lis@@ 261
droit 261
D 261
– 261
deuxième 260
form@@ 260
ép@@ 260
sie 260
compl@@ 260
ut 260
prise 259
jeune 259
centaines 259
app@@ 259
z-@@ 258
imaginer 258
truc 258
déf@@ 258
venu 258
demand@@ 258
lég@@ 257
ps 257
situation 257
trai@@ 257
peur 257
aines 257
Etats-Unis 256
prenez 256
autant 256
voie 255
Con@@ 255
inv@@ 255
uns 255
visu@@ 255
irs 255
Ici 255
pan@@ 254
éco@@ 254
CA 254
soient 254
bu@@ 254
change 254
entrer 253
public@@ 253
exp@@ 253
mis@@ 253
sc@@ 253
virus 253
ble 253
disait 252
objets 252
zone 252
0@@ 252
essayé 252
parfois 252
sous-@@ 252
S 251
uc@@ 251
résultat 251
rait 251
considé@@ 251
aura 251
sent@@ 251
J 251
étions 250
logie 250
fonctionne 250
Mo@@ 250
pensons 250
arrière 250
éro@@ 249
plan 249
projets 249
faisant 249
domaine 249
différente 249
semaines 249
sac@@ 249
né 248
défin@@ 248
océan 248
nom@@ 248
fil@@ 247
ay@@ 247
compar@@ 247
7@@ 247
étant 247
bal@@ 247
trucs 247
ressembl@@ 247
espèces 247
derrière 246
semaine 246
doivent 246
diff@@ 245
sécurité 245
Ca 245
comportement 245
cher@@ 244
sor@@ 244
Z@@ 244
mondiale 244
enc@@ 244
lib@@ 244
serv@@ 243
acheter 243
bes 243
écr@@ 243
pouvais 243
ailleurs 243
nu@@ 243
èrement 242
travaill@@ 242
chev@@ 242
25 242
laisser 242
cancer 242
valeur 241
sau@@ 241
ru@@ 241
idé@@ 241
cherch@@ 241
maladie 241
aison 240
inf@@ 240
p 240
tur@@ 240
rapport 240
autor@@ 240
sol 240
développer 240
mains 240
parmi 239
sept 239
gie 239
présent@@ 238
propres 238
connu 238
soleil 238
voulait 238
publi@@ 237
ole 237
conférence 236
racon@@ 236
impli@@ 236
itation 236
cule 236
lic@@ 235
ce@@ 235
compassion 235
plac@@ 235
20@@ 235
matin 235
çons 234
règles 234
met 234
ADN 234
jeux 234
ate 233
quantité 233
bat@@ 233
vitesse 232
ences 232
sal@@ 232
matière 232
nombreux 231
travaillé 231
exc@@ 231
écou@@ 231
mer@@ 231
cop@@ 231
Qui 230
bon@@ 230
pon@@ 230
suivre 230
bonheur 230
glace 230
réus@@ 229
tour 229
habitu@@ 229
atteindre 229
accep@@ 229
croissance 229
vies 229
tal@@ 229
ray@@ 229
dic@@ 228
vois 228
outils 227
ès 227
arriv@@ 227
telle 226
inst@@ 226
faisait 226
ail 226
ure 226
pourriez 226
réalisé 225
résoudre 225
eff@@ 225
téléphone 225
succès 225
onne 225
connaiss@@ 224
quent 224
tient 224
mes@@ 224
attr@@ 223
production 223
scientifique 223
lorsqu&apos; 223
million 223
avenir 223
laiss@@ 223
mont@@ 223
ger 222
str@@ 222
conf@@ 222
montré 222
cas@@ 222
expliquer 222
ris@@ 221
pourraient 221
taux 221
G 220
maladies 220
crée 220
eng@@ 220
An@@ 220
super 220
march@@ 220
ront 220
réel 220
scène 219
entreprises 219
seront 219
peu@@ 219
est@@ 219
lent 219
act@@ 219
tic@@ 219
mas@@ 219
anci@@ 219
quit@@ 218
rendu 218
ange 218
aiss@@ 218
raconter 217
ressources 217
ane 217
pourrions 217
tendance 217
val@@ 217
aise 217
pe@@ 217
log@@ 216
imp@@ 216
lement 216
tirer 216
premiers 216
12 216
Avec 216
ori@@ 216
troisième 216
gré 216
rir 215
génération 215
bons 215
mé 215
L 215
arrê@@ 215
fort 214
inte 214
période 214
voyage 214
rés@@ 214
mang@@ 214
vivent 213
gènes 213
monter 212
ires 212
version 212
etc. 212
bru@@ 212
bonnes 212
approche 212
adap@@ 212
tomb@@ 211
disant 211
marcher 211
éléments 211
dés@@ 211
pression 211
199@@ 211
b 211
gag@@ 211
écl@@ 211
end 211
mét@@ 211
´ 211
voitures 210
éré 210
exist@@ 210
fabri@@ 210
sh@@ 210
cles 210
rend 210
es-@@ 210
écrire 210
quel@@ 210
pal@@ 209
empl@@ 209
architecture 209
Europe 209
industrie 209
coû@@ 209
séqu@@ 209
journée 209
dedans 208
prenons 208
contrôle 208
sec@@ 208
oubli@@ 208
climatique 207
lim@@ 207
compr@@ 207
construction 207
zones 207
vérité 207
relation 207
tiss@@ 207
couleur 207
tourn@@ 207
ve@@ 206
types 206
conception 206
pay@@ 206
ement@@ 206
êts 206
unique 206
contr@@ 206
connaissance 206
tas 206
termin@@ 206
éli@@ 206
mauvais 206
ber@@ 206
économique 206
rép@@ 205
étude 205
500 205
réfléchir 205
200 205
grav@@ 205
allait 205
enf@@ 205
électr@@ 205
série 205
préc@@ 204
esti@@ 204
meilleurs 204
ar 204
modèles 204
propri@@ 204
concer@@ 204
enn@@ 203
papier 203
nombreuses 203
impact 203
agir 203
,@@ 203
aim@@ 203
avion 202
chercher 202
Ma 202
inqui@@ 202
page 202
age@@ 202
70 202
groupes 202
élé@@ 202
viens 201
ey 201
ond@@ 201
nie 201
fau@@ 201
imagin@@ 201
équ@@ 201
abor@@ 201
condu@@ 200
ection 200
permet@@ 200
rac@@ 200
bre 200
effectivement 200
pouvaient 200
to 200
parties 200
représente 200
ande 200
appro@@ 199
analy@@ 199
rées 199
Gr@@ 199
raient 199
Re@@ 199
ard 199
bras 199
combin@@ 198
Ne 198
qualité 198
vieux 198
explo@@ 198
nécess@@ 198
der@@ 198
All@@ 198
filles 198
dess@@ 198
assis 198
eaux 198
mauvaise 198
acc@@ 198
conscience 197
source 197
mou@@ 197
11 197
sav@@ 197
expli@@ 197
langage 197
Mar@@ 197
huit 196
réfléch@@ 196
Mal@@ 196
int 196
absolument 196
arri@@ 196
architec@@ 196
pas@@ 196
résultats 195
agr@@ 195
pauvres 195
tor@@ 195
pil@@ 195
récemment 195
Chris 194
ami 194
investiss@@ 194
nor@@ 194
arbres 194
extrêmement 194
partager 194
invent@@ 194
travers@@ 194
prochaine 194
chi@@ 194
ali@@ 194
hé@@ 194
dre 193
durant 193
fils 193
sp@@ 193
évolu@@ 193
6@@ 193
sig@@ 192
cli@@ 192
crise 192
béné@@ 192
t-on 192
Notre 192
pes 192
entend@@ 192
psycho@@ 192
ail@@ 191
faits 191
accès 191
tifs 191
émer@@ 191
développ@@ 191
ge@@ 191
vraie 190
occup@@ 190
rôle 190
Ma@@ 190
aît 190
gén@@ 190
fil 190
viol@@ 190
pom@@ 190
pensais 190
mati@@ 190
importance 189
manger 189
belle 189
changements 189
a-t-il 189
devrions 189
impression 189
son@@ 189
B 189
Après 188
heureusement 188
particulièrement 188
rapide 188
Mars 188
écran 188
use 188
cre@@ 188
ajou@@ 187
atique 187
dem@@ 187
espoir 187
micro@@ 187
dit@@ 187
pensée 187
soci@@ 187
pourtant 187
étoiles 187
.000 187
savent 187
cri@@ 186
carbone 186
utilisant 186
sauv@@ 186
capables 186
oi@@ 186
vement 186
lui-même 186
puissance 186
ennes 186
déc@@ 185
lesquelles 185
az@@ 185
spec@@ 185
vas@@ 185
animal 185
bureau 185
Le@@ 184
let@@ 184
habit@@ 184
ace 184
Dé@@ 184
ta@@ 184
sti@@ 184
Google 184
disons 184
chanson 184
my@@ 184
som@@ 184
Même 184
général 184
sa@@ 184
tes@@ 183
lon@@ 183
observ@@ 183
pire 183
Peut-être 183
merci 183
18 183
re-@@ 183
Regardez 183
Sud 183
Y@@ 183
one 183
montr@@ 182
risque 182
Com@@ 182
Car 182
aître 181
étonn@@ 181
connaître 181
merveilleux 181
tures 181
eusement 181
siez 181
chiffres 181
hor@@ 181
sul@@ 181
moyenne 180
continuer 180
quelles 180
90 180
vag@@ 180
dehors 179
impossible 179
simil@@ 179
chemin 179
perdu 179
omb@@ 179
utilisent 179
itaire 179
dér@@ 179
vend@@ 179
appli@@ 179
/ 179
cam@@ 178
bri@@ 178
Beaucoup 178
anglais 178
sépar@@ 178
ois 178
littéralement 178
surtout 178
soir 177
création 177
quant 177
intérêt 177
celui-ci 177
organ@@ 177
enfin 177
portable 177
découvrir 177
associ@@ 177
visage 177
actions 177
ous 177
endre 176
masse 176
émo@@ 176
erie 176
peine 176
abilité 176
À 176
deviennent 176
extraordinaire 176
id@@ 176
prof@@ 175
aï@@ 175
arrêter 175
organisation 175
souhai@@ 175
chang@@ 175
i-@@ 175
voix 175
I 175
Au@@ 175
ins@@ 175
bur@@ 174
complexe 174
mag@@ 174
enter 174
lors 174
suivante 174
are 174
exemples 174
défi 174
opér@@ 174
croire 174
riez 174
travaillent 174
région 174
appr@@ 173
solaire 173
réussi 173
kilomètres 173
étape 173
conc@@ 173
études 173
vécu 173
siè@@ 173
cham@@ 173
totalement 173
rue 173
écoles 173
diri@@ 172
entendre 172
tôt 172
calcul@@ 172
airement 172
doc@@ 172
coeur 172
direction 172
Certains 172
revenir 172
loi 172
regar@@ 172
die 172
ay 171
ationale 171
mari@@ 171
instant 171
étudier 171
concentr@@ 171
mus@@ 171
z-moi 171
ta 171
qués 170
mener 170
dur 170
intéressante 170
extérieur 170
amment 170
liste 170
gues 170
service 170
savais 170
tin@@ 170
puiss@@ 170
mur 170
pourrais 169
morceau 169
aisse 169
celles 169
collec@@ 169
village 169
espér@@ 169
brill@@ 169
expériences 169
rencontré 169
Ou@@ 169
prati@@ 169
reçu 168
pauvreté 168
compli@@ 168
électricité 168
constitu@@ 168
plantes 168
appelée 168
afric@@ 168
beau 168
moyens 167
rester 167
prépar@@ 167
incroyablement 167
commun 167
cé@@ 167
ell@@ 167
aus@@ 167
large 167
trouvent 167
frapp@@ 167
humanité 167
isé 167
nucléaire 167
honn@@ 166
activité 166
Là 166
Ex@@ 166
èn@@ 166
cin@@ 166
réaliser 166
traitement 166
ote 166
logiques 166
vir@@ 166
dimensions 166
mode 166
noir 166
rom@@ 166
route 165
Plus 165
affaires 165
rouge 165
répon@@ 165
employ@@ 165
entre@@ 165
gaz 164
directement 164
trav@@ 164
sert 164
matériaux 164
fic@@ 164
ation@@ 164
ciel 164
rê@@ 164
longue 164
télé@@ 164
code 164
feu@@ 164
hum@@ 164
films 164
pa@@ 163
onc@@ 163
quels 163
rédu@@ 163
assur@@ 163
ram@@ 163
sû@@ 163
diver@@ 163
vit 163
Car@@ 163
hu@@ 163
finir 163
proche 163
aurais 163
possibilité 163
rais 163
devait 163
peau 163
présentation 162
non-@@ 162
sch@@ 162
Chaque 162
Br@@ 162
cle 162
machines 162
fique 162
asser 162
diversité 162
produc@@ 162
and 162
Sh@@ 161
dix 161
matique 161
démar@@ 161
multi@@ 161
pouss@@ 161
concept 161
lé 161
So@@ 161
simples 161
mourir 161
emment 161
répondre 161
ah@@ 161
sociétés 161
morts 160
atifs 160
sen@@ 160
lit@@ 160
contexte 160
rég@@ 160
cœur 160
particules 160
mécan@@ 160
time 160
uni@@ 159
façons 159
innovation 159
M 159
ennent 159
intégr@@ 159
dites 159
consci@@ 159
ature 159
appréci@@ 159
centr@@ 159
bul@@ 159
km 158
pied 158
envoyer 158
est-il 158
terrain 158
élev@@ 158
agne 158
alisation 158
auteur 158
Nord 158
certainement 158
cach@@ 158
sse 158
tourner 158
gro@@ 158
eter 158
bres 158
politiques 157
suiv@@ 157
détermin@@ 157
avanc@@ 157
ard@@ 157
robot 157
message 157
traiter 157
uniquement 157
médic@@ 157
Quel 157
libre 157
he 157
port 156
recherches 156
ession 156
lig@@ 156
isation 156
cy@@ 156
cartes 156
fascin@@ 156
ordre 156
sentiment 156
hy@@ 155
unes 155
porté 155
ho@@ 155
magnifique 155
atmosphère 155
dur@@ 155
tait 155
yer 155
Ro@@ 155
atom@@ 155
mél@@ 155
he@@ 154
pul@@ 154
parti 154
détru@@ 154
voler 154
utilisons 154
patient 154
allais 153
erai 153
don 153
X@@ 153
engag@@ 153
hô@@ 153
tive 153
bour@@ 153
bactéries 153
conse@@ 152
université 152
onner 152
go 152
milliard 152
t&apos; 152
industri@@ 152
Combien 152
emb@@ 152
gratu@@ 152
arch@@ 151
mat@@ 151
développé 151
dès 151
premières 151
ulaire 151
courant 151
confiance 151
viend@@ 151
haute 151
-je 151
céré@@ 151
empê@@ 151
ah 151
continue 150
parten@@ 150
actuellement 150
vivant 150
dessous 150
concevoir 150
cô@@ 150
déplac@@ 150
produ@@ 150
biologie 150
permettre 150
étudi@@ 150
sauver 150
sérieux 150
répondu 149
aces 149
doute 149
00 149
traditionn@@ 149
essenti@@ 149
sir 149
avère 149
arg@@ 149
Pendant 149
esp@@ 149
classe 149
ent-@@ 149
18@@ 149
individus 149
actu@@ 148
rassembl@@ 148
N&apos; 148
celle-ci 148
arrivent 148
prennent 148
sexu@@ 148
Aujourd&apos; 148
grand-@@ 148
lé@@ 148
cardi@@ 148
essentiellement 148
rési@@ 148
pieds 148
aque 148
visi@@ 147
revenu 147
oeu@@ 147
pir@@ 147
ret@@ 147
four@@ 147
ame 147
fro@@ 147
bran@@ 147
clair 147
Tous 147
anni@@ 147
sociale 147
iti@@ 146
coût 146
eté 146
séri@@ 146
priv@@ 146
exam@@ 146
essayons 146
indre 146
exion 146
médec@@ 146
souris 146
desc@@ 146
connec@@ 146
élec@@ 146
ous@@ 146
patients 146
pousser 146
là-@@ 146
toi 146
molé@@ 146
oy@@ 145
ates 145
Quelle 145
hom@@ 145
jeu@@ 145
û@@ 145
ner@@ 145
web 145
pla@@ 145
lie 145
encour@@ 145
quée 145
vert 145
vacc@@ 145
sorti@@ 144
gue 144
permis 144
issez 144
essaie 144
secondes 144
opportunité 144
cep@@ 144
verrez 144
ana 144
utile 144
cel@@ 144
comport@@ 144
tra@@ 144
ène 144
Lorsque 144
tuer 144
réun@@ 144
tomber 144
lancer 144
adore 144
nant 144
prises 144
tent@@ 143
améliorer 143
vivons 143
progr@@ 143
pres@@ 143
cent@@ 143
reç@@ 143
vois@@ 143
ayant 143
anger 143
intelligence 143
commencent 143
gagner 143
pain 143
océans 143
aur@@ 142
chef 142
habitude 142
proj@@ 142
arbre 142
étr@@ 142
atte@@ 142
correc@@ 142
inventé 142
adop@@ 142
demi 142
au-dessus 142
née 142
révolution 142
ye@@ 142
dirige@@ 142
Quel@@ 142
éma 142
fé@@ 141
Ré@@ 141
ti 141
oxygène 141
fication 141
organismes 141
Où 141
éti@@ 141
médi@@ 141
fond@@ 141
cue@@ 141
ôle 141
blo@@ 141
bre@@ 141
yez 140
trou@@ 140
atteint 140
financi@@ 140
mise 140
inspir@@ 140
fonction 140
minute 140
internet 140
Pr@@ 140
ments 140
initi@@ 140
ak@@ 140
poissons 140
jus@@ 140
symé@@ 140
sphère 140
No@@ 140
tée 139
fié 139
lesquels 139
conditions 139
neuf 139
terr@@ 139
lien 139
atten@@ 139
amener 139
Gu@@ 139
procé@@ 138
intern@@ 138
eil 138
robots 138
mettent 138
-là 138
til@@ 138
S&apos; 138
blanc 138
écouter 138
regardé 138
ans@@ 138
lever 137
primer 137
droits 137
concerne 137
brû@@ 137
aille 137
passent 137
envers 137
gam@@ 137
importantes 137
vie@@ 137
St@@ 137
isent 137
modi@@ 137
remarqu@@ 137
payer 137
valeurs 137
da 137
poisson 137
objectif 136
aiment 136
fallait 136
feu 136
forces 136
réponses 136
conséqu@@ 136
Vi@@ 136
précé@@ 136
ly@@ 136
potentiel 136
venant 136
graphique 136
Ti@@ 135
ouvert 135
verte 135
responsabilité 135
fabriquer 135
Cor@@ 135
Sur 135
riche 135
imaginez 135
pri@@ 135
auparavant 135
aband@@ 135
iv@@ 135
poids 135
progrès 135
colon@@ 135
beauté 135
relations 135
assembl@@ 135
gé 135
prouv@@ 135
autom@@ 135
t-ils 135
physi@@ 135
moteur 135
érieure 135
sein 135
panne@@ 135
onique 135
Fr@@ 135
tend@@ 135
commenc@@ 135
contribu@@ 134
étique 134
nulle 134
acti@@ 134
positif 134
faible 134
technique 134
vér@@ 134
èmes 134
oh 134
blement 134
plu@@ 134
garder 134
étrange 134
origine 134
érence 134
agent 134
naturel 134
prot@@ 134
bale@@ 134
o-@@ 134
nég@@ 134
eux-@@ 134
affi@@ 134
jet@@ 133
vic@@ 133
discours 133
hier 133
voient 133
alités 133
forêt 133
élè@@ 133
génial 133
vendre 133
amélior@@ 133
ty@@ 133
a-@@ 133
voulaient 133
charge 133
retour 133
fou@@ 133
aliment@@ 133
sin@@ 133
tiers 133
issant 133
réf@@ 133
social 133
ix 133
clin@@ 133
E 133
planètes 133
sem@@ 132
evoir 132
ges 132
direc@@ 132
voulu 132
onnement 132
thèse 132
ges@@ 132
senti@@ 132
éloign@@ 132
reli@@ 132
alo@@ 132
test 132
aci@@ 132
plas@@ 132
compréhension 132
besoins 132
nord 132
publique 132
allée 132
ition 132
char@@ 132
suivant 131
évi@@ 131
réduire 131
choisir 131
vertes 131
court 131
cat@@ 131
me@@ 131
ave 131
aux@@ 131
univers@@ 131
contenu 131
allés 131
tourne 131
principe 131
jour@@ 131
issement 131
sommet 131
deven@@ 131
appareil 131
fus@@ 131
dépend@@ 131
illi@@ 131
cultu@@ 131
ong@@ 131
vres 131
gouvern@@ 131
conv@@ 131
trie 131
essaye 131
solutions 130
charg@@ 130
battre 130
eront 130
ing 130
noire 130
sent 130
affaire 130
gence 130
sang 130
ablement 130
lancé 130
lignes 130
fen@@ 130
récom@@ 130
chent 130
fré@@ 130
étrang@@ 130
pièces 130
Très 130
chirur@@ 130
atives 129
hér@@ 129
agé 129
écriv@@ 129
intéresse 129
alli@@ 129
conduit 129
numéro 129
preuve 129
signific@@ 129
ax@@ 129
informatique 129
titude 129
consom@@ 129
véhic@@ 129
issons 129
communi@@ 129
passion 129
évidemment 129
entièrement 129
mathématiques 129
liberté 129
plaît 128
particip@@ 128
chois@@ 128
bois 128
iers 128
asse 128
300 128
16 128
mondi@@ 128
explorer 128
connaissez 128
communication 128
coin 128
rai 128
verture 128
monte 128
bus 128
contrô@@ 128
pratique 128
chien 128
augment@@ 128
ath@@ 128
tél@@ 128
article 127
permettent 127
familles 127
aliser 127
moi-même 127
ordin@@ 127
terri@@ 127
avis 127
discu@@ 127
boute@@ 127
au-delà 127
coup@@ 127
requ@@ 127
classi@@ 127
Po@@ 127
dia 127
médicaments 127
médias 127
géné@@ 127
langue 127
jam@@ 127
sorti 126
CO2 126
cuisine 126
transform@@ 126
américain 126
attendre 126
mathé@@ 126
commerci@@ 126
mil@@ 126
tran@@ 126
don@@ 126
auto-@@ 126
hors 126
sociaux 126
oiseaux 126
télévision 126
religion 126
actuelle 125
sugg@@ 125
transformer 125
utilisation 125
nécessaire 125
forte 125
Bo@@ 125
conçu 125
sens@@ 125
contact 125
lin@@ 125
intes 125
our 125
ort 125
ili@@ 125
vin 125
lum@@ 125
tiens 124
sujets 124
facilement 124
soli@@ 124
sauf 124
dés 124
spati@@ 124
décen@@ 124
découverte 124
Personne 124
dig@@ 124
distance 124
VIH 124
des@@ 124
plong@@ 124
pris@@ 124
mi 123
dents 123
connaissent 123
rich@@ 123
provo@@ 123
mainten@@ 123
dipl@@ 123
efficace 123
membres 123
tements 123
clairement 123
matéri@@ 123
américains 123
compag@@ 123
ennu@@ 123
ent-ils 123
bizarre 123
ient 123
placer 123
inten@@ 123
immédiatement 123
complexité 123
réc@@ 123
ètre 123
derniers 123
entière 123
entir 123
pat@@ 123
ister 123
photograph@@ 123
Tro@@ 122
final 122
ération 122
fix@@ 122
naturelle 122
laissé 122
moderne 122
créativité 122
lab@@ 122
véritable 122
religi@@ 122
prêt 122
ots 122
onnes 122
fronti@@ 122
devi@@ 122
intu@@ 122
appeler 122
grosse 122
photograp@@ 122
métap@@ 122
consommat@@ 121
puissent 121
environn@@ 121
souven@@ 121
circul@@ 121
sus 121
Toutes 121
Américains 121
donnent 121
génétique 121
venue 121
connaissons 121
Ok 121
Di@@ 121
grippe 121
grandi 121
professionn@@ 121
se-@@ 121
descend@@ 121
itions 121
cen@@ 121
manque 120
suc@@ 120
lanc@@ 120
démo@@ 120
fourn@@ 120
services 120
compagnie 120
ons-@@ 120
artistes 120
onné 120
réseaux 120
lut@@ 120
sciences 120
10@@ 120
puissant 120
température 120
technologi@@ 119
secteur 119
hab@@ 119
durable 119
SIDA 119
revenus 119
justice 119
accél@@ 119
départ 119
couleurs 119
install@@ 119
sil@@ 119
tre@@ 119
lar@@ 119
plaisir 119
influ@@ 119
lois 119
issait 119
aimer@@ 119
rais@@ 119
professeur 119
isse 119
présenter 119
curi@@ 119
ignor@@ 118
faux 118
ports 118
campagne 118
majorité 118
citoy@@ 118
importants 118
cens@@ 118
oblig@@ 118
optimis@@ 118
toire 118
appel 118
pages 118
règle 118
ors 118
protéger 118
devais 118
sité 118
faisaient 118
veill@@ 118
individu@@ 118
détails 117
moments 117
réchauff@@ 117
ramen@@ 117
décision 117
former 117
tien 117
entraî@@ 117
her@@ 117
pouvions 117
marchés 117
somme 117
chant 117
ationn@@ 117
gouvernements 117
trouver@@ 117
coûte 117
chambre 117
joue 117
observer 117
trib@@ 117
tives 117
Imaginez 117
agriculture 117
hasard 117
blan@@ 117
urb@@ 116
fiques 116
personnel 116
équip@@ 116
limites 116
verre 116
éth@@ 116
arriver@@ 116
envie 116
lu 116
bilité 116
ador@@ 116
rière 116
effets 116
particuli@@ 116
Co@@ 116
ayons 116
expériment@@ 116
parlait 115
passait 115
hypo@@ 115
auraient 115
concentrer 115
forc@@ 115
reu@@ 115
pensait 115
savait 115
faisais 115
ours 115
do 115
côte 115
Celu@@ 115
logiciel 115
di 115
suivi 115
perd@@ 115
en-@@ 115
appelons 115
érences 115
atri@@ 115
galaxies 115
isant 114
tourné 114
phénomène 114
éviter 114
glob@@ 114
larg@@ 114
venus 114
rythme 114
venait 114
aper 114
connais 114
la@@ 114
déb@@ 114
critique 114
At@@ 114
aissent 114
clo@@ 114
yons 114
ral@@ 114
tho@@ 114
mér@@ 114
fir@@ 114
fourmis 114
chaîne 113
décisions 113
duc@@ 113
produisent 113
parlons 113
seraient 113
conç@@ 113
formation 113
dée 113
fonc@@ 113
iller 113
prochaines 113
amus@@ 113
Cet 113
Richard 113
matériel 113
tot@@ 113
ède 113
P 113
aviez 113
esc@@ 113
molécules 113
menti@@ 113
café 113
institutions 113
jambes 113
ôme 112
laisse 112
calcul 112
ajouter 112
perdre 112
milit@@ 112
vaisse@@ 112
nies 112
bébé 112
cell@@ 112
fantastique 112
ides 112
cellule 112
doigts 112
suffisamment 112
électrique 112
dessin@@ 112
tox@@ 112
tation 112
hôpital 112
sentir 112
Pro@@ 112
reti@@ 111
iles 111
dro@@ 111
notion 111
ever 111
eue 111
24 111
prenant 111
radi@@ 111
sible 111
révél@@ 111
bouger 111
consommation 111
chinois 111
tivité 111
outil 111
lications 111
pauvre 111
erres 111
soins 111
dir 110
Californie 110
t-elle 110
suff@@ 110
récup@@ 110
toucher 110
obtenez 110
artifici@@ 110
dam@@ 110
exposition 110
ressent@@ 110
riches 110
déplacer 110
positi@@ 110
alimentaire 110
chal@@ 110
reven@@ 110
différences 110
ball@@ 110
montagne 110
ia 110
bord 109
entions 109
excep@@ 109
lions 109
passant 109
trait 109
possibilités 109
consid@@ 109
devraient 109
définition 109
orb@@ 109
art@@ 109
sex@@ 109
Est 109
bleu 109
parlent 109
ège 109
rencontr@@ 109
médecine 109
perman@@ 109
ières 109
Se@@ 109
mille 109
ût 109
devenue 109
ron@@ 109
trou 109
personnage 109
chaus@@ 108
trouvez 108
tra 108
essi@@ 108
mené 108
naturel@@ 108
activ@@ 108
divis@@ 108
domin@@ 108
pai@@ 108
lieux 108
plat@@ 108
acte 108
lit 108
te-@@ 108
dans@@ 108
rions 108
ssi@@ 108
T 108
symp@@ 108
expression 108
soul@@ 108
prop@@ 108
vê@@ 108
ser 108
sign@@ 108
sud 108
concep@@ 108
élevé 108
David 107
bus@@ 107
mondial 107
tap@@ 107
parfait 107
cultures 107
drait 107
198@@ 107
cool 107
course 107
mettez 107
maî@@ 107
ot 107
aig@@ 107
profond 107
résol@@ 107
dos 107
évolué 107
rêve 107
flot@@ 107
compét@@ 107
galaxie 107
ore@@ 106
èse 106
laboratoire 106
ingénieurs 106
évén@@ 106
chem@@ 106
acheté 106
indépend@@ 106
excit@@ 106
itu@@ 106
dure 106
ule 106
dési@@ 106
ière 106
Deux 106
ades 106
pein@@ 106
tiennent 106
conserv@@ 106
quelques-@@ 106
minu@@ 106
Cam@@ 106
réci@@ 106
démocratie 105
bateau 105
Pour@@ 105
regardons 105
capacités 105
mesurer 105
dynamique 105
commen@@ 105
accro@@ 105
décr@@ 105
disaient 105
Public 105
ec 105
roul@@ 105
Encore 105
péri@@ 105
niveaux 105
montrent 105
gâ@@ 105
principes 105
merveilleuse 105
simul@@ 105
d-@@ 105
ke 105
doigt 105
For@@ 104
oeil 104
ri 104
Washington 104
efficac@@ 104
achet@@ 104
travaillons 104
not@@ 104
naissance 104
imagination 104
profondément 104
programmes 104
existence 104
nent 104
queue 104
erais 104
batt@@ 104
magas@@ 104
ind@@ 104
humaines 104
rencontrer 104
rempl@@ 104
trom@@ 104
étudiant 104
neu@@ 104
héros 104
har@@ 104
probabil@@ 104
radic@@ 104
effec@@ 104
profond@@ 104
abe@@ 104
chacune 103
communautés 103
est-à-dire 103
disponi@@ 103
émotions 103
rant 103
mot@@ 103
vieill@@ 103
tué 103
favor@@ 103
atti@@ 103
pouviez 103
gram@@ 103
créatures 103
eux-mêmes 103
remarquable 103
second 103
ules 103
distribu@@ 103
entrée 103
coté 103
ong 103
cier 102
sures 102
véri@@ 102
sort 102
énormes 102
pouvons-nous 102
servir 102
ca 102
satis@@ 102
avancer 102
asi@@ 102
fonctionner 102
Votre 102
investi@@ 102
avance 102
évident 102
adi@@ 102
remarqué 102
Japon 102
quartier 102
espaces 102
étaire 102
bâtiments 102
étend@@ 102
acqu@@ 102
soud@@ 102
land 102
paix 102
bibliothè@@ 102
rest@@ 102
décl@@ 102
erreur 102
dirait 102
ouvrir 102
Ouais 102
Londres 102
américaine 102
ON@@ 102
membre 101
aspect 101
pén@@ 101
igne 101
Ber@@ 101
zéro 101
agnes 101
itablement 101
portables 101
nez 101
Mi@@ 101
meilleures 101
régions 101
géni@@ 101
intr@@ 101
là-dessus 101
trice 101
numérique 101
rivi@@ 101
ch 101
Asie 101
célèbre 101
gagné 101
ètes 101
ridi@@ 101
danse 101
proc@@ 101
seuls 100
occuper 100
Jo@@ 100
affec@@ 100
vide 100
élément 100
45 100
istance 100
conséquences 100
14 100
hydrogène 100
Juste 100
Laissez-moi 100
appu@@ 100
2000 100
sites 100
tels 100
télé 100
Man@@ 100
rationn@@ 100
resp@@ 100
caméra 100
adultes 100
tombe 100
connect@@ 100
dirais 100
fer 100
jau@@ 100
apprentissage 100
aurons 100
centi@@ 100
qui@@ 99
mortalité 99
nommé 99
désormais 99
occasion 99
étiez 99
devenus 99
logues 99
commenç@@ 99
tableau 99
esthé@@ 99
prochain 99
cherche 99
terres@@ 99
tâche 99
froid 99
boulot 99
le-@@ 99
pol@@ 99
mètre 99
amené 99
amusant 99
devriez 99
moindre 99
littér@@ 99
regardant 99
Quelqu&apos; 99
symbo@@ 99
Avant 98
émissions 98
nan@@ 98
Tou@@ 98
400 98
supplément@@ 98
allaient 98
clé 98
maisons 98
M. 98
interprét@@ 98
enregistr@@ 98
appelait 98
formidable 98
migr@@ 98
ories 98
rappelle 98
individu 98
sif 98
présente 98
conten@@ 98
H 98
courir 97
quées 97
dom@@ 97
conver@@ 97
nour@@ 97
obten@@ 97
débat 97
contraire 97
violence 97
ièmement 97
techniques 97
grandis@@ 97
complexes 97
èle 97
ologie 97
envoyé 97
erons 97
Li@@ 97
vention 97
police 97
ert 97
pâ@@ 97
journalis@@ 97
tionnaire 97
ium 97
épidémie 97
che@@ 97
visite 97
arts 97
morale 97
caract@@ 97
$ 97
elle-même 97
norm@@ 97
abil@@ 97
ativement 97
the 97
me-@@ 97
président 96
courbe 96
John 96
Pren@@ 96
ato@@ 96
parfaitement 96
déch@@ 96
ang 96
dizaines 96
augmente 96
perspective 96
réuni@@ 96
ol 96
ision 96
Ph@@ 96
biologique 96
Bon@@ 96
possède 96
ok 96
principal 96
conversation 96
devoir 96
intéressé 96
présence 96
Mc@@ 96
virtu@@ 96
gal@@ 96
beaux 96
Einstein 96
Th@@ 96
ecter 96
ute 96
nous-@@ 95
portée 95
ois@@ 95
passionn@@ 95
continent 95
seu@@ 95
augmenter 95
frag@@ 95
rejo@@ 95
radio 95
tour@@ 95
temp@@ 95
téléphones 95
lam@@ 95
Bro@@ 95
morceaux 95
consiste 95
sionn@@ 95
Depuis 95
sure 95
descendre 95
vidéos 95
proté@@ 95
cir@@ 95
fasse 95
lent@@ 95
ad 95
journ@@ 95
ancien 94
capit@@ 94
vr@@ 94
ingénierie 94
mène 94
possé@@ 94
collègues 94
ouge 94
terror@@ 94
survivre 94
Uni@@ 94
réaction 94
arm@@ 94
musée 94
ry 94
déjeu@@ 94
13 94
chaud 94
aw@@ 94
stupi@@ 94
erez 94
choisi 94
conclu@@ 94
mique 94
stoc@@ 94
grim@@ 94
nés 94
od@@ 94
protection 94
ome 94
déclar@@ 94
ferme 93
douleur 93
revient 93
île 93
aspects 93
fonds 93
itement 93
sses 93
amène 93
bel@@ 93
oph@@ 93
génome 93
possibles 93
ague 93
soi 93
régi@@ 93
alim@@ 93
opération 93
grand@@ 93
Angleterre 93
graphi@@ 93
myst@@ 93
San 93
anim@@ 93
intitu@@ 93
dat@@ 93
angle 93
zo@@ 93
journal 93
impressionn@@ 92
vol 92
pleine 92
débu@@ 92
peuple 92
effon@@ 92
charbon 92
forment 92
ambi@@ 92
De@@ 92
150 92
septembre 92
Fin@@ 92
style 92
isol@@ 92
émotionn@@ 92
oureux 92
confron@@ 92
méthode 92
réfl@@ 92
semblent 92
agré@@ 92
heure@@ 92
Son 92
mémoire 92
suppose 92
bien-@@ 92
Ah 92
Parfois 92
arrivés 92
dangereux 92
clients 92
mom@@ 92
N 92
itive 92
teau 92
stimul@@ 92
ises 92
précis 92
soign@@ 92
esses 92
hau@@ 92
vaut 92
histor@@ 91
program@@ 91
tera 91
princip@@ 91
Pe@@ 91
remar@@ 91
sive 91
gle 91
financ@@ 91
fera 91
istre 91
han@@ 91
passage 91
stu@@ 91
vous-@@ 91
commençons 91
ayez 91
ciper 91
quotidi@@ 91
17 91
pers@@ 91
neurones 91
étés 91
couche 91
preuves 91
boîte 91
sé 91
caus@@ 91
échou@@ 91
prison 91
rues 91
of 91
sable 91
arrivée 90
presse 90
mauvaises 90
venez 90
mée 90
commerce 90
énor@@ 90
mément 90
les@@ 90
apporter 90
bande 90
profonde 90
chés 90
changent 90
traite 90
incroyables 90
décider 90
gent 90
gran@@ 90
isés 90
contrôler 90
aper@@ 90
Bar@@ 90
sons 90
hon@@ 90
rie 90
rencontre 90
occident@@ 90
nourr@@ 90
Roy@@ 90
cru@@ 90
scol@@ 90
Irak 90
mine 90
œil 90
mouvements 90
décrire 90
réser@@ 90
augmentation 90
tes-vous 90
remer@@ 89
sym@@ 89
énerg@@ 89
gies 89
pend 89
Cependant 89
introdu@@ 89
Rien 89
aie 89
fournir 89
tat 89
puisque 89
Rus@@ 89
perc@@ 89
milli@@ 89
convaincre 89
rier 89
intellectu@@ 89
bactéri@@ 89
Nor@@ 89
Bi@@ 89
davantage 89
enthousias@@ 89
ices 89
compliqué 89
rire 89
populaire 89
essence 89
angu@@ 89
Premi@@ 89
mâ@@ 89
ples 89
Homme 89
souviens 89
singes 89
viande 89
cident 89
neuro@@ 89
reux 89
étudié 89
équilibre 89
pierre 89
soldats 89
chan@@ 89
Per@@ 89
rappel@@ 89
comb@@ 89
retourner 89
pont 89
penses 88
Tr@@ 88
échantill@@ 88
dollar 88
amen@@ 88
caractéristiques 88
exer@@ 88
ed 88
197@@ 88
statistiques 88
ément 88
deman@@ 88
structures 88
num@@ 88
garde 88
anti-@@ 88
bouche 88
prend@@ 88
auquel 88
aisons 88
vouloir 88
intelligents 88
Mil@@ 88
établ@@ 88
escl@@ 88
spectacle 87
mani@@ 87
tir 87
influence 87
ami@@ 87
fabrication 87
ick 87
vrai@@ 87
considér@@ 87
Mes 87
de-@@ 87
intelligent 87
ila 87
business 87
diction 87
entôt 87
ks 87
enci@@ 87
contient 87
appareils 87
principalement 87
dessin 87
taient 87
mén@@ 87
om 87
nation 87
ressemblent 87
lève 87
netto@@ 87
ures 87
répar@@ 87
alisé 87
ait-il 87
stat@@ 87
ards 87
équivalent 87
garçon 87
destin@@ 87
oniques 87
pourra 87
armée 87
danger 87
organisations 87
trag@@ 87
vrais 87
isément 87
suit 87
Bill 86
lication 86
liens 86
franch@@ 86
volon@@ 86
chauff@@ 86
tests 86
principale 86
ze 86
élection 86
disponible 86
designers 86
manières 86
eraient 86
rentr@@ 86
atoire 86
99 86
éte@@ 86
responsable 86
vit@@ 86
créent 86
tours 86
fallu 86
bâ@@ 86
aill@@ 86
vot@@ 86
verts 86
batter@@ 86
fran@@ 86
champ 86
erreurs 86
trem@@ 86
carré 86
opportun@@ 86
obtenu 86
paysage 86
graphie 86
stratégie 86
éto@@ 86
Pouv@@ 86
frère 86
pêche 86
Ap@@ 85
Pens@@ 85
liv@@ 85
MIT 85
quanti@@ 85
retourn@@ 85
domaines 85
titre 85
sombre 85
demandez 85
degrés 85
Hé 85
cycle 85
1,@@ 85
ième 85
volonté 85
demi-@@ 85
dente 85
visible 85
ecteurs 85
deau 85
imprim@@ 85
murs 85
compétition 85
asse@@ 85
oir 85
mation 85
connecter 85
correspond 85
vé@@ 85
âtre 85
pit@@ 85
lang@@ 85
civilisation 85
chimpanz@@ 85
ouges 85
all 85
camp 85
explor@@ 85
artiste 85
regard@@ 85
flux 85
tradu@@ 85
rappeler 85
climat 85
spectac@@ 85
reconn@@ 85
comprend 85
ël 85
bor@@ 84
correspon@@ 84
suffis@@ 84
exte 84
Un@@ 84
enreg@@ 84
merveill@@ 84
ingéni@@ 84
signifi@@ 84
aqu@@ 84
He@@ 84
Q@@ 84
cadre 84
flit 84
mid@@ 84
Col@@ 84
protég@@ 84
Soleil 84
Afric@@ 84
pouv@@ 83
fes@@ 83
duction 83
accor@@ 83
bro@@ 83
nouv@@ 83
poli@@ 83
Aus@@ 83
ares 83
bel 83
Y 83
tan@@ 83
atrice 83
logi@@ 83
transformation 83
angl@@ 82
fant@@ 82
administr@@ 82
fum@@ 82
sensi@@ 82
surprise 82
isons 82
çon 82
org@@ 82
Dis@@ 82
35 82
ker 82
dy 82
Jus@@ 82
ley 82
gs 82
intervie@@ 82
K 82
gre@@ 81
ion 81
va@@ 81
civi@@ 81
cents 81
tier 81
X 81
conclusion 81
tiles 81
Hu@@ 81
den@@ 81
etc 81
Univers@@ 81
ènes 81
probable 81
construc@@ 81
eur@@ 81
champ@@ 81
tin 81
male 81
escal@@ 81
ama 81
dinosau@@ 81
Anderson 80
° 80
commun@@ 80
manu@@ 80
illustr@@ 80
NASA 80
Paul 80
budget 80
gène 80
oxy@@ 80
lun@@ 80
Times 80
terrible 80
secret 80
cip@@ 80
aî@@ 80
difficul@@ 80
Ge@@ 80
profess@@ 80
foie 80
fur@@ 80
cha@@ 80
sources 80
National 80
air@@ 80
refl@@ 80
Ad@@ 80
chron@@ 80
lan@@ 79
pel@@ 79
cuis@@ 79
quette 79
corruption 79
usage 79
tex@@ 79
cot@@ 79
ars 79
diffici@@ 79
cab@@ 79
insec@@ 79
Indi@@ 79
chau@@ 79
extrê@@ 79
Cert@@ 79
cad@@ 79
Bu@@ 79
kil@@ 79
audi@@ 79
espr@@ 79
iz@@ 79
bie 79
600 79
erg@@ 79
Ju@@ 79
ping@@ 79
hore 79
dre@@ 78
faç@@ 78
fici@@ 78
infrastructure 78
commercial 78
New@@ 78
dition 78
MS 78
chap@@ 78
To@@ 78
fas@@ 78
Sy@@ 78
Ben@@ 78
verse 78
perception 78
mons 78
umin@@ 78
mesur@@ 78
est-@@ 78
diagno@@ 78
orches@@ 78
Al 77
pap@@ 77
demment 77
196@@ 77
recher@@ 77
poly@@ 77
R 77
rels 77
tat@@ 77
occu@@ 76
érieur 76
inclu@@ 76
fais@@ 76
vis 76
ja@@ 76
patho@@ 76
Sou@@ 76
atr@@ 76
regard 76
canc@@ 76
contra@@ 76
ast@@ 76
expos@@ 76
traj@@ 76
écri@@ 76
Charles 76
artis@@ 76
autonom@@ 76
ption 76
chiff@@ 76
ash@@ 75
famili@@ 75
fossi@@ 75
respons@@ 75
immense 75
cur@@ 75
volu@@ 75
invention 75
inj@@ 75
ther@@ 75
let 75
électri@@ 75
propor@@ 75
tar@@ 75
Mex@@ 75
user 75
Ac@@ 75
Kenya 75
up@@ 75
contin@@ 75
Ri@@ 74
apos@@ 74
mobil@@ 74
bomb@@ 74
envoy@@ 74
Me@@ 74
via 74
accident 74
cogni@@ 74
pê@@ 74
acier 74
astronom@@ 74
ater 74
erre 74
Wal@@ 74
0 73
infec@@ 73
ense@@ 73
thè@@ 73
chances 73
doubl@@ 73
origin@@ 73
discipl@@ 73
moder@@ 73
roy@@ 73
entu@@ 73
boug@@ 73
veu@@ 73
dist@@ 73
pile 73
magni@@ 73
ka 73
Si@@ 73
distinc@@ 73
absor@@ 73
intér@@ 73
DH 73
celui-@@ 72
collabor@@ 72
éner@@ 72
times 72
Min@@ 72
ack 72
apes 72
sculp@@ 72
marketing 72
lou@@ 72
volume 72
ly 72
biolog@@ 72
veaux 72
adol@@ 72
articles 72
manipul@@ 72
gou@@ 72
amb@@ 72
imm@@ 72
surveill@@ 72
métho@@ 72
Or@@ 72
Lu@@ 72
gy@@ 72
fe 72
çu 72
effic@@ 71
arry 71
tries 71
institu@@ 71
affir@@ 71
till@@ 71
van@@ 71
que@@ 71
efforts 71
usement 71
U 71
poss@@ 71
ple@@ 71
liqui@@ 71
fri@@ 71
instruments 71
magazine 71
prét@@ 71
serve 71
prior@@ 71
distribution 71
ial 70
propos@@ 70
cass@@ 70
eux@@ 70
total 70
pyram@@ 70
bile 70
point@@ 70
second@@ 70
endu 70
maj@@ 70
bure@@ 70
extraordin@@ 70
adul@@ 70
normal 70
philosoph@@ 70
Ser@@ 70
effort 70
profon@@ 70
chers 70
nuclé@@ 70
ha 70
phrase 70
his@@ 70
BF 70
mod@@ 69
dil@@ 69
vél@@ 69
instrument 69
accumul@@ 69
mam@@ 69
Sa@@ 69
ore 69
simplic@@ 69
navig@@ 69
fam@@ 69
Francisco 69
dri@@ 69
ths 69
James 69
aver@@ 69
Darwin 69
magi@@ 69
Gol@@ 69
dau@@ 69
nel 69
George 68
leaders 68
obser@@ 68
national 68
automo@@ 68
tru@@ 68
kin@@ 68
horiz@@ 68
dence 68
appropri@@ 68
potenti@@ 68
subst@@ 68
fol@@ 68
infin@@ 68
spiritu@@ 68
Chicago 68
Ne@@ 68
scope 68
travail@@ 68
main@@ 68
dd@@ 68
human@@ 68
sieurs 68
gras 68
tiv@@ 67
entrepreneurs 67
pp@@ 67
stiques 67
Grand 67
aises 67
lier 67
tax@@ 67
nam@@ 67
be@@ 67
orm@@ 67
Los 67
circu@@ 67
valu@@ 67
flu@@ 67
invisible 67
fice 67
traits 67
Tur@@ 67
Afghanistan 66
capital 66
sim@@ 66
expl@@ 66
urr@@ 66
bill@@ 66
Gal@@ 66
phot@@ 66
phénom@@ 66
.. 66
nav@@ 66
proch@@ 66
stati@@ 66
hi 66
note 66
direct 66
ba 66
O 66
lè@@ 66
ones 66
ill 66
avantage 66
accompl@@ 66
rup@@ 66
nomb@@ 66
restaur@@ 65
straté@@ 65
stes 65
tile 65
Bush 65
concepts 65
hydro@@ 65
ases 65
intelli@@ 65
entrepren@@ 65
75 65
sum@@ 65
signal 65
limit@@ 65
pic@@ 65
ack@@ 65
Web 65
Sal@@ 65
ball 65
RB 65
restaurant 64
venti@@ 64
dévelop@@ 64
arti@@ 64
lor@@ 64
coc@@ 64
din@@ 64
privil@@ 64
Steve 64
ext@@ 64
tâ@@ 64
Austral@@ 64
musici@@ 64
Angeles 64
aissez-moi 64
auc@@ 64
crime 64
Pu@@ 64
cortex 64
mun@@ 63
sus@@ 63
tible 63
prés@@ 63
diam@@ 63
innov@@ 63
El@@ 63
double 63
17@@ 63
interface 63
ws 63
enir 63
anz@@ 63
ney 63
informa@@ 63
tivement 63
date 63
physici@@ 63
Hy@@ 63
horrible 63
situ@@ 63
gig@@ 63
3D 63
oll@@ 63
démi@@ 63
authenti@@ 62
active 62
innovations 62
global 62
maxim@@ 62
inspiration 62
dimension 62
notes 62
gard@@ 62
Paci@@ 62
ôt 62
ancer 62
acts 62
transpar@@ 62
dens@@ 62
itable 62
ed@@ 62
vul@@ 62
escope 62
gri@@ 62
Oc@@ 62
pollution 61
transport 61
discussion 61
plans 61
extinc@@ 61
tension 61
équi@@ 61
ich 61
ographi@@ 61
li 61
souv@@ 61
préci@@ 61
Am@@ 61
atre 61
Harvard 61
put@@ 61
blogs 61
grap@@ 61
grou@@ 61
altitude 61
médicam@@ 61
Gro@@ 61
situations 61
phase 61
ern@@ 61
i-même 61
AB 61
famil@@ 60
capitalis@@ 60
décid@@ 60
populations 60
bom@@ 60
exploration 60
scri@@ 60
W 60
lav@@ 60
client 60
Microsoft 60
sty@@ 60
Wh@@ 60
21 60
ky@@ 60
orie 60
trop@@ 60
imagine 60
… 60
France 60
blog 60
00@@ 60
figur@@ 60
ki 60
Pakistan 60
mement 60
béb@@ 60
ics 60
syst@@ 60
Or 60
local 59
camp@@ 59
objec@@ 59
tim@@ 59
Ni@@ 59
iture 59
Union 59
messages 59
Haw@@ 59
convain@@ 59
sel 59
démie 59
hyper@@ 59
ber 59
central 59
Michael 59
vibr@@ 59
obs@@ 59
spir@@ 59
echno@@ 59
quence 59
long@@ 59
van 59
Life 59
biom@@ 58
obstac@@ 58
af@@ 58
mobile 58
sculpture 58
Em@@ 58
mul@@ 58
spon@@ 58
scop@@ 58
ank 58
explosion 58
Ko@@ 58
32 58
tom@@ 58
positive 58
ony 58
lin 58
Islam 58
The 58
dynam@@ 58
tun@@ 58
Obama 58
profit 57
agricul@@ 57
aint 57
sophis@@ 57
Be@@ 57
V 57
motivation 57
tempor@@ 57
king 57
politici@@ 57
scann@@ 57
jug@@ 57
sumer 57
by 57
idi@@ 57
ama@@ 57
luc@@ 57
inno@@ 57
out 57
Ki@@ 57
“ 57
cide 57
19 57
Mu@@ 57
ivent 57
TED@@ 57
origami 57
SA 56
Cl@@ 56
pays@@ 56
altern@@ 56
cruci@@ 56
fru@@ 56
inspi@@ 56
frustr@@ 56
ima@@ 56
chromo@@ 56
21@@ 56
ls 56
ling 56
toil@@ 56
danger@@ 56
velop@@ 56
érique 56
illu@@ 56
tab@@ 56
ense 56
trad@@ 56
tradition 56
simulation 56
empath@@ 56
Rome 56
KB 56
collè@@ 55
four 55
ith 55
consul@@ 55
aut 55
Moore 55
rob@@ 55
fa@@ 55
minim@@ 55
fantas@@ 55
pond 55
wer 55
cu 55
2,@@ 55
embr@@ 55
peti@@ 55
27 55
Vir@@ 55
agement 55
croiss@@ 55
aches 55
ape 55
dies 55
éb@@ 55
interaction 55
uses 55
Tit@@ 55
glamour 55
Twitter 55
tats 54
net 54
micro-@@ 54
contempor@@ 54
respect 54
Oxford 54
Thomas 54
eries 54
chin@@ 54
destruction 54
content 54
offici@@ 54
anta 54
mater@@ 54
Canada 54
ac 54
cul 54
AR@@ 54
sauce 54
Bible 54
camér@@ 54
rel 54
ster 54
natu@@ 54
ina 54
illusion 54
éro 54
épi@@ 54
collaboration 53
alternative 53
right 53
cess@@ 53
act 53
à-@@ 53
quan@@ 53
Roc@@ 53
pig@@ 53
bil@@ 53
ectu@@ 53
tum@@ 53
recomm@@ 53
agno@@ 53
surviv@@ 53
Ste@@ 53
nov@@ 53
Cal@@ 53
application 53
vote 53
exponenti@@ 53
asp@@ 53
moral 53
apo@@ 53
ene 53
station 52
celle-@@ 52
pétro@@ 52
if 52
ograph@@ 52
attribu@@ 52
ki@@ 52
q 52
mirac@@ 52
gin@@ 52
lat@@ 52
gol@@ 52
motiv@@ 52
intellig@@ 52
fusion 52
antibio@@ 52
Nigeria 52
extra@@ 52
matiques 52
carto@@ 52
Dev@@ 51
ran@@ 51
Ital@@ 51
argument 51
surfaces 51
studio 51
ase 51
religions 51
Mad@@ 51
standard 51
observation 51
Pl@@ 51
far@@ 51
harmon@@ 51
Big 51
Cel@@ 51
centage 51
pic 51
pollen 51
ond 51
Satur@@ 51
ganda 51
crimin@@ 51
Ab@@ 51
Lin@@ 51
ky 51
cit@@ 51
gang 51
” 51
catastrop@@ 51
process@@ 51
sph@@ 51
recycl@@ 51
villages 50
ints 50
ose 50
condition 50
opinion 50
195@@ 50
once 50
Apple 50
race 50
analo@@ 50
paras@@ 50
labor@@ 50
ell 50
Pal@@ 50
tal 50
uments 50
Hum@@ 50
John@@ 50
estation 50
fem@@ 50
Isra@@ 50
muscle 50
piano 50
lot 50
250 50
fiction 50
accidents 50
prototype 50
icul@@ 50
probl@@ 50
nations 50
color@@ 50
cellent 50
fal@@ 50
ario 50
pos 49
Améric@@ 49
Gh@@ 49
ques@@ 49
institution 49
paradig@@ 49
Nations 49
lec@@ 49
Wor@@ 49
golf 49
onal@@ 49
Por@@ 49
berg 49
programm@@ 49
sour@@ 49
causes 49
élo@@ 49
marine 49
Sch@@ 49
laser 49
mach@@ 49
ham@@ 48
performance 48
util@@ 48
Robert 48
2005 48
san@@ 48
ado@@ 48
Pan@@ 48
satellite 48
logici@@ 48
47 48
experts 48
bizar@@ 48
différ@@ 48
ela 48
Pri@@ 48
Bri@@ 48
Juli@@ 48
tér@@ 48
document@@ 48
smo@@ 48
astr@@ 48
mental 48
Regard@@ 48
cons@@ 48
Iran 48
ï 48
tube 48
F 47
oppos@@ 47
sume 47
rare 47
fav@@ 47
ètres 47
Av@@ 47
Euro@@ 47
communic@@ 47
stitu@@ 47
designer 47
nat@@ 47
clu@@ 47
World 47
univer@@ 47
ger@@ 47
kilom@@ 47
65 47
diab@@ 47
transport@@ 47
horri@@ 47
lation 47
class@@ 47
16@@ 47
Des@@ 47
gel@@ 47
animation 47
15@@ 47
ash 47
Dan 47
26 47
robo@@ 47
Alex@@ 47
struc@@ 47
pin@@ 47
Bl@@ 47
SW 47
Gore 46
od 46
occas@@ 46
bag@@ 46
globe 46
pati@@ 46
performan@@ 46
océ@@ 46
endant 46
Du@@ 46
cules 46
êt 46
Pi@@ 46
paraly@@ 46
Institu@@ 46
grad@@ 46
psy@@ 46
Nature 46
titu@@ 46
post-@@ 46
div@@ 46
forma@@ 46
coul@@ 46
esh 46
accessible 46
fron@@ 46
ya 46
transition 46
delà 46
tem@@ 46
enture 46
déci@@ 46
v 46
YouTube 46
Second 46
Nig@@ 45
nutri@@ 45
rot@@ 45
domes@@ 45
instruc@@ 45
ital 45
manif@@ 45
Mus@@ 45
ff 45
enz@@ 45
ails 45
ple 45
Cu@@ 45
sy@@ 45
.com 45
Gre@@ 45
Ê@@ 45
Ke@@ 45
bloc@@ 45
tac@@ 45
plic@@ 45
than 45
C. 45
match 45
airs 45
habitat 45
glo@@ 45
ab 45
anthro@@ 45
hallucin@@ 45
ulation 44
Marti@@ 44
compéti@@ 44
Phili@@ 44
atur@@ 44
foc@@ 44
eure 44
sand@@ 44
prési@@ 44
flexi@@ 44
Boston 44
cid@@ 44
orig@@ 44
Howard 44
BC 44
mem@@ 44
Willi@@ 44
bot@@ 44
directions 44
fre@@ 44
fit 44
Rwanda 44
crick@@ 44
agos 43
atures 43
II 43
logo 43
Im@@ 43
bli@@ 43
reuses 43
aves 43
ic 43
reg@@ 43
ak 43
Earth 43
atu@@ 43
fab@@ 43
orange 43
collective 43
philanthro@@ 43
Hom@@ 43
abstr@@ 43
étu@@ 43
Nat@@ 43
expert 43
Hollywood 43
ski@@ 43
Del@@ 43
ey@@ 42
Atlan@@ 42
Char@@ 42
facil@@ 42
section 42
lue 42
ton@@ 42
Mag@@ 42
ince 42
eures 42
support 42
cau@@ 42
fur 42
Sim@@ 42
aisir 42
As@@ 42
amp@@ 42
id 42
Stanford 42
éni@@ 42
impro@@ 42
Sil@@ 42
philos@@ 42
immen@@ 42
Ho@@ 42
Congr@@ 42
descri@@ 42
pt 42
vrir 42
tend 42
angible 42
convers@@ 42
œ@@ 42
Dar@@ 41
Je@@ 41
indic@@ 41
intense 41
vac@@ 41
chaî@@ 41
ause 41
dus 41
Wil@@ 41
side 41
ba@@ 41
ke@@ 41
caractéris@@ 41
algorith@@ 41
Valley 41
ste@@ 41
Chin@@ 41
civ@@ 41
front 41
mur@@ 41
appl@@ 41
roman@@ 41
rig@@ 41
pons 40
fic 40
mas 40
ut@@ 40
ess 40
ty 40
Lo@@ 40
Street 40
sk@@ 40
quarti@@ 40
mê@@ 40
Is@@ 40
Har@@ 40
abo@@ 40
tradi@@ 40
évol@@ 40
Go@@ 40
désor@@ 40
bit 40
alle@@ 40
Wikipedia 40
onom@@ 40
tes-@@ 40
bab@@ 40
Num@@ 40
tempér@@ 39
confi@@ 39
print@@ 39
infrastruc@@ 39
immédi@@ 39
contro@@ 39
City 39
Science 39
tol@@ 39
ical 39
eck@@ 39
tle 39
bridge 39
ym@@ 39
wn 39
neutr@@ 39
ource 39
Gen@@ 39
Do@@ 38
options 38
Res@@ 38
im 38
ive 38
malaria 38
décri@@ 38
My@@ 38
Her@@ 38
we@@ 38
tric@@ 38
prototy@@ 38
Jer@@ 38
wi@@ 38
Peu@@ 38
S. 38
eth@@ 38
dge 37
secre@@ 37
tel@@ 37
olog@@ 37
emble 37
techn@@ 37
popul@@ 37
exis@@ 37
destruc@@ 37
bs 37
caf@@ 37
oto 37
Wiki@@ 37
ve-@@ 37
quar@@ 37
ect 37
Ag@@ 37
particu@@ 37
eg@@ 36
auté 36
record 36
ever@@ 36
oug@@ 36
moy@@ 36
éros 36
den 36
jum@@ 36
icon 36
sement 36
zz@@ 36
rè@@ 36
squ@@ 36
bar 36
civil@@ 36
bin@@ 36
dra@@ 36
aly@@ 35
ander 35
any@@ 35
ero 35
well 35
top 35
fabric@@ 35
massive 35
pois@@ 35
thme 35
ary 35
deux@@ 35
Ama@@ 35
couple 35
tech 35
ry@@ 35
œur 35
King 35
so 35
inté@@ 35
strai@@ 35
Ob@@ 35
sat@@ 35
Val@@ 35
til 35
convainc@@ 35
lap@@ 35
dy@@ 35
Ethiop@@ 35
figure 34
wee@@ 34
pollu@@ 34
ick@@ 34
imag@@ 34
ens@@ 34
stand@@ 34
pot@@ 34
Bay 34
célè@@ 34
inez 34
original 34
import@@ 34
cident@@ 34
low 34
ms 34
foot@@ 34
lob@@ 34
ist 34
sci@@ 34
Unis 33
ême 33
hal@@ 33
accessi@@ 33
ket 33
hur@@ 33
some 33
compréhen@@ 33
ap 33
clas@@ 33
ties 33
pun@@ 33
ographic 33
neur@@ 33
stable 33
servi@@ 33
Chil@@ 33
Mer@@ 33
agon@@ 33
ank@@ 33
Wi@@ 33
susp@@ 33
audience 33
ish@@ 33
Ever@@ 33
discus@@ 32
amp 32
Rob@@ 32
w 32
solu@@ 32
stop@@ 32
éris@@ 32
isions 32
on-@@ 32
anger@@ 32
lose 32
perspec@@ 32
boî@@ 32
ep@@ 32
top@@ 32
oty@@ 32
ther 32
view 32
narr@@ 32
gh@@ 31
Sp@@ 31
eth 31
améli@@ 31
em 31
ys 31
lif@@ 31
ries 31
artic@@ 31
règ@@ 31
Pau@@ 31
land@@ 31
anima@@ 31
Imag@@ 31
al-@@ 31
quo@@ 31
perf@@ 31
ox@@ 31
bâti@@ 31
Lors@@ 31
gg@@ 31
agers 31
stic 31
over 31
indus@@ 30
condi@@ 30
ument@@ 30
récu@@ 30
email 30
mouv@@ 30
hist@@ 30
ols 30
Inter@@ 30
dimen@@ 30
vel@@ 30
communaut@@ 30
ames 30
magaz@@ 30
au-@@ 30
intro@@ 30
big@@ 30
ieu 30
angiogen@@ 30
my 29
Intern@@ 29
faces 29
ice 29
Center 29
je@@ 29
Christ@@ 29
&@@ 29
wat@@ 29
itié 29
Hey 29
angio@@ 29
aug@@ 29
Sol@@ 29
ément@@ 29
mix@@ 29
lead@@ 29
ship 29
plo@@ 29
Stu@@ 29
igno@@ 29
Ken@@ 29
Angl@@ 29
ativité 29
mir@@ 29
envir@@ 29
dan@@ 29
Chr@@ 29
Sec@@ 29
Rem@@ 29
cus@@ 28
démocrati@@ 28
radiation 28
Yor@@ 28
premi@@ 28
ode 28
sel@@ 28
th 28
bibli@@ 28
loir 28
connections 28
chir@@ 28
ster@@ 28
open@@ 28
lym@@ 28
Brit@@ 28
épo@@ 28
phone 28
résul@@ 28
TV 28
bits 28
Can@@ 28
leader 28
ga@@ 28
can 28
surg@@ 27
international 27
sep@@ 27
y-@@ 27
ival@@ 27
fel@@ 27
state 27
core 27
trois@@ 27
wit@@ 27
xim@@ 27
cris@@ 27
up 27
ef 27
May@@ 27
uck 27
co 27
dats 27
oun@@ 27
ollywood 27
tical 27
elle-@@ 27
équili@@ 27
fine 26
grain 26
statis@@ 26
We@@ 26
ep 26
infr@@ 26
acter 26
heu@@ 26
graph@@ 26
fe@@ 26
exper@@ 26
ings 26
améric@@ 26
Ja@@ 26
voul@@ 26
war@@ 26
bén@@ 26
ear@@ 26
miles 26
curité 26
catastr@@ 26
ters 26
conduc@@ 26
even 26
âce 26
Okay 26
ètement 26
allo@@ 26
Wow 26
puzz@@ 25
pre@@ 25
ek 25
succ@@ 25
way 25
er-@@ 25
ound 25
ural 25
amor@@ 25
corpor@@ 25
las@@ 25
mit 25
percep@@ 25
ity 25
Z 25
Franc@@ 25
commer@@ 25
voudr@@ 25
ere 25
tils 25
gradu@@ 25
sub-@@ 25
auv@@ 25
Eu@@ 25
book 25
icité 24
Institute 24
gets 24
Fi@@ 24
future 24
tas@@ 24
win@@ 24
South 24
gau@@ 24
ands 24
truc@@ 24
cal 24
del@@ 24
q@@ 24
bet 24
0,000 24
changes 24
abl@@ 24
invest@@ 24
Sci@@ 24
Actu@@ 24
thr@@ 24
compare 23
cle@@ 23
ow 23
opin@@ 23
design@@ 23
Bas@@ 23
zaines 23
1.@@ 23
obs 23
ors@@ 23
voitu@@ 23
refu@@ 23
imes 23
entiss@@ 23
ran 23
ution 23
oper@@ 23
vern@@ 23
aissance 23
red 23
aisse@@ 23
spé@@ 23
ü@@ 23
fig@@ 23
reté 23
for 23
Pres@@ 23
six@@ 23
more 23
ft 23
techni@@ 22
table@@ 22
acro@@ 22
tern@@ 22
West 22
star 22
clip 22
gers 22
st 22
liber@@ 22
net@@ 22
nar@@ 22
ide@@ 22
dance 22
lets 22
Tu@@ 22
ator 22
atis@@ 22
thiop@@ 22
ach 22
— 22
ene@@ 22
stop 22
sit 21
poll@@ 21
sho@@ 21
tune 21
crati@@ 21
places 21
tici@@ 21
grade 21
Pre@@ 21
You@@ 21
ord 21
fun@@ 21
ams 21
ada 21
instr@@ 21
wer@@ 21
sam@@ 21
f-@@ 21
chair 21
rock 21
issue 21
balance 21
productive 21
pend@@ 21
lies 21
relev@@ 20
tion@@ 20
bec@@ 20
ech 20
jun@@ 20
pur@@ 20
aw 20
hol@@ 20
in-@@ 20
open 20
foot 20
vice 20
fortable 20
wo@@ 20
ID@@ 20
show 20
algori@@ 20
ked 20
formid@@ 19
bud@@ 19
ness 19
flu 19
ake 19
ind 19
‘ 19
tau@@ 19
factu@@ 19
mess@@ 19
eck 19
her 19
ink 19
volution 19
Isl@@ 19
nd 19
fast 19
dar@@ 18
insp@@ 18
èce 18
the@@ 18
dec@@ 18
nou@@ 18
sis 18
ury 18
ope 18
Ger@@ 18
bia 18
expéri@@ 18
subj@@ 18
HI@@ 18
aria 18
spl@@ 18
win 18
ington 18
conom@@ 18
quences 18
food 18
effor@@ 18
™ 18
see 17
kets 17
oundation 17
phy@@ 17
DP 17
tural 17
ping 17
embl@@ 17
off 17
ight 17
orge 17
beau@@ 17
alg@@ 17
ign 17
day 17
strat@@ 17
got 17
gent@@ 17
igh@@ 17
ö@@ 17
wan@@ 17
get 17
heur 17
hosp@@ 17
Tal@@ 17
ee 17
them@@ 17
espo@@ 17
atement 17
ny 17
culp@@ 17
favorite 17
iness 17
futu@@ 17
we 17
The@@ 17
Swe@@ 17
impres@@ 16
cut@@ 16
ument 16
cert@@ 16
Pers@@ 16
Dav@@ 16
ush@@ 16
ational 16
back 16
tail 16
nets 16
tionne 16
tics 16
tic 16
ory 16
coff@@ 16
shall 16
no 16
Iraq 16
missions 16
requi@@ 16
scen@@ 16
aker 16
cog@@ 16
ners 16
own 16
ward 16
techno@@ 16
eras 16
Afgh@@ 15
ston 15
rapid@@ 15
each 15
Est-@@ 15
roc@@ 15
tembre 15
high-@@ 15
itch@@ 15
pon 15
Go 15
angi@@ 15
buc@@ 15
strong 15
baby 15
opti@@ 15
atic@@ 15
aim 15
² 15
digital 15
thers 15
coo@@ 15
case 15
thro@@ 15
natur@@ 15
men 15
suj@@ 15
prin@@ 15
ceau 15
sugges@@ 15
long-@@ 15
¨ 15
onc 15
Now 15
ns 14
ppe 14
résou@@ 14
py@@ 14
lors@@ 14
ceaux 14
Stan@@ 14
sing@@ 14
) 14
Mid@@ 14
sky 14
,000 14
lau@@ 14
has@@ 14
major@@ 14
curr@@ 14
pian@@ 14
stars 14
len@@ 14
media 14
camera 14
slide 14
atmosph@@ 14
Â@@ 14
ric@@ 14
phil@@ 14
ective 14
phere 14
compu@@ 14
Joh@@ 13
Fro@@ 13
partic@@ 13
ting 13
eils 13
ast 13
job 13
scr@@ 13
trilli@@ 13
ers@@ 13
challenge 13
issues 13
othè@@ 13
simpl@@ 13
eral 13
East 13
ches@@ 13
vill@@ 13
figu@@ 13
agues 13
fric@@ 13
= 13
sto@@ 13
bes@@ 13
recor@@ 13
space 13
bble 13
ograp@@ 13
Pak@@ 13
ll 13
divi@@ 13
pair 13
ken 13
to-@@ 13
intell@@ 13
als 13
studi@@ 13
colo@@ 12
sion@@ 12
Goo@@ 12
onto 12
On@@ 12
ety 12
ech@@ 12
live 12
op 12
prob@@ 12
wh@@ 12
add@@ 12
issu@@ 12
del 12
emplo@@ 12
of@@ 12
recy@@ 12
parts 12
trouble 12
ally 12
look 12
ford 12
ood 12
musi@@ 12
ids 12
stream 12
U.@@ 12
dependent 12
è 11
person@@ 11
NA@@ 11
hou@@ 11
flo@@ 11
VI@@ 11
planning 11
eum 11
clic@@ 11
west 11
Rich@@ 11
wr@@ 11
ble@@ 11
&apos;@@ 11
spr@@ 11
asses 11
sente 11
night 11
dament@@ 11
key 11
istan 11
sw@@ 11
My 11
med 11
-up 11
umul@@ 11
American 11
changing 11
stom@@ 11
* 11
boy 11
mémo@@ 11
ount@@ 11
tor 11
shi@@ 11
versus 11
explore 11
video 11
5,000 11
read@@ 11
ass 11
♪ 11
ë 11
connection 11
lem 11
child 11
½ 10
ding 10
ery 10
ancy 10
wood 10
Ira@@ 10
iè@@ 10
ould 10
ish 10
ays 10
are@@ 10
hot@@ 10
ow@@ 10
mosph@@ 10
Man 10
ministr@@ 10
dad 10
lic 10
ques-@@ 10
press 10
invol@@ 10
olly@@ 10
mente 10
anda 10
ducation 10
any 10
probab@@ 10
mile 10
set 10
plane 10
Bra@@ 10
ods 10
cape 10
trade 10
language 10
aps 10
zer@@ 10
èces 10
phones 10
ten 10
okay 10
huma@@ 10
oth 10
0-@@ 10
One 9
vive 9
new@@ 9
á@@ 9
TE@@ 9
spe@@ 9
ectr@@ 9
transi@@ 9
put 9
University 9
hop@@ 9
fortu@@ 9
déj@@ 9
complex@@ 9
pedia 9
avail@@ 9
ring 9
his 9
occur@@ 9
cellu@@ 9
lots 9
peace 9
web@@ 9
Ear@@ 9
head 9
Great 9
field 9
line 9
giving 9
pull 9
eling 9
istr@@ 9
effici@@ 9
+ 9
ss 9
stone 9
acks 9
fore@@ 9
bone 9
Î@@ 9
tors 9
zero 9
ials 9
spo@@ 8
HIV 8
sof@@ 8
environ@@ 8
préhen@@ 8
medi@@ 8
consum@@ 8
zen 8
com 8
r. 8
wel@@ 8
plant 8
aren 8
In 8
We 8
now 8
challenges 8
spectr@@ 8
but@@ 8
nul@@ 8
vidé@@ 8
ine@@ 8
hus@@ 8
sters 8
controll@@ 8
# 8
isco 8
mau@@ 8
onal 8
ular 8
obj@@ 8
biz@@ 8
sia 8
ree 8
tice 8
ven 8
Stre@@ 8
kes 8
other@@ 8
life 8
ident 8
model 8
gives 8
peri@@ 8
ë@@ 7
U.S. 7
10,000 7
possi@@ 7
Stat@@ 7
board 7
ld 7
stre@@ 7
( 7
lock 7
ug@@ 7
very 7
ust 7
Tw@@ 7
à@@ 7
game 7
develop@@ 7
ough 7
star@@ 7
ird 7
jobs 7
come 7
Sun 7
aster 7
û 7
cidents 7
tw@@ 7
non@@ 7
ew 7
fish 7
London 7
doub@@ 7
histo@@ 7
fall@@ 7
ress 7
empor@@ 7
Wom@@ 7
Q 7
ian 7
ell-@@ 7
write 7
K. 7
libr@@ 7
work 7
AD@@ 7
wind 7
ñ@@ 7
éric@@ 7
she@@ 7
extra 7
provi@@ 7
electr@@ 6
Micro@@ 6
scientifi@@ 6
stri@@ 6
mark@@ 6
week 6
eful 6
old 6
plants 6
usu@@ 6
etc@@ 6
Austr@@ 6
manufactu@@ 6
got@@ 6
interes@@ 6
acy 6
thy 6
tech@@ 6
ã@@ 6
exi@@ 6
Audience 6
alth 6
sev@@ 6
appe@@ 6
logy 6
ese 6
det@@ 6
fun 6
hic@@ 6
º 6
billion 6
wers 6
British 6
ere@@ 6
ills 6
town 6
too 6
vide@@ 6
ath 6
Afri@@ 6
ome@@ 6
ging 6
seri@@ 6
Ye@@ 6
rase 6
gas 6
craf@@ 6
low@@ 6
Don 6
stand 6
adv@@ 6
tribu@@ 5
IT 5
wal@@ 5
value 5
rol@@ 5
gentlem@@ 5
rate 5
absolu@@ 5
phén@@ 5
Ce@@ 5
Angel@@ 5
survive 5
proces@@ 5
derni@@ 5
pital 5
ô 5
dol@@ 5
langu@@ 5
tats-@@ 5
elop@@ 5
Yeah 5
wards 5
quot@@ 5
aid 5
throw 5
country 5
ready 5
had 5
cases 5
rain@@ 5
North 5
has 5
ady 5
ways 5
Good 5
war 5
ago 5
divers@@ 5
£ 5
ester@@ 5
hen@@ 5
thetic 5
enom@@ 5
people 5
one-@@ 5
sue 5
derson 5
over@@ 5
effective 5
Take 5
anning 5
ȇ@@ 5
acking 5
intel@@ 5
2,000 5
æ@@ 5
current 5
wn@@ 5
aring 5
fact@@ 5
America 5
thi@@ 5
India 5
halluc@@ 5
O2 5
anding 4
enge 4
ders 4
sli@@ 4
scar@@ 4
Ox@@ 4
enjo@@ 4
try 4
low-@@ 4
speci@@ 4
ful@@ 4
same 4
cy 4
beg@@ 4
Ç@@ 4
ads 4
consi@@ 4
eer 4
percent 4
boys 4
ior 4
efficient 4
elling 4
disco@@ 4
wis@@ 4
suppl@@ 4
speed 4
ating 4
math 4
ergy 4
pie@@ 4
hap@@ 4
If 4
tric 4
sell 4
ning 4
rése@@ 4
st-@@ 4
sun@@ 4
law@@ 4
ization 4
house 4
aries 4
ops 4
® 4
ects 4
bet@@ 4
longer 4
how 4
surr@@ 4
ä@@ 4
gene 4
lem@@ 4
perfor@@ 4
possibil@@ 4
cover 4
urban 4
alive 4
veau 4
wing 4
may@@ 4
gen 4
stac@@ 4
walk 4
store 4
ustr@@ 4
hel@@ 4
she 4
modè@@ 4
price 4
Western 4
worth 4
Engl@@ 4
add 4
eas@@ 3
ful 3
á 3
experim@@ 3
ush 3
_ 3
lik@@ 3
short 3
under@@ 3
1,000 3
was@@ 3
mate 3
hall@@ 3
econom@@ 3
maladi@@ 3
yel@@ 3
Just 3
raise 3
Today 3
stage 3
ainst 3
Publi@@ 3
They 3
team 3
shows 3
call@@ 3
role 3
music 3
emer@@ 3
miss@@ 3
ators 3
notice 3
ared 3
ching 3
play@@ 3
ú 3
Califor@@ 3
chrom@@ 3
box 3
And 3
Harv@@ 3
series 3
ated 3
anks 3
hai@@ 3
hand@@ 3
lines 3
uch 3
sorts 3
iter@@ 3
sex 3
People 3
boo@@ 3
What 3
ù 3
defin@@ 3
€ 3
zes 3
onic 3
@ 3
0s 3
kill@@ 3
 3
home 3
Ain@@ 3
range 3
ize 3
No 3
kind 3
fact 3
differ@@ 3
represent@@ 3
emis@@ 3
pres 3
stor@@ 3
ert@@ 3
adver@@ 3
Is 3
NA 3
mor 3
talk 3
swe@@ 3
equ@@ 3
traff@@ 3
process 3
online 3
istry 3
China 3
ishing 3
United 3
gar 3
California 3
crow@@ 3
piece 3
ely 3
sat 3
hun@@ 3
loo@@ 3
list 3
exemp@@ 3
Americ@@ 3
fashi@@ 3
This 3
conflic@@ 3
nee@@ 3
Afghan@@ 2
oms 2
love 2
success@@ 2
� 2
world 2
news 2
French 2
lear@@ 2
building 2
walls 2
gir@@ 2
hard 2
map 2
evolution 2
oid 2
ground 2
better 2
¾ 2
ó@@ 2
icity 2
new 2
present 2
cars 2
conference 2
rise 2
bottom 2
Do 2
acter@@ 2
Amer@@ 2
dream 2
class 2
elec@@ 2
ound@@ 2
high 2
replic@@ 2
billions 2
away 2
enthou@@ 2
ology 2
lands 2
compas@@ 2
Of 2
atic 2
feel 2
deter@@ 2
play 2
Niger@@ 2
him 2
success 2
green 2
card 2
anced 2
estern 2
ources 2
God 2
DNA 2
Middle 2
only 2
else 2
unch 2
stic@@ 2
led 2
center 2
band 2
you 2
sm@@ 2
software 2
woman 2
touch 2
Africa 2
necess@@ 2
fres@@ 2
stem 2
paravant 2
ned 2
why 2
cord 2
chil@@ 2
lay@@ 2
meeting 2
pass 2
sias@@ 2
river 2
immedi@@ 2
row 2
word 2
You 2
custom@@ 2
difference 2
gener@@ 2
nine 2
bed 2
Thom@@ 2
exhi@@ 2
To 2
ities 2
standing 2
bir@@ 2
down 2
phys@@ 2
girl 2
watch 2
send 2
It 2
relation@@ 2
dings 2
resources 2
lives 2
aging 2
Yes 2
dru@@ 2
ough@@ 2
made 2
focus 2
Beau@@ 2
Twit@@ 2
Œ@@ 2
school 2
© 2
smar@@ 2
jump 2
body 2
office 2
For 2
hav@@ 2
English 2
bread 2
group 2
cipl@@ 2
ounc@@ 2
dren 2
War 2
and-@@ 2
É 2
rich 2
Here 2
read 2
Ė@@ 2
tats-Unis 2
tidi@@ 2
^ 2
All 2
sum 2
street 2
¥ 2
ar-@@ 2
ocean 2
prote@@ 2
boat 2
single 2
fix 2
happy 2
hour 2
major 2
brea@@ 1
oil 1
spend 1
eat 1
sop@@ 1
care 1
forms 1
sea 1
legs 1
water 1
Not 1
did 1
poor 1
natural 1
ashington 1
ted 1
dum@@ 1
jourd&apos; 1
bing 1
block 1
plastic 1
flow 1
inning 1
separ@@ 1
experience 1
systems 1
hit 1
Anglet@@ 1
Ì@@ 1
left 1
about 1
hig@@ 1
wish 1
Rw@@ 1
fy 1
region 1
hold 1
pounds 1
revolution 1
doll@@ 1
appreci@@ 1
nia 1
ening 1
ousness 1
ained 1
tex 1
born 1
warm@@ 1
self-@@ 1
tered 1
Two 1
alization 1
Many 1
fore 1
example 1
astruc@@ 1
story 1
ited 1
haven 1
At 1
shor@@ 1
quite 1
city 1
bird 1
otre 1
ability 1
writ@@ 1
ativ@@ 1
system 1
pret@@ 1
preu@@ 1
dog 1
cost 1
training 1
most 1
happiness 1
square 1
fuel 1
scho@@ 1
break@@ 1
certain@@ 1
timat@@ 1
acceler@@ 1
ext 1
mortal@@ 1
brilli@@ 1
good 1
control 1
princi@@ 1
tionary 1
chac@@ 1
project 1
faster 1
ght 1
response 1
assum@@ 1
compan@@ 1
through 1
wor@@ 1
constr@@ 1
erve 1
cheap 1
girls 1
next 1
feeling 1
whe@@ 1
pouvi@@ 1
È@@ 1
échan@@ 1
aware 1
galax@@ 1
fle@@ 1
As 1
decid@@ 1
eco@@ 1
medical 1
medic@@ 1
decide 1
ideas 1
Einste@@ 1
raid 1
high@@ 1
sphere 1
experi@@ 1
late 1
happ@@ 1
bly 1
back@@ 1
heal@@ 1
make 1
whole 1
yes 1
after@@ 1
have 1
gave 1
walking 1
mel@@ 1
challeng@@ 1
your 1
instance 1
egr@@ 1
bad 1
Lond@@ 1
nec@@ 1
ried 1
Your 1
publ@@ 1
ought 1
arly 1
illing 1
real 1
deg@@ 1
worl@@ 1
aking 1
corru@@ 1
starting 1
kers 1
amount 1
arm 1
name 1
tional 1
ween 1
aliz@@ 1
will 1
ask 1
itor 1
Look 1
stories 1
hind 1
present@@ 1
emo@@ 1
sn@@ 1
wave 1
â 1
liter@@ 1
designing 1
evol@@ 1
Japan 1
games 1
complet@@ 1
yeah 1
ị@@ 1
supply 1
rest 1
First 1
faitement 1
eye 1
saw 1
wom@@ 1
patterns 1
organisms 1
reality 1
Imagine 1
genes 1
š@@ 1
give 1
blood 1
dom 1
bene@@ 1
working 1
secon@@ 1
onstr@@ 1
definition 1
inste@@ 1
Ô 1
oning 1
safe 1
wall@@ 1
talks 1
went 1
Think 1
argu@@ 1
know 1
ems 1
cross@@ 1
fly 1
Like 1
ency 1
objects 1
responsi@@ 1
data 1
take 1
usual 1
big 1
cut 1
regi@@ 1
risk 1
rights 1
ering 1
entissage 1
agre@@ 1
polic@@ 1
meill@@ 1
nice 1
ú@@ 1
ň@@ 1
examples 1
pauv@@ 1
looks 1
oud 1
enth@@ 1
Again 1
models 1
children 1
antage 1
So 1
works 1
free 1
Japan@@ 1
forest 1
stick 1
soon 1
deal 1
ality 1
less 1
atory 1
billi@@ 1
trust 1
needs 1
program 1
&#@@ 1
hole 1
groups 1
dément 1
ying 1
wil@@ 1
endro@@ 1
