<unk>
<pad>
<s>
</s>
,
.
the
de
a
to
of
and
la
et
que
est
that
le
I
in
les
à
is
un
&quot;
it
you
l&apos;
en
des
&apos;s
une
--
on
d&apos;
we
vous
And
qui
nous
?
ce
this
dans
pas
Et
pour
il
je
:
y
was
qu&apos;
du
ne
are
have
for
c&apos;
plus
they
with
me
can
ai
n&apos;
at
&apos;t
sur
what
re@@
an
be
about
So
as
er
se
all
’
j&apos;
do
sont
there
avec
au
ils
one
not
fait
in@@
Je
é
ces
ing
&apos;re
It
or
ed
ont
ça
like
C&apos;
s@@
so
people
cette
comme
from
faire
♫
si
par
Il
était
-@@
my
tout
but
know
ent
very
S@@
just
avons
es
out
The
ou
s&apos;
mais
ant
Mais
We
But
going
up
if
ation
these
s
d@@
elle
être
t@@
très
al
us
Nous
our
b@@
p@@
them
by
aux
think
which
he
because
ons
r@@
see
ée
é@@
monde
had
bien
get
l@@
g@@
ez
dé@@
really
when
te
e@@
here
gens
c@@
more
chose
This
dit
&apos;ve
ans
would
cela
time
o@@
You
ait
your
&apos;m
how
who
és
f@@
t
h@@
then
e
world
en@@
were
don
ch@@
things
way
has
C@@
go
même
their
an@@
B@@
i@@
;
où
Donc
Vous
some
actually
J&apos;
di@@
d
o
été
D@@
into
v@@
i
quand
La
years
n@@
now
leur
will
M@@
P@@
suis
vraiment
l
m@@
where
tous
ar@@
able
son
choses
ers
un@@
age
peut
want
beaucoup
y@@
a@@
notre
L@@
other
aussi
ré@@
ate
or@@
k@@
autre
ti@@
donc
er@@
said
T@@
thing
make
parce
mon
Ce
tr@@
it@@
ac@@
They
could
là
been
voir
right
is@@
Now
A@@
u@@
E@@
H@@
ici
deux
quelque
Les
got
dire
as@@
Le
ex@@
On
something
ement
little
ad@@
vie
F@@
al@@
R@@
co@@
m&apos;
ées
on@@
li@@
much
qu@@
elles
peu
dis@@
That
el@@
say
autres
Ils
ts
kind
w@@
ses
avait
ations
at@@
than
re
avoir
par@@
no
two
ag@@
back
am@@
first
-
n
entre
m
look
pouvez
ie
c
temps
pense
ais
those
ri@@
votre
A
con@@
N@@
th@@
ap@@
em@@
over
es@@
!
ab@@
work
mes
ma
fois
eur
ou@@
G@@
el
aient
En
life
also
What
po@@
lot
avez
ter
its
et@@
st@@
point
only
ale
ine
ité
tion
ic@@
important
There
comment
his
&apos;ll
au@@
question
im@@
nos
she
down
take
most
did
K@@
k
Alors
J@@
around
many
ants
vais
come
ai@@
need
good
ol@@
pl@@
de@@
ro@@
In
put
juste
place
moi
Si
années
pro@@
...
10
sommes
savez
av@@
eux
dont
per@@
va
new
even
si@@
sh@@
use
car@@
inter@@
maintenant
p
different
encore
doing
L&apos;
ment
&apos;
eurs
tes
ance
façon
sa
ul@@
ent@@
aire
Well
O@@
gr@@
being
ally
ds
part
j@@
op@@
personnes
W@@
cr@@
leurs
moment
through
same
If
alors
ity
toutes
pr@@
veux
ph@@
day
ly
ques
enfants
her
res@@
tu@@
tions
ère
He
ite
every
ins
tant
eu
ens
besoin
dollars
br@@
aires
change
V@@
ated
té
h
lo@@
I@@
com@@
any
gu@@
am
called
se@@
idée
ur@@
pays
Voici
&apos;d
ir@@
vers
made
mo@@
ot@@
OK
sans
trans@@
ks
ue
long
three
ma@@
bl@@
u
fi@@
ain
z@@
lui
quelques
su@@
histoire
pendant
ted
20
mar@@
le@@
car
eau
moins
well
hui
ting
jamais
om@@
min@@
ents
non
ence
end
pi@@
year
parler
to@@
bi@@
toujours
ci@@
après
talk
ous
design
why
dr@@
sort
g
percent
seulement
ante
pré@@
r
idea
vi@@
est-ce
course
great
problème
simple
human
il@@
soit
els
ét@@
fact
bo@@
ever
trois
voyez
partie
chaque
last
no@@
ter@@
went
personne
bit
étaient
êtes
big
tell
didn
cou@@
quoi
thought
man
red
another
mon@@
ev@@
off
Elle
find
sou@@
show
let
ales
50
ér@@
3@@
ass@@
pre@@
toute
ar
millions
jour
so@@
started
peuvent
Maintenant
eu@@
try
ary
cet
end@@
sur@@
million
pouvons
give
tique
che
sorte
ver@@
manière
ating
aujourd&apos;
own
3
ve
pos@@
fl@@
première
cl@@
for@@
should
ps
pe@@
possible
système
ang@@
today
commencé
ge
étais
mean
after
and@@
man@@
ago
tri@@
x
2
nature
water
ors
avant
information
grand
be@@
exemple
peut-être
sûr
ves
ages
start
ill@@
str@@
science
è@@
before
travail
th
um
puis
«
system
train
Un
ne@@
problem
better
ic
pourquoi
.@@
does
came
Une
res
vu
go@@
never
him
assez
aller
mi@@
again
bon
used
whole
sp@@
avais
next
ire
Cela
fer@@
cor@@
petit
story
all@@
»
1@@
us@@
rien
technology
2@@
enti@@
looking
ser@@
30
ies
do@@
ec@@
qu
Because
ceci
grande
ess@@
mettre
depuis
might
still
der
ique
te@@
int@@
ères
5
ten@@
ise
um@@
ches
per
100
Merci
done
environ
rel@@
together
tu
cu@@
jusqu&apos;
ets
few
ke
too
genre
each
4@@
air
image
old
art
b
onn@@
trouver
font
TED
love
prendre
ch
hi@@
Parce
between
When
ist@@
fin@@
ay
ir
doesn
technologie
montrer
&#91;
&#93;
sions
New
sens
tic
U@@
000
How
Quand
vos
Al@@
real
wanted
four
cré@@
gl@@
six
als
avaient
tre
away
ative
Thank
pourrait
forme
less
light
Ça
gi@@
passé
%
créer
ines
king
call
peux
Ch@@
Dans
understand
cas
4
ables
mer
faut
children
quelqu&apos;
appelle
brain
8
sais
always
ements
minutes
person
he@@
questions
ig@@
utiliser
voici
cher
stuff
passe
comprendre
ions
type
vo@@
x@@
crois
gen@@
5@@
fai@@
Oh
rem@@
tent
Africa
public
1
C
bonne
premier
ver
working
nouveau
devons
ni@@
cent
vis@@
found
live
face
trying
second
pou@@
believe
fac@@
pris
19@@
près
ains
cro@@
cerveau
space
may
plutôt
des@@
ty
ho@@
ob@@
e-@@
ge@@
dev@@
sense
Afrique
everything
example
simplement
énergie
bles
déjà
f
pu@@
penser
One
homme
money
Ar@@
Here
surface
ati@@
out@@
thinking
building
du@@
we@@
Pour
petite
problèmes
took
ner
6
ing@@
année
kids
play
fr@@
cont@@
lu@@
ture
quite
ding
arr@@
bu@@
chez
ainsi
argent
ensuite
enough
getting
laquelle
os@@
times
mal@@
side
ban@@
sub@@
ille
interesting
ates
ings
sol@@
ce@@
land
aff@@
comes
film
ra@@
body
form
using
ach@@
alis@@
sure
These
fin
feel
making
donner
données
energy
Tout
happened
power
cer@@
country
inc@@
create
pass@@
rec@@
ville
har@@
ical
vol@@
plupart
wh@@
school
appar@@
jours
ats
planète
In@@
jo@@
t-@@
plan@@
por@@
cour@@
ia
coming
five
sc@@
ked
probably
trouve
vrai
ances
travers
cre@@
enne
mieux
os
sous
quel
savoir
doit
ensemble
number
pouvoir
top
7
Earth
trop
15
part@@
quer
nouvelle
gar@@
serait
comm@@
ded
force
maybe
fu@@
No
anything
mis@@
ann@@
food
mois
mé@@
veut
vont
importe
pe
says
sera
tro@@
ème
Internet
data
200@@
ceux
future
mu@@
antes
bas@@
certain
espace
idées
allons
ités
jou@@
population
pour@@
quement
talking
small
action
book
ven@@
My
York
cul@@
pretty
agit
fe@@
help
ess
means
40
ateur
left
off@@
Comment
col@@
ect@@
endroit
éri@@
cause
9
pen@@
planet
Par@@
ju@@
mis
cours
8@@
ain@@
mal
move
met@@
sup@@
ist
loc@@
our@@
rez
best
nombre
room
set
côté
ics
raison
social
ws
vient
projet
changer
marché
id@@
line
mor@@
seen
passer
tic@@
vent
become
business
half
ideas
main
lieu
9@@
Mo@@
culture
machine
She
app@@
cap@@
era
exp@@
ay@@
ect
ends
ber@@
haut
ways
der@@
ari@@
ars
dic@@
happen
identi@@
ones
picture
build
autour
ton
20@@
ast
lin@@
utilis@@
w
anc@@
fo@@
expérience
goes
port@@
quatre
tive
ren@@
7@@
else
compte
images
syn@@
ues
Pourquoi
S
ey
without
ability
across
arrive
est@@
fs
large
alement
ness
seule
différentes
inv@@
â@@
60
conn@@
ez-vous
having
propre
Su@@
certains
ff@@
technologies
Voilà
enfant
sion
structure
trouvé
dent
aine
tard
Re@@
comp@@
faites
femme
saw
site
CA
me@@
ég@@
coll@@
Why
gros
table
D
computer
contre
prom@@
solution
problems
produit
act
bad
Bon
reste
such
bur@@
countries
ad
guy
ru@@
vari@@
vue
Let
cancer
case
cho@@
donn@@
saying
bro@@
ier
parents
accord
photo
position
att@@
can@@
ms
Z@@
construire
told
corps
ign@@
De
Des
basically
iques
lorsque
partir
pres@@
days
happens
pli@@
her@@
ici@@
ler
makes
ask
bas
All
An@@
allez
ection
God
faisons
entr@@
voulez
Ceci
home
mère
teur
s-@@
livre
Mon@@
Oui
lim@@
cop@@
devez
mind
En@@
tres
vision
city
groupe
log@@
men@@
process
prim@@
chance
experience
rai@@
Bien
Cette
billion
continu@@
ide
reason
voilà
niveau
ard
aw@@
ill
sujet
donne
ites
6@@
ists
met
ouv@@
the@@
Au
Eh
difficile
hard
probablement
tellement
Qu&apos;
act@@
base
asked
attention
jeu
living
parle
places
société
super@@
cal@@
ling
milliards
Ces
mat@@
0@@
ely
ette
later
looks
Terre
essayer
hand
once
pu
réalité
ade
avions
care
tis@@
ble
both
global
maison
turn
univers
ut
India
couple
nothing
D&apos;
mer@@
tiques
bio@@
fais
history
Non
Y@@
regardez
ris@@
commencer
dec@@
project
seul
universe
while
ant@@
bri@@
j
view
époque
ail
beautiful
child
esprit
Con@@
Dieu
clo@@
femmes
women
far
d-@@
nouvelles
souvent
santé
within
For
ically
oc@@
tur@@
everybody
om
plusieurs
uc@@
St@@
already
changement
lumière
voit
25
bring
gener@@
mas@@
z
bar@@
complètement
ment@@
travailler
piece
propos
ss@@
teurs
école
ateurs
euse
cinq
moyen
rée
80
situation
almost
imagine
ots
As
intéressant
ste@@
él@@
high
Th@@
ellement
gs
savons
rendre
tou@@
0s
ace
heard
mission
music
bre@@
ences
ordinateur
Com@@
lic@@
read
humain
yeux
hope
true
ve@@
Inde
Le@@
guerre
spéci@@
génér@@
ner@@
presque
venir
animaux
rend@@
sk@@
anti@@
capable
terre
keep
lives
looked
test
év@@
aime
iter
regarder
species
up@@
érer
iste
single
built
rap@@
whether
answer
différents
house
Elles
ack
die
ful
réponse
compassion
matter
sec@@
ure
Mar@@
qué
works
yet
ç@@
United
char@@
esse
humains
également
appelé
heures
led
dernière
ments
rs
sé@@
ta@@
ters
group
gé@@
199@@
Comme
Que
inside
mother
bou@@
début
eng@@
bes
front
12
Then
aide
entendu
gets
points
pouvait
processus
America
head
kinds
low
ther
apprendre
aurait
inf@@
petits
tête
donné
ice
pan@@
prix
voulais
mag@@
ca@@
const@@
somebody
months
order
quelle
iss@@
though
under
Ma@@
compar@@
ell@@
figure
itself
learn
porte
commence
emp@@
ô@@
bout
family
musique
must
pensé
ettes
nor@@
bal@@
ligne
my@@
animal
disent
fil@@
marche
atta@@
ger
ager
ator
demandé
tle
tés
version
wrong
completely
ot
tons
wing
ile
partout
ail@@
architecture
ected
happy
sav@@
under@@
modèle
ête
company
ak@@
ali@@
aucun
dessus
imp@@
ra
remember
until
virus
aider
lequel
sho@@
Europe
isn
model
open
phone
video
Ainsi
conv@@
rement
rer
ci
community
dis
eg@@
Sh@@
States
intérieur
oil
rather
wn
Chris
enseign@@
ther@@
word
ell
existe
illes
montre
ète
Qu@@
mêmes
over@@
sig@@
contr@@
micro@@
plan
ty@@
voy@@
voyons
alité
dem@@
sive
500
ente
iez
often
wi@@
ying
famille
oun@@
plac@@
run
wasn
11
ame
dy
mus@@
ber
impact
mil@@
ori@@
Mon
hor@@
accep@@
ently
job
oul@@
state
war
Est-ce
non-@@
pas@@
young
ï@@
meilleur
page
suite
tics
én@@
Ex@@
Vo@@
esti@@
ish
psycho@@
200
développement
fish
taking
wonderful
No@@
environnement
hy@@
ry
won
ane
animals
centre
happening
hom@@
myself
oper@@
sal@@
ze
éch@@
Or
abord
chi@@
prend
réellement
sait
wor@@
Mars
amazing
mem@@
stop
name
nom
val@@
ank
effet
level
market
ons-nous
représent@@
ature
croy@@
indi@@
taken
gro@@
recherche
état
Wh@@
dernier
dois
fol@@
isme
ourselves
pose
source
G
arri@@
coup
ery
along
analy@@
mesure
pé@@
since
tionn@@
voiture
air@@
bon@@
certaines
cles
exactly
feet
health
lots
regarde
cri@@
dro@@
histoires
night
rapidement
tel
thé@@
vivre
arriver
decided
extr@@
game
organis@@
prof@@
pul@@
semble
stories
Se@@
enc@@
incroyable
jouer
ress@@
0,000
Google
az@@
cam@@
oui
port
serv@@
ties
ed@@
mort
production
père
sen@@
tal@@
visu@@
ni
compos@@
loin
personn@@
signifie
ched
couldn
education
B
exactement
inst@@
rons
taille
vidéo
whatever
écrit
American
découvert
heart
words
amis
bus@@
che@@
dernières
soci@@
someone
évolution
18
bat@@
fut
guys
men
particular
endroits
grâce
hommes
hours
gauche
intéress@@
itation
knew
ism
takes
uns
Br@@
huge
longtemps
turns
vers@@
area
aucune
cas@@
ick
moving
ocean
pic@@
ê@@
capacité
choix
créé
grandes
ressemble
vir@@
equ@@
government
iz@@
sent@@
tement
z-vous
nu@@
ole
parti@@
rent
ities
language
least
photos
dét@@
adap@@
amour
ave
celle
hear
tre@@
M
Yeah
cat@@
form@@
mètres
chem@@
futur
prot@@
appris
combin@@
demande
explo@@
re-@@
size
society
viennent
became
décidé
issent
nourriture
petites
produc@@
ship
siècle
voudrais
ational
grands
importante
natural
pens@@
Ro@@
communauté
o-@@
ping
ré
attr@@
qui@@
hu@@
outside
scale
village
worked
esses
impossible
oh
sac@@
seven
appro@@
beginning
cle
det@@
devenir
fier
né@@
patient
century
ft
la@@
Puis
bul@@
grav@@
multi@@
ret@@
woman
Pas
So@@
ais@@
igh@@
innovation
istes
minute
systems
zone
,@@
/
Amérique
Bo@@
difference
ef
fond
free
ke@@
meu@@
war@@
Ou
cells
code
rou@@
uni@@
L
aring
compl@@
control
cost
created
ack@@
fon@@
parlé
trouv@@
arg@@
devient
fonctionn@@
milieu
news
pal@@
rés
tez
tor
cool
ices
ound
robot
sel@@
cellules
heureux
ls
ong@@
photograph@@
voulons
70
aimerais
dd@@
devrait
friends
humaine
acc@@
arrivé
calcul@@
ession
exc@@
known
machines
poser
produire
cir@@
faite
10@@
disease
essay@@
fille
nes
types
ye@@
died
différence
lev@@
arch@@
enn@@
entier
od@@
third
éducation
allé
droite
gouvernement
message
permet
sor@@
ved
continue
cur@@
dou@@
milliers
mot
needs
past
plein
Co@@
attend@@
ché
concer@@
direction
finalement
gre@@
imagin@@
obtenir
seeing
service
tor@@
turned
uses
énorme
ah
dû
pon@@
pren@@
themselves
deal
entire
gone
pil@@
viv@@
conf@@
cy@@
early
id
perhaps
18@@
Car@@
based
bed
buy
hon@@
interested
miles
parts
politique
aut@@
bâtiment
devenu
euses
finally
unique
against
amount
combien
quickly
terms
Okay
ana
concept
erait
research
tif
Po@@
gave
iser
spec@@
tical
États-Unis
De@@
chacun
doc@@
grand@@
heure
ited
key
t-il
chim@@
let@@
pa@@
puisse
scientifiques
st
students
vite
wer
atif
everyone
tenir
ving
Do
carte
devant
dispar@@
espèce
hel@@
ial
lab@@
échelle
économie
mains
ory
public@@
èrent
Is
afin
ation@@
ote
sound
sul@@
bor@@
cannot
environment
learned
mou@@
ously
âge
close
pat@@
souff@@
veulent
cli@@
compris
décou@@
ended
pain
programme
systèmes
China
a-@@
dri@@
mes@@
middle
mots
others
sti@@
trav@@
Gr@@
J
cent@@
ker
leave
mine
porter
posé
selon
tes@@
age@@
bru@@
construction
vre
celui
produits
atom@@
coun@@
kin@@
ordinateurs
ories
pression
terme
thousands
É@@
began
iner
lis@@
nom@@
parl@@
rac@@
univers@@
walk
Mal@@
logy
sometimes
villes
viol@@
économ@@
Tu
concentr@@
eight
instead
ish@@
reg@@
réalis@@
sil@@
suff@@
vie@@
mouvement
patients
pétrole
tho@@
équipe
share
changes
diff@@
eyes
gars
int
self-@@
ular
Yes
appli@@
bel@@
blo@@
enter
hold
ister
ive
sent
sie
tried
utilisé
E
appel@@
evolution
facile
Par
ement@@
entreprise
eter
gh@@
prise
utilise
,000
adv@@
ash@@
common
fascin@@
fun
ground
jeunes
program
rest
90
ah@@
certaine
irs
ol
physique
study
êtres
demand@@
grow
suc@@
tures
constru@@
demander
formes
four@@
intelligence
tin@@
Chine
Ti@@
af@@
ath@@
espère
hum@@
logique
pensez
présent
sortes
sortir
Right
cel@@
fini
livres
seconde
Just
cell
changé
iv@@
objet
oi
pensent
sembl@@
étudiants
changed
construit
dre@@
pay@@
tour
X@@
associ@@
ax@@
fondament@@
fro@@
given
longer
puis@@
pur@@
raisons
trai@@
travaille
cher@@
contribu@@
easy
son@@
Be@@
People
actions
da
différent
gie
là-bas
ong
termes
Not
active
books
ency
entes
meilleure
normal
nuit
publi@@
salle
spend
ths
vou@@
aura
fly
friend
hands
local
nouveaux
particulier
théorie
tion@@
î@@
–
Ensuite
World
black
dimensions
incredible
ordin@@
pes
y-@@
ys
conditions
eff@@
ind@@
informations
initi@@
moitié
dra@@
dé
engag@@
invent@@
nam@@
ns
pièce
solutions
week
œu@@
aces
ake
lire
od
predic@@
préf@@
réseau
dat@@
ick@@
spe@@
For@@
aines
eat
father
forces
proc@@
yourself
z-@@
Au@@
difficult
droit
ili@@
opportunity
ta
vacc@@
00
ak
brought
deuxième
ects
forward
impro@@
web
ép@@
alo@@
centaines
den@@
jeune
ning
U.S.
ach
colon@@
conse@@
déf@@
encour@@
fic@@
full
ian
imaginer
importance
ous@@
ption
stat@@
truc
venu
Un@@
acti@@
ality
either
lég@@
map
peur
robots
sau@@
virtu@@
Bu@@
Etats-Unis
ans@@
autant
ports
prenez
simply
spo@@
theory
Ici
Vi@@
ange
cities
voie
Di@@
audience
center
empl@@
flo@@
soient
éco@@
consci@@
entrer
fau@@
ires
ium
literally
logical
org@@
stage
wouldn
Pro@@
clear
death
disait
essayé
needed
objets
parfois
religion
sous-@@
starting
super
zed
Ph@@
Some
ained
architec@@
ball
considé@@
ering
ges
learning
quent
rait
résultat
Cam@@
Pr@@
To
arrière
cut
fonctionne
ingly
lit@@
logie
passion
pensons
vag@@
write
étions
abor@@
ards
charge
clin@@
différente
domaine
ear@@
faisant
morning
nice
projets
sea
semaines
vas@@
éro@@
At
défin@@
né
océan
ss
Ca
Gu@@
bottom
espèces
final
fir@@
fort
knowledge
powerful
ressembl@@
shape
shows
spent
trucs
étant
ater
derrière
doivent
fri@@
ga@@
impli@@
lib@@
observ@@
paper
relation
semaine
sens@@
til@@
aise
appe@@
comportement
dig@@
mondiale
ore@@
present
quit@@
realized
sécurité
weeks
300
T
cule
gives
rais@@
talked
tom@@
vement
ward
acheter
ades
ailleurs
behavior
fast
fine
poor
pouvais
écr@@
anci@@
chev@@
during
fabri@@
field
laisser
media
pri@@
rapport
reli@@
sol
travaill@@
wrote
èrement
aison
arts
autor@@
behind
cherch@@
idé@@
maladie
ond@@
ple
sch@@
sugg@@
tation
valeur
agr@@
dit@@
développer
ize
occup@@
16
climate
connec@@
fer
parmi
sept
sitting
team
understanding
value
wat@@
DNA
connu
habitu@@
intu@@
lar@@
propres
présent@@
sa@@
soleil
ti
voulait
white
zones
Can
collec@@
oy@@
particip@@
top@@
ams
anybody
conférence
don@@
imm@@
pay
racon@@
CO2
He@@
Me@@
average
designers
growing
i-@@
matin
quel@@
tors
ADN
P
aper
arriv@@
cham@@
curi@@
fication
hop@@
jeux
lement
ried
règles
çons
Li@@
atives
cep@@
ert
films
quantité
aim@@
ases
bons
compr@@
correc@@
dollar
hand@@
march@@
matière
sexu@@
vitesse
board
bonheur
bran@@
caus@@
complex
humans
nombreux
notion
perspective
pir@@
ray@@
termin@@
travaillé
écou@@
Fr@@
Qui
areas
economy
glace
ins@@
lie
mang@@
short
suivre
support
thank
absolutely
ared
atteindre
computers
croissance
duc@@
ered
fre@@
fun@@
mot@@
parties
réus@@
vies
vois
direc@@
head@@
knows
ok
telling
changing
economic
electr@@
kes
lost
onne
outils
running
shi@@
ès
198@@
English
ands
designed
faisait
felt
mont@@
pourriez
produce
seems
telle
voyage
aid
autom@@
en-@@
green
réalisé
résoudre
succès
téléphone
All@@
adul@@
communication
connaiss@@
domin@@
fied
ight
rules
sem@@
smo@@
tient
adop@@
avenir
emb@@
focus
galaxies
laiss@@
lon@@
lorsqu&apos;
maladies
onal
proj@@
row
scientifique
tend
watch
Richard
South
bs
discovered
expliquer
happiness
montré
ned
pol@@
soli@@
aves
conception
oi@@
pattern
pourraient
reality
ront
taux
born
challenge
clu@@
crée
growth
lent
object
pictures
réel
companies
entreprises
es-@@
inten@@
ky
moral
pages
peu@@
recently
scène
seront
squ@@
Ne@@
aiss@@
ath
compu@@
distance
fall
fore@@
impression
ina
industry
moved
rendu
simil@@
vic@@
David
ami
den
exist@@
institutions
ley
pourrions
raconter
ressources
scientists
step
tendance
terri@@
Avec
Gre@@
Nor@@
ap
ase
color
etc
far@@
girl
giving
gré
haven
nuclear
premiers
rir
soon
speak
tirer
troisième
Ma
Rus@@
antly
arrê@@
del@@
génération
ink
issue
mé
omb@@
propri@@
simul@@
som@@
tries
Bro@@
allow
dom
econom@@
ene
enf@@
essenti@@
etc.
inte
ket
press
période
rés@@
services
tomb@@
Mc@@
Our
Per@@
R
article
condu@@
gag@@
gènes
lose
vivent
Jo@@
ama@@
approche
art@@
bonnes
conversation
cru@@
developing
generation
habit@@
incredibly
modi@@
monter
nie
plu@@
positive
reasons
tox@@
écl@@
contact
disant
dés@@
hundreds
marcher
mét@@
ram@@
rend
requ@@
sing
ule
´
éléments
begin
emo@@
justice
late
major
pped
refl@@
relationship
voitures
écrire
éré
O
ang
blue
bras
constitu@@
coû@@
deep
gue
ide@@
industrie
involved
iti@@
journée
realize
stu@@
séqu@@
wind
adi@@
becomes
contrôle
dedans
experiment
hab@@
leaders
oubli@@
prenons
pris@@
tas
H
ads
ash
aus@@
climatique
conscience
couleur
descri@@
ger@@
inclu@@
ly@@
material
mati@@
rom@@
tiss@@
tourn@@
vérité
yer
abil@@
anyone
connaissance
developed
employ@@
eth@@
intern@@
le-@@
mauvais
ply
terrible
économique
éli@@
êts
Col@@
allait
diver@@
feeling
forc@@
guess
network
numbers
progr@@
réfléchir
rép@@
stand
série
tools
électr@@
étude
National
aci@@
agriculture
conserv@@
dess@@
ges@@
inqui@@
lived
meilleurs
modèles
movie
ours
pire
playing
préc@@
seem
sw@@
tically
tra@@
Ber@@
To@@
agir
dark
dead
fix@@
nombreuses
papier
showed
tiny
tra
Washington
anger
avion
chercher
depend@@
groupes
illi@@
individual
itu@@
kid
putting
élé@@
24
ably
ande
bot@@
cars
ders
gence
glob@@
intro@@
migr@@
national
onto
thers
viens
équ@@
Don
John
assis
bre
effectivement
fen@@
lications
mass
organiz@@
permet@@
pouvaient
reading
représente
sign@@
worth
wr@@
Look
ators
bigger
cell@@
essed
lum@@
neu@@
raient
rées
Ne
dition
eaux
filles
fully
high-@@
imagination
ition
logi@@
mauvaise
menti@@
nécess@@
point@@
qualité
speed
teach
tend@@
vieux
violence
Cor@@
alone
choice
expli@@
instant
ix
langage
mod@@
play@@
result
tan@@
verse
absolument
bus
charg@@
construc@@
content
dre
foot
hour
huit
mode
nobody
product
réfléch@@
Man@@
Mi@@
Of
flu@@
hun@@
moments
pauvres
personal
physical
portable
récemment
résultats
arbres
available
conc@@
continent
extrêmement
hé@@
investiss@@
ods
partager
prochaine
song
stars
towards
travers@@
wish
zo@@
K
ab
compli@@
durant
fils
gri@@
human@@
lap@@
political
ran@@
solve
t-on
évolu@@
400
Notre
béné@@
crise
entend@@
ety
plants
produ@@
regar@@
route
tifs
wo@@
accès
acy
artifici@@
asking
break
chang@@
creating
door
développ@@
faits
mental
pom@@
tar@@
trees
émer@@
Einstein
acts
aren
aît
ching
commercial
defin@@
dies
fil
gén@@
oes
ois
optimis@@
pensais
perfect
radi@@
rôle
vraie
14
Ac@@
a-t-il
appr@@
belle
certainly
changements
cycle
devrions
forms
goal
intelligent
itions
lig@@
manger
month
organ@@
pers@@
projects
.000
Après
ajou@@
ball@@
blood
cin@@
classi@@
heureusement
high@@
infrastructure
lines
mari@@
movement
particulièrement
plat@@
priv@@
radio
rapide
road
suit
surviv@@
term
thre@@
transform@@
écran
197@@
Car
approach
atique
ays
dia
dur@@
effect
ennes
esp@@
espoir
lam@@
meet
pensée
pourtant
radic@@
rate
savent
speci@@
ster
ster@@
étoiles
Fin@@
San
capables
carbone
déc@@
fy
gg@@
inspir@@
intr@@
ishing
issues
lui-même
ony
puissance
sauv@@
scientific
tree
utilisant
Ad@@
Life
ails
bureau
cardi@@
erie
influ@@
lesquelles
likely
ple@@
yes
1,@@
Dé@@
Mil@@
Même
ard@@
carbon
chanson
disons
dom@@
général
ror
save
sin@@
strong
terrain
vert
Peut-être
Regardez
Sud
anni@@
device
exam@@
merci
several
sites
sum@@
totally
town
ut@@
vend@@
walking
wall
By
Pe@@
arm@@
capital
din@@
diri@@
distribu@@
ext@@
install@@
montr@@
occu@@
price
resources
risk
risque
stupi@@
technique
45
At@@
Ge@@
Tur@@
aître
chiffres
connaître
drive
ep
eusement
explain
groups
merveilleux
nan@@
period
reach
showing
siez
software
ton@@
étonn@@
$
Ho@@
Tr@@
add
bacteria
beyond
continuer
digital
existence
expl@@
itive
laun@@
moyenne
ough
ould
print@@
quelles
series
signific@@
sit
truth
unes
Or@@
Ou@@
Where
anglais
chemin
consum@@
dehors
develop
dér@@
exciting
gues
industri@@
interest
itaire
lead
masse
nant
norm@@
perdu
present@@
quence
utilisent
visi@@
Beaucoup
Sy@@
angle
ationale
centr@@
entions
ince
littéralement
named
nine
proper@@
quant
schools
similar
soir
surtout
sépar@@
aï@@
back@@
batter@@
celui-ci
création
date
dee@@
découvrir
effec@@
enfin
especially
extraordinaire
influence
intérêt
ion
law
nation
nd
plas@@
rely
reven@@
sensi@@
sert
solar
visage
196@@
Mus@@
abilité
access
basic
camera
coc@@
development
deviennent
endre
frag@@
mur
peine
police
trou@@
ute
À
émo@@
ama
arrêter
coeur
essing
former
fur@@
gle
neuro@@
organisation
quar@@
roc@@
souhai@@
tun@@
voix
wants
MIT
acks
box
brill@@
complexe
croire
défi
exemples
histor@@
ient
lies
lors
opér@@
photograp@@
pieces
riez
région
strat@@
suivante
terr@@
travaillent
0-@@
Web
aint
clim@@
desc@@
eco@@
gradu@@
grap@@
higher
increas@@
internet
kilomètres
less@@
materials
obviously
oned
paint@@
particularly
ring
rue
réussi
siè@@
solaire
starts
suppose
totalement
vécu
écoles
étape
études
Certains
Maybe
aging
airement
assur@@
circul@@
entendre
examples
fa@@
loi
pied
quality
revenir
symbo@@
tru@@
tôt
13
99
Afric@@
Bar@@
Bill
Chinese
aisse
connected
count
cultures
dam@@
efully
eye
fem@@
ort
pt
rester
stoc@@
temp@@
z-moi
étudier
150
First
amment
baby
dly
dur
evidence
extérieur
gam@@
intéressante
jam@@
journalis@@
larg@@
liste
lower
mener
objects
puiss@@
qués
recor@@
rich
savais
serious
sir
stimul@@
tw@@
African
Every
Hu@@
Which
aband@@
actu@@
brea@@
celles
cip@@
conver@@
dge
espér@@
excep@@
expériences
gy@@
insec@@
intellectu@@
kil@@
lav@@
morceau
not@@
pourrais
prati@@
rencontré
stri@@
sus
total
visual
17
Most
Plus
afric@@
appelée
beau
bridge
ever@@
ides
ized
notice
pauvreté
plantes
prop@@
reçu
secret
sell
tly
writing
électricité
N
TED@@
commun
cé@@
frapp@@
gas
humanité
incroyablement
isé
moyens
nucléaire
prépar@@
trouvent
Là
Ri@@
activité
bunch
ent-@@
exer@@
honn@@
logiques
measure
mise
noir
oph@@
réaliser
spread
stay
traitement
tural
èn@@
Bi@@
HIV
TV
Wal@@
Who
affaires
agne
causes
central
entre@@
expression
jus@@
ligh@@
lun@@
ome
pit@@
potential
probabil@@
record
rouge
répon@@
special
success
ten
wards
worl@@
ape
aque
ciel
dance
directement
ending
eventually
feu@@
games
gaz
inj@@
kee@@
longue
matériaux
meaning
onc@@
poverty
rê@@
sciences
sed
tat@@
tent@@
tional
télé@@
Anderson
Ju@@
assembl@@
asser
atten@@
aur@@
aurais
cen@@
devait
di
dipl@@
dix
ember
favorite
finir
ind
larger
lead@@
mit
peau
possibilité
proche
quels
rais
relations
rédu@@
sible
stor@@
sures
sym@@
sû@@
vit
Chaque
Like
Paul
above
aged
cartes
comb@@
conclu@@
diversité
fique
main@@
on-@@
please
poli@@
présentation
ries
screen
sentiment
skin
somehow
somewhere
tal
terror@@
vot@@
activ@@
agent
alli@@
ately
biolog@@
cot@@
démar@@
emment
everywhere
foot@@
forth
hypo@@
km
lé
matique
modern
mourir
physi@@
pouss@@
répondre
simples
sociétés
street
sun
thousand
tives
vention
yeah
NASA
atifs
bomb@@
contexte
cœur
dinosau@@
formation
hol@@
magazine
morts
mécan@@
office
particules
pping
pull
ready
rég@@
slide
tel@@
wea@@
35
Is@@
Sa@@
alive
appréci@@
bizarre
cach@@
cha@@
chef
contin@@
dites
effort
ennent
esc@@
experi@@
façons
fes@@
ff
financi@@
girls
gratu@@
hundred
intégr@@
investi@@
ord
performance
philosoph@@
sse
titude
5,000
Nord
Si@@
Times
aling
alisation
anti-@@
auteur
biggest
bres
buildings
certainement
class
diagno@@
envoyer
essentially
est-il
fall@@
follow
istance
models
nel
orb@@
ped
physics
plant
pp@@
prises
resp@@
ridi@@
structures
techn@@
tourner
élev@@
2000
Even
Quel
ambi@@
ass
avanc@@
boy
détermin@@
extraordinary
fic
fundamental
further
hit
intervie@@
libre
médic@@
perman@@
politiques
sorts
standing
student
suiv@@
traiter
uniquement
beings
bour@@
chan@@
commerci@@
court
expect
explor@@
innov@@
isation
ken
listen
net
ordre
oud
recherches
rich@@
send
win@@
Al
Euro@@
aches
atmosphère
bers
clair
except
extinc@@
flu
ignor@@
magnifique
mél@@
original
porté
se-@@
stic
sun@@
supposed
tait
North
X
ague
détru@@
ese
fit
general
infin@@
list
medi@@
parti
senti@@
sis
sky
utilisons
voler
El@@
Those
West
allais
aspect
bactéries
earth
emis@@
erai
eum
gies
heav@@
hô@@
ign
invention
journey
legs
pick
she@@
spr@@
Charles
Combien
adore
appropri@@
biology
em
expensive
ey@@
floor
kill@@
massive
mechan@@
milliard
onner
pig@@
race
response
struc@@
style
t&apos;
tionary
université
-je
Go@@
Ser@@
U.@@
arm
capit@@
confiance
courant
céré@@
deli@@
diversity
dès
développé
empê@@
fire
fronti@@
haute
largest
mainten@@
male
mid@@
premières
satis@@
spati@@
swe@@
tas@@
thes@@
touch
ulaire
usually
viend@@
Dis@@
Kenya
Mex@@
actuellement
ami@@
anim@@
biologie
coin
concevoir
cô@@
dessous
déplac@@
famous
grand-@@
grew
ka
meant
milli@@
ow@@
parten@@
permettre
person@@
sauver
sm@@
surprise
sérieux
trait
transformation
vivant
wife
wise
étudi@@
600
Ah
DH
On@@
Pendant
Second
arry
atmosphere
avère
budget
classe
concep@@
doute
eil
ests
forest
fus@@
ha
individus
ision
manu@@
molec@@
ney
nov@@
oeu@@
positi@@
protection
répondu
symp@@
tex@@
traditionn@@
umin@@
wait
Aujourd&apos;
N&apos;
Some@@
anyway
arrivent
beg@@
celle-ci
cogni@@
context
critical
essentiellement
excited
extremely
fortunately
hau@@
ident
invest@@
killed
lat@@
lé@@
pieds
pla@@
prennent
profess@@
rassembl@@
rési@@
stre@@
successful
surpris@@
New@@
Tous
accor@@
ado@@
allowed
camp
cents
eté
fran@@
gers
illustr@@
invented
note
organization
prison
revenu
sociale
tim@@
Ben@@
Wor@@
atte@@
chimpanz@@
communic@@
complicated
coût
essayons
essi@@
exion
hors
hur@@
indre
invisible
ital
là-@@
molé@@
médec@@
one-@@
patterns
payer
pousser
sang
smaller
sorti@@
souris
star@@
store
séri@@
them@@
toi
élec@@
BF
City
Lo@@
Quelle
activity
alized
distribution
dog
graph@@
individuals
itable
jeu@@
jour@@
kill
lock
mom@@
oblig@@
quée
reti@@
rot@@
serve
shar@@
sources
taught
tells
to-@@
watching
û@@
Lorsque
actual
ayant
ba
centi@@
comport@@
cover
dependent
essaie
genes
issez
lancer
lever
mobile
opportunité
permis
que@@
requi@@
réun@@
safe
secondes
sex@@
teachers
tomber
tuer
utile
verrez
zer@@
ène
00@@
After
Another
Min@@
Tro@@
With
améliorer
arti@@
aying
ba@@
commencent
conference
enci@@
enormous
fond@@
gagner
hi
océans
ograph@@
pai@@
reç@@
standard
techniques
visible
vivons
vois@@
wit@@
Quel@@
apo@@
arbre
au-dessus
audi@@
creative
dar@@
demi
dents
diam@@
dirige@@
engineering
enjo@@
exis@@
gal@@
habitude
himself
inventé
kilom@@
low@@
marketing
née
révolution
sein
sex
shot
smart
ug@@
upon
urban
vin
was@@
éma
étr@@
Americans
Are
Gal@@
Où
Ré@@
although
but@@
cue@@
electricity
eling
favor@@
fé@@
gard@@
hot
jet@@
médi@@
organismes
oxygène
teacher
three-@@
valu@@
éti@@
ôle
Bon@@
Francisco
Sp@@
aspects
astronom@@
atic@@
atteint
crazy
crime
dist@@
down@@
duction
flying
fonction
individu@@
ished
oth
pap@@
poissons
primer
provo@@
range
recogni@@
sli@@
sphère
sses
symé@@
venue
wer@@
yez
Nigeria
administr@@
amener
among
bloc@@
chron@@
circu@@
clients
collabor@@
conclusion
corruption
curr@@
fié
healthy
isol@@
land@@
lesquels
lien
mi
mir@@
muscle
neuf
obs@@
pend
ran
spon@@
symme@@
trib@@
tée
urb@@
-là
17@@
Big
S&apos;
Ste@@
bale@@
bing
blanc
coo@@
crisis
deter@@
educ@@
fas@@
gran@@
interface
luc@@
malaria
mettent
oppos@@
oundation
procé@@
quanti@@
regardé
respect
rest@@
slow
sounds
trouble
vide
écouter
Chicago
George
James
Man
aille
airs
argument
brû@@
character
concerne
droits
eless
envers
explorer
importantes
isent
lit
num@@
ols
online
organisms
origin@@
passent
ples
poisson
posed
remarqu@@
thro@@
valeurs
whe@@
Ger@@
Ital@@
Ok
Sur
acqu@@
acting
aiment
augment@@
ca
cases
commenc@@
conséqu@@
correspon@@
distinc@@
double
fallait
fantastic
feu
ging
graphi@@
graphique
hal@@
objectif
observer
obvious
older
oxygen
phones
potentiel
précé@@
recognize
réponses
square
tour@@
tran@@
venant
voice
win
Darwin
East
Hum@@
MS
atri@@
auparavant
beauté
dangerous
discipl@@
emerg@@
fabriquer
gotten
gé
hou@@
imaginez
income
indic@@
international
moteur
onique
ouvert
panne@@
poids
progrès
propor@@
prouv@@
responsabilité
riche
rise
simplic@@
sto@@
t-ils
therefore
verte
well-@@
érieure
AIDS
The@@
affi@@
after@@
bab@@
blement
chers
class@@
conduit
entrepren@@
eux-@@
faible
garder
hier
integr@@
liv@@
ll
naturel
nulle
nég@@
origine
ounc@@
photograph
positif
produced
products
pyram@@
see@@
strange
suddenly
sume
tiers
toire
volu@@
vér@@
walked
èmes
érence
étique
étrange
Bush
aliment@@
alités
alternative
amélior@@
aux@@
beauty
bom@@
bought
civ@@
core
de-@@
discours
forêt
fou@@
génial
immediately
instrument
ises
issant
minds
planets
planètes
poly@@
provi@@
retour
réf@@
ser
sing@@
stati@@
subst@@
tap@@
tests
trie
user
various
vendre
voient
voulaient
written
élè@@
allée
atr@@
bel
besoins
chal@@
compréhension
cultu@@
draw
evoir
fel@@
jobs
mile
nord
onnement
patho@@
perception
policy
profit
publique
reu@@
rock
role
scope
stand@@
survive
tax@@
thèse
tiles
van
vely
volume
voulu
wel@@
weren
éloign@@
Afghanistan
Lu@@
Pl@@
allés
appareil
asse
auto-@@
cab@@
choisir
communi@@
contenu
deven@@
direct
dream
dure
dépend@@
essaye
eth
gouvern@@
ird
issement
mam@@
pile
principe
religi@@
represent@@
revolution
réduire
shown
sommet
spectac@@
suivant
tot@@
tourne
vertes
vres
worse
évi@@
Des@@
RB
Très
ablement
affaire
allows
battre
carry
chent
chirur@@
clean
devi@@
embr@@
ere
eront
escope
exist
fossi@@
fré@@
greater
iller
issons
lancé
lignes
motiv@@
noire
particles
phot@@
pièces
politici@@
print
programm@@
récom@@
specific
spiritu@@
ust
verture
vul@@
étrang@@
Austral@@
Je@@
absor@@
agé
aving
aware
batt@@
bene@@
bois
chap@@
consom@@
durable
eful
entièrement
erg@@
families
formed
fuel
hot@@
hér@@
iers
increase
indeed
informatique
intéresse
lab
lease
liberté
mathématiques
numéro
played
power@@
preuve
prior@@
remarkable
scar@@
seconds
signal
stick
tail
truly
van@@
véhic@@
website
wed
wood
zing
écriv@@
évidemment
Hey
Hy@@
Paci@@
Q@@
accident
aining
ato@@
atures
bread
chien
chois@@
connaissez
cons@@
contrô@@
coup@@
cuisine
descend@@
designer
dil@@
excit@@
faster
kept
lor@@
mondi@@
monte
ners
oll@@
open@@
orches@@
plaît
pratique
rai
traditional
tél@@
Gen@@
Your
affec@@
aliser
ancy
anz@@
aqu@@
au-delà
avis
boute@@
cortex
danger
dence
discu@@
familles
flow
géné@@
ich
langue
liber@@
moi-même
myst@@
médias
médicaments
oid
permettent
progress
region
restaurant
results
star
television
transformer
tric@@
values
21@@
Sou@@
Steve
acking
américain
attendre
autonom@@
blan@@
closer
cold
current
diction
echno@@
hospital
institu@@
iture
ky@@
manipul@@
mathé@@
medical
mountain
oiseaux
paid
pair
ron@@
sociaux
sorti
sy@@
thern
télévision
via
windo@@
Haw@@
actuelle
alization
and-@@
angl@@
anta
bits
conçu
differ@@
discussion
earlier
ength
entrepreneurs
forte
gang
icon
including
intes
lanc@@
liqui@@
loo@@
mate
nutri@@
nécessaire
ound@@
privil@@
related
ri
sign
utilisation
weight
75
Personne
VIH
ady
archit@@
cens@@
commun@@
confron@@
corpor@@
décen@@
découverte
dés
ennu@@
evolved
facilement
familiar
instruments
lights
lut@@
moder@@
ough@@
ought
placer
plong@@
ramen@@
sauf
scri@@
spir@@
sujets
surg@@
susp@@
tiens
wonder@@
AR@@
Harvard
Public
Satur@@
Vir@@
abstr@@
accompl@@
agement
américains
atic
automo@@
ayons
celebr@@
chant
clairement
clearly
compag@@
complexité
connaissent
derniers
disappe@@
dynam@@
efficace
ent-ils
entir
entière
finding
func@@
hydro@@
immédiatement
matéri@@
membres
occasion
ographic
oms
réc@@
sculp@@
tements
tool
travel
ètre
10,000
195@@
Gol@@
Mu@@
Two
ahead
aking
anywhere
appeler
ares
asi@@
connect
consi@@
créativité
following
grosse
isse
laissé
lay@@
me-@@
milit@@
moderne
métap@@
naturelle
onnes
ons-@@
ounded
ox@@
pollution
propos@@
prêt
sam@@
ssi@@
tile
ural
véritable
ération
Américains
Good
Indi@@
Iraq
Pakistan
Toutes
Wi@@
balance
band
biological
connaissons
consommat@@
costs
dered
donnent
emer@@
environn@@
farmers
grandi
grippe
génétique
ills
medicine
of@@
private
professionn@@
puissent
put@@
rob@@
security
souven@@
sumer
summer
thetic
vibr@@
waiting
wever
Aus@@
Michael
Microsoft
Res@@
artistes
below
blog
compagnie
controll@@
dens@@
drugs
démo@@
faux
fourn@@
iles
instance
lions
manque
marine
nur@@
onné
pel@@
puissant
réseaux
technologi@@
tempor@@
température
tin
trag@@
treat
treatment
understood
15@@
Em@@
Inter@@
Mr.
SIDA
accél@@
ador@@
aimer@@
al-@@
aver@@
citiz@@
complete
couleurs
decision
destro@@
départ
ening
explore
figur@@
forma@@
greatest
humanity
issait
ki
labor@@
lois
long@@
mix@@
moon
musici@@
plaisir
pressure
professeur
présenter
rece@@
revenus
secteur
teaching
tech
veill@@
zero
&apos;@@
0
Islam
Pal@@
accumul@@
aker
appel
campagne
capitalis@@
citoy@@
confi@@
deb@@
destin@@
devais
ented
eters
faisaient
grade
gram@@
ham@@
hyper@@
importants
infec@@
interaction
lu
majorité
origami
possibly
protéger
puzz@@
règle
shor@@
sité
tien
useful
Am@@
Ap@@
Bl@@
Great
Imaginez
London
Pri@@
achieve
alth
arly
ationn@@
bile
chambre
coûte
difficul@@
discover
décision
détails
entraî@@
gouvernements
hasard
heat
horiz@@
ith
joue
kers
long-@@
marchés
meeting
metap@@
near
nies
personnel
pouvions
riches
rights
réchauff@@
sand@@
significant
sold
soldi@@
somme
sophis@@
sphere
tively
trouver@@
Ke@@
Union
abe@@
anced
arriver@@
ased
becoming
believ@@
bilité
critique
dos
effets
envie
exploration
expériment@@
fiques
foie
han@@
jum@@
lan@@
limites
particuli@@
provide
quick
rière
rule
sim@@
statis@@
sustainable
thy
twice
vehic@@
verre
wide
équip@@
éth@@
Bible
California
Celu@@
France
Roc@@
University
Y
anymore
appelons
auraient
concentrer
connais
contra@@
côte
decade
empath@@
environmental
extra
faisais
hole
logiciel
military
parlait
passait
pensait
perd@@
phys@@
savait
small@@
sons
spl@@
suivi
te-@@
transpar@@
va@@
vit@@
wonder
érences
KB
Ki@@
Los
Ni@@
Obama
SW
Wikipedia
aissent
aw
beli@@
café
carto@@
chil@@
choose
craf@@
creativity
divis@@
déb@@
faces
fourmis
frustr@@
ful@@
gol@@
isant
lec@@
liter@@
match
mér@@
notes
other@@
phénomène
protect
ques@@
ral@@
rythme
scre@@
situations
tourné
tremendous
two-@@
venait
venus
wee@@
yons
éviter
Again
Cet
V
amus@@
authenti@@
aviez
bar
chair
chaîne
competition
conç@@
directly
driving
décisions
dée
ere@@
etting
fonc@@
jambes
lau@@
legal
logues
matériel
molécules
navig@@
offici@@
parlons
principal
prochaines
produisent
queue
sculpture
seraient
temperature
ve-@@
ède
1,000
32
3D
Cl@@
Ko@@
Swe@@
War
ajouter
blogs
bébé
calcul
cellule
chromo@@
coffee
connection
decide
dessin@@
destruction
doigts
facil@@
fantastique
finger
gent
hôpital
import@@
laisse
levels
math
perdre
ree
sentir
suffisamment
swit@@
tension
traits
vac@@
vaisse@@
électrique
ôme
21
Chil@@
M.
bouger
chinois
college
concepts
consommation
doubl@@
drop
ech
erres
eue
fici@@
hood
journal
les@@
nations
onic
opinion
outil
pauvre
post-@@
prenant
quan@@
rant
reach@@
révél@@
san@@
soins
studies
tered
terres@@
tivity
tivité
track
vered
Cal@@
Californie
Rome
Twitter
Uni@@
alimentaire
atory
bie
biom@@
bord
cheap
complexity
decisions
différences
dimension
dir
déplacer
eating
ec
efficient
essence
exposition
fal@@
fam@@
figured
genetic
gig@@
glass
grad@@
horrible
invol@@
lic
lob@@
mark@@
meters
montagne
none
obtenez
ose
plans
regard@@
responsibility
ressent@@
récup@@
six@@
skills
soul@@
t-elle
tab@@
toucher
trade
training
transport@@
trom@@
worst
Est
Tit@@
angu@@
articles
ast@@
atti@@
bird
bleu
cident
consid@@
cultural
degrees
devenue
devraient
diseases
duced
définition
fairly
fe
fear
flot@@
his@@
ières
life@@
mas
mille
minu@@
médecine
olog@@
ouge
paradig@@
parlent
passant
personnage
possibilités
pounds
purpose
quote
rencontr@@
station
techno@@
throughout
tradition
trou
ège
ût
Bri@@
Brit@@
Isra@@
Moore
Pres@@
Sec@@
Thomas
acked
acte
aig@@
chaus@@
communities
crati@@
dans@@
efforts
enced
ern@@
fits
function
funny
galaxy
inspiration
lieux
markets
mené
naturel@@
oeil
parfait
popular
potenti@@
rions
shel@@
straight
sud
trouvez
ules
vote
vê@@
wan@@
élevé
1.@@
Ab@@
Angeles
Dar@@
From
Japan
ON@@
Roy@@
basis
bodies
brains
challenges
cide
commen@@
compét@@
condition
cut@@
doctor
drait
enture
feed
fight
galaxie
gras
ived
lin
maî@@
med
mettez
mondial
passage
phrase
profond
programs
recomm@@
religious
rie
résol@@
rêve
studio
wal@@
évolué
27
Canada
Deux
Pour@@
U
Valley
acheté
agree
ancient
artists
author@@
cise
collective
discus@@
dési@@
esh
expos@@
foc@@
ganda
indépend@@
ingénieurs
itted
ière
laboratoire
libr@@
meth@@
necessarily
nour@@
pass
pein@@
prepar@@
quelques-@@
regard
remar@@
roul@@
réci@@
scop@@
sorry
subject
supply
surr@@
tiennent
truc@@
ush
whose
wis@@
èse
évén@@
16@@
Encore
F
Very
W
accro@@
achet@@
auc@@
bateau
capacity
capacités
conten@@
disaient
document@@
doigt
dynamique
décr@@
démocratie
easily
evol@@
ght
gâ@@
lation
laws
low-@@
mani@@
merveilleuse
messages
mesurer
montrent
mostly
niveaux
orig@@
principes
péri@@
regardons
satellite
seu@@
speaking
syst@@
timate
tiv@@
traj@@
tube
urr@@
Do@@
Indian
Oc@@
Wom@@
agre@@
amp
aries
brilli@@
buc@@
chances
collap@@
consider
democracy
décl@@
eer
efficac@@
enz@@
erais
exponenti@@
golf
humaines
héros
magas@@
naissance
nent
okay
ouldn
pollen
pressed
profond@@
profondément
programmes
rempl@@
rencontrer
rier
search
sev@@
some@@
stone
sue
tionnaire
travaillons
zz@@
étudiant
Bra@@
Christ@@
Imagine
Nat@@
Oxford
achiev@@
algorith@@
alle@@
analo@@
antibio@@
apart
bag@@
canc@@
chacune
communautés
compon@@
contempor@@
corner
coté
créatures
cy
degree
demonstr@@
disponi@@
ek
emic
entrée
est-à-dire
eux-mêmes
evolu@@
fashion
industrial
journ@@
leader
leg@@
li
lou@@
lue
ond
peace
plane
populations
pouviez
practice
pun@@
remarquable
rig@@
scr@@
slightly
tué
uments
ures
vieill@@
émotions
AB
II
Japon
Londres
Ouais
Street
Votre
américaine
avance
avancer
bibliothè@@
bin@@
bâtiments
cier
commerce
connect@@
crow@@
cruci@@
definition
dirait
entu@@
erreur
espaces
fav@@
fonctionner
glamour
grain
has@@
jau@@
lication
magic
magni@@
mation
ource
ouvrir
paix
phase
pouvons-nous
professi@@
push
quartier
rare
remarqué
replic@@
rivi@@
robo@@
sat
servir
ski@@
sn@@
soud@@
throw
toil@@
véri@@
énormes
étaire
étend@@
évident
2,000
Asie
Bas@@
C.
French
Gh@@
Iran
accoun@@
agnes
animation
answers
apes
birds
bly
civi@@
cle@@
célèbre
danse
dau@@
effective
email
ense
ep@@
eties
event
exhi@@
expected
fabrication
finished
fix
fle@@
gagné
géni@@
igne
in-@@
ints
itablement
là-dessus
meilleures
membre
molecules
newsp@@
nez
numérique
politics
portables
prac@@
pén@@
raise
rejo@@
roman@@
rup@@
régions
self
surfaces
tels
trice
vel@@
workers
zen
zéro
ètes
Actually
Apple
Dan
Del@@
Grand
Jus@@
Juste
Laissez-moi
Sch@@
Sun
Tou@@
adultes
appreci@@
apprentissage
appu@@
aurons
caméra
conséquences
dirais
dy@@
ecter
effects
eral
eur@@
formidable
forming
franch@@
ged
hydrogène
immense
institution
iting
las@@
objec@@
occuper
occur@@
ome@@
piano
poss@@
program@@
rationn@@
section
seemed
seuls
sick
sugges@@
sum
tombe
télé
ulation
ush@@
worry
élément
Everybody
Hollywood
John@@
Pi@@
Quelqu&apos;
Sim@@
ac
alities
amené
amp@@
amusant
bil@@
boulot
bringing
calls
cherche
choices
commenç@@
creates
devenus
devriez
dying
désormais
eck@@
ela
emotional
engineers
esthé@@
forget
froid
hair
ined
innovations
je@@
landscape
len@@
littér@@
mea@@
moindre
mortalité
mètre
nommé
onal@@
park
principle
prochain
quences
regardant
saf@@
scen@@
shall
sif
simulation
tableau
thr@@
turning
tâche
étiez
-year-old
Asia
Avant
Du@@
Institute
Nature
Robert
acier
agricul@@
allaient
amb@@
appelait
artist
bure@@
clé
complexes
creatures
enregistr@@
epidem@@
er-@@
ero
experiments
fact@@
governments
individu
instruc@@
interprét@@
ior
istry
limit@@
lowed
maisons
mathematics
maxim@@
mel@@
minim@@
morale
mun@@
neutr@@
ow
possibility
présente
psy@@
rappelle
read@@
reas@@
refu@@
sely
supplément@@
transition
trial
uck
usage
émissions
19
Center
Dr.
Juli@@
King
Many
Think
airplane
any@@
aper@@
ativement
attemp@@
background
billions
caract@@
centage
client
contraire
courir
dad
dest
débat
elle-même
envoyé
erons
est-@@
ference
freedom
fusion
gin@@
grandis@@
heads
hydrogen
icul@@
igno@@
illusion
ièmement
lif@@
mor
neighb@@
obten@@
ologie
opened
physici@@
pâ@@
quées
sauce
scientist
tours
ury
visite
wave
èle
épidémie
Cert@@
Pren@@
Science
Son
alize
altitude
ander
augmentation
augmente
beaux
bia
biologique
birth
break@@
broad@@
cal
conduc@@
conflict
courbe
crimin@@
describe
devoir
dizaines
déch@@
figh@@
financ@@
fres@@
grim@@
hell
ima@@
inspired
intéressé
listening
moves
natur@@
networks
noticed
ois@@
ology
oxy@@
parfaitement
pont
possède
présence
président
restaur@@
réuni@@
spirit
tele@@
till@@
tol@@
v
venti@@
west
-up
Audience
Depuis
Marti@@
Take
asses
aster
astr@@
augmenter
camp@@
connections
consiste
correspond
descendre
domes@@
ecting
elements
emplo@@
eras
escal@@
extraordin@@
fasse
fice
holding
lent@@
loved
mean@@
micro-@@
morceaux
nous-@@
passionn@@
portée
process@@
proté@@
sionn@@
stopped
téléphones
vidéos
As@@
Cu@@
Instead
Mad@@
Num@@
Por@@
YouTube
abo@@
address
amen@@
ancien
aug@@
berg
ble@@
chaud
choisi
collègues
déclar@@
déjeu@@
easier
engine@@
erez
highly
ila
imag@@
ingénierie
interes@@
ki@@
mique
mirac@@
mobil@@
musée
mène
neighborhood
nés
oce@@
phere
pons
possé@@
princip@@
probable
puts
reduce
réaction
survivre
talks
transport
tune
univer@@
versus
villages
vr@@
warming
willing
yesterday
2005
47
Alex@@
Angleterre
BC
Bay
Char@@
Rem@@
alim@@
amène
ank@@
atrice
attack
attribu@@
chemical
communicate
concerned
creation
dimensional
directions
douleur
drama@@
effici@@
eled
ferme
fonds
génome
inno@@
intitu@@
itely
itement
ja@@
jump
lets
load
measu@@
memory
motivation
mur@@
opération
plastic
possibles
productive
quotidi@@
relev@@
revient
régi@@
sleep
soi
spectacle
stop@@
tac@@
teau
trad@@
traff@@
trem@@
tum@@
île
Gore
His
Hom@@
Howard
Middle
Pan@@
Parfois
Pu@@
Tal@@
Today
Western
Willi@@
agré@@
ancer
angible
arrivés
atively
beat
bien-@@
cad@@
cellent
charbon
compare
dangereux
daughter
div@@
débu@@
effon@@
electric
erve
fiction
focused
forment
globe
hallucin@@
heure@@
impressionn@@
isons
istic
knowing
laser
mons
mul@@
mémoire
méthode
nets
observation
obstac@@
oureux
peuple
pleine
prototype
précis
push@@
recycl@@
regi@@
religions
roy@@
réfl@@
sable
second@@
sel
semblent
septembre
soign@@
sty@@
tera
timately
ution
vaut
vice
vol
wild
émotionn@@
Engl@@
Ethiop@@
Har@@
K.
Lin@@
SA
Sal@@
Sil@@
Wow
adver@@
aps
assum@@
ayez
bone
boîte
ciper
civilization
clip
commençons
consciousness
couche
eding
engine
fera
im
intense
interact
introdu@@
istre
nar@@
neg@@
neurones
non@@
oir
opportunities
paras@@
pin@@
preuves
rels
rues
sand
scol@@
stic@@
subj@@
sé
task
tat
trop@@
usual
vous-@@
waste
échou@@
étés
Anyway
Did
Go
Irak
Premi@@
Stu@@
Wil@@
abl@@
accidents
apporter
arrivée
bande
bble
bes@@
boat
catastrop@@
changent
chés
clic@@
collaboration
contrôler
coral
crick@@
custom@@
dol@@
décider
décrire
edge
explan@@
explosion
flexi@@
garde
harmon@@
health@@
helping
incroyables
isés
iter@@
mach@@
mauvaises
mouvements
mée
mément
narr@@
nourr@@
occident@@
presse
profonde
rencontre
réser@@
seriously
sle@@
spending
states
sub-@@
tes-vous
traite
unch
venez
vering
vis
visit
énor@@
œil
250
Ama@@
British
Cependant
Congr@@
Homme
Rien
acter@@
aie
amor@@
appl@@
bactéri@@
behavi@@
bill@@
catch
check
compliqué
convaincre
davantage
driven
dynamic
enthousias@@
eries
experts
fortable
fournir
fur
itor
itting
kets
law@@
liens
lucky
meat
mouse
mâ@@
obser@@
organic
penses
perc@@
philanthro@@
pic
pierre
populaire
presents
puisque
raid
rappel@@
remer@@
retourner
reux
rire
rough@@
separ@@
shoc@@
singes
soldats
souviens
stem
studying
text
tradi@@
verts
viande
walls
ym@@
énerg@@
équilibre
étudié
Atlan@@
Boston
DP
Im@@
Univers@@
absolu@@
acceler@@
agers
agon@@
aim
aisons
angiogen@@
auquel
benefit
bet
bouche
boys
caractéristiques
caught
champ@@
deman@@
ear
environ@@
ert@@
escl@@
expert
financial
flux
fron@@
fru@@
gar
helped
hore
idi@@
intelligents
lands
leads
manufactu@@
murs
necess@@
nee@@
options
paraly@@
plo@@
prend@@
principles
rain@@
stable
statistiques
sters
stuck
tier
vouloir
wers
year-old
échantill@@
ément
établ@@
.com
2,@@
26
65
Dev@@
Everything
Jer@@
Mag@@
Mes
Nations
Rwanda
Soleil
adol@@
affir@@
agos
aill@@
ait-il
alisé
anthro@@
appareils
ario
armée
block
campaig@@
cass@@
champ
chauff@@
cident@@
clas@@
colleagues
color@@
considér@@
consul@@
contient
dessin
divi@@
drug
dum@@
entôt
experim@@
fab@@
fying
garçon
ious
isément
itch@@
jun@@
langu@@
letter
lève
motion
movies
mén@@
netto@@
oniques
opportun@@
organisations
organizations
perfectly
planning
pourra
principalement
published
radiation
rel
responsible
ressemblent
répar@@
scann@@
separate
signifi@@
spectr@@
sph@@
surveill@@
taient
tir
typical
vrai@@
vrais
yellow
équivalent
Fi@@
Gro@@
Japanese
My@@
Ob@@
Pens@@
Pouv@@
Thanks
asse@@
atoire
believed
bâ@@
card
carré
créent
deau
differences
disponible
doub@@
ective
equivalent
eraient
erreurs
estation
fallu
flit
frère
genome
gentlem@@
graphie
hus@@
illu@@
jug@@
lym@@
manières
obtenu
oning
ops
orange
party
paysage
ping@@
principale
pêche
quette
relationships
rentr@@
responsable
rying
slowly
stitu@@
stratégie
sus@@
trilli@@
trust
volon@@
zes
élection
éte@@
éto@@
Her@@
Hé
Phili@@
Sometimes
Stanford
accessible
anding
application
artiste
bility
cadre
civilisation
climat
comprend
compétition
connecter
cross@@
degrés
demandez
demi-@@
dente
design@@
designing
diab@@
discovery
domaines
ecteurs
failed
fields
filled
fram@@
fum@@
gene
habitat
imprim@@
informa@@
invest
ième
lang@@
logo
manif@@
missing
neur@@
occas@@
ouges
phenomenon
plea@@
prote@@
rappeler
reconn@@
retourn@@
river
rol@@
shapes
sionate
sombre
stream
thinks
tible
titre
tradu@@
treated
util@@
volonté
vé@@
âtre
ël
ames
apos@@
enreg@@
espr@@
exte
fantas@@
ingéni@@
major@@
merveill@@
mess@@
ore
protég@@
suffis@@
allo@@
erre
horri@@
nouv@@
pouv@@
sudd@@
Ag@@
altern@@
contro@@
famili@@
fant@@
orm@@
çon
Any@@
Sol@@
convers@@
disco@@
duce
govern@@
grou@@
ènes
aî@@
chau@@
gène
peti@@
pois@@
rapid@@
simpl@@
st-@@
°
artis@@
cuis@@
diffici@@
extrê@@
fore
ily
nat@@
sia
atur@@
call@@
ens@@
f-@@
faç@@
glo@@
insp@@
mater@@
mesur@@
onom@@
pot@@
prototy@@
demment
emble
partic@@
possibil@@
recher@@
usement
atu@@
chiff@@
cid@@
effic@@
fais@@
nav@@
probl@@
tem@@
tern@@
till
écri@@
érieur
ids
iness
ization
lier
mathematic@@
pond
respons@@
ya
youn@@
électri@@
We@@
agno@@
arily
envoy@@
free@@
intelli@@
maj@@
publ@@
pê@@
Can@@
antage
ause
boug@@
ee
ense@@
extra@@
figu@@
gou@@
intér@@
resear@@
tern
thè@@
tric
ven
veu@@
celui-@@
métho@@
peri@@
respon@@
veaux
velop@@
wil@@
çu
éner@@
&@@
ectu@@
incre@@
indus@@
prét@@
eck
endu
eux@@
nuclé@@
popul@@
profon@@
situ@@
Intern@@
asp@@
challeng@@
compas@@
elec@@
gene@@
magi@@
ships
strai@@
vél@@
Mer@@
aises
anger@@
big@@
ene@@
eting
righ@@
secre@@
sieurs
travail@@
Ever@@
develop@@
elling
every@@
pati@@
respond
sour@@
stiques
..
Ken@@
atre
avantage
bir@@
lè@@
mount@@
nomb@@
phénom@@
proch@@
vide@@
cape
dle
famil@@
kno@@
oto
pret@@
stes
straté@@
titu@@
xim@@
May@@
Rob@@
Val@@
aissez-moi
civil@@
dévelop@@
enir
hosp@@
infr@@
mathem@@
orie
plic@@
tâ@@
vern@@
Cel@@
aly@@
artic@@
cess@@
cit@@
destruc@@
démi@@
natu@@
ny
ope
oty@@
prés@@
realiz@@
solu@@
tivement
tom
Av@@
aut
bli@@
boo@@
cau@@
gent@@
philos@@
pollu@@
q@@
souv@@
ôt
Chr@@
Pau@@
i-même
intellig@@
ither
médicam@@
ographi@@
préci@@
sat@@
équi@@
…
béb@@
décid@@
gel@@
inning
mement
mortal@@
ount@@
q
sion@@
succ@@
til
anks
buil@@
condi@@
convain@@
démie
ems
perf@@
phenomen@@
sts
sustain@@
chin@@
competi@@
danger@@
new@@
pos
thin@@
immen@@
inspi@@
ivent
performan@@
pon
ument@@
“
Tu@@
are@@
happ@@
pays@@
tici@@
érique
S.
Yor@@
collè@@
croiss@@
cu
gen
great@@
hist@@
percep@@
reci@@
ry@@
éb@@
bacter@@
bloo@@
camér@@
cul
demo@@
ine@@
net@@
ollywood
ress
tats
épi@@
éro
Ear@@
Franc@@
Nig@@
bud@@
ext
fundament@@
illed
oug@@
à-@@
aliz@@
celle-@@
matiques
ode
pétro@@
Every@@
Institu@@
aria
caf@@
ew
illing
magaz@@
obs
year-@@
”
Sci@@
Z
co
cules
cus@@
exper@@
impres@@
ors@@
quot@@
writ@@
Améric@@
Chin@@
Regard@@
bizar@@
dings
hai@@
logici@@
op
opti@@
stom@@
élo@@
ar-@@
différ@@
dus
sci@@
smar@@
sust@@
tér@@
ï
Pre@@
amoun@@
endant
fabric@@
farm@@
tice
ètres
auth@@
coul@@
delà
déci@@
océ@@
opin@@
pend@@
quarti@@
êt
Wiki@@
add@@
anning
argu@@
cris@@
eas@@
Ê@@
ID@@
Imag@@
ada
anima@@
compéti@@
constr@@
eure
isions
perspec@@
prin@@
prési@@
sep@@
HI@@
colo@@
enth@@
reuses
étu@@
acro@@
aisir
eures
got@@
haps
heal@@
hen@@
infrastruc@@
medic@@
vrir
éni@@
œ@@
aissance
caractéris@@
chaî@@
conom@@
temper@@
what@@
Tw@@
colle@@
conflic@@
désor@@
ech@@
listen@@
mê@@
pedia
soft
tes-@@
évol@@
Ye@@
ches@@
immédi@@
ric@@
sof@@
tempér@@
with@@
Niger@@
Peu@@
compan@@
décri@@
embl@@
lear@@
may@@
poll@@
premi@@
sement
bibli@@
dimen@@
immedi@@
ld
moy@@
particu@@
secon@@
sias@@
urity
wn@@
Goo@@
Isl@@
auté
dren
hall@@
ieu
instr@@
miss@@
nec@@
neighbor@@
rè@@
underst@@
wai@@
éros
accessi@@
bec@@
convainc@@
dan@@
deed
deux@@
ington
inté@@
ival@@
phy@@
thme
œur
Afgh@@
Eu@@
Mid@@
Pak@@
anda
catastr@@
coff@@
célè@@
gir@@
inez
missions
teach@@
web@@
NA@@
Unis
atmosph@@
au-@@
beauti@@
bet@@
complet@@
compréhen@@
ghter
lands@@
nia
quo@@
servi@@
ême
Ja@@
Q
boî@@
enly
fig@@
gau@@
ood
éris@@
Dav@@
Lors@@
améli@@
bâti@@
ograp@@
règ@@
treat@@
—
alg@@
angio@@
ativity
communaut@@
corru@@
ducation
imes
inging
lowing
midd@@
mouv@@
récu@@
success@@
suppl@@
there@@
)
Angl@@
Ira@@
You@@
acter
ativité
clear@@
enorm@@
envir@@
estern
itié
ousness
vill@@
volution
ément@@
ö@@
atis@@
billi@@
chir@@
démocrati@@
ergy
fric@@
heu@@
loir
résul@@
scho@@
ston
uch
ularly
épo@@
ü@@
Fro@@
Pers@@
Stan@@
dats
elle-@@
elop@@
epi@@
issu@@
lik@@
polic@@
run@@
seem@@
trois@@
équili@@
améric@@
auv@@
bén@@
curité
del
ectr@@
fashi@@
icity
know@@
nuc@@
pian@@
voul@@
âce
ètement
Actu@@
avail@@
commer@@
hap@@
tils
voudr@@
wall@@
Joh@@
cord
icité
intell@@
istr@@
knowle@@
lem
py@@
recy@@
stly
techni@@
NA
aisse@@
angi@@
effor@@
entiss@@
ers@@
factu@@
ford
ials
istan
nou@@
orge
responsi@@
reté
spé@@
studi@@
table@@
tau@@
transi@@
ument
voitu@@
zaines
Rich@@
com
complex@@
evid@@
futu@@
ppe
thiop@@
warm@@
cert@@
decid@@
espo@@
fortu@@
nucle@@
thi@@
#
IT
algori@@
cellu@@
eve
tely
umul@@
Stat@@
agues
atement
beau@@
capac@@
culp@@
ell-@@
formid@@
isten
lem@@
nately
phil@@
prob@@
quick@@
seri@@
through@@
won@@
‘
ease
entually
expéri@@
remark@@
èce
™
+
Americ@@
cracy
heur
ministr@@
suj@@
tish
tribu@@
yel@@
á@@
=
Austr@@
behav@@
cog@@
ebr@@
fair@@
hic@@
obj@@
resul@@
tionne
tremend@@
ween
Est-@@
Micro@@
Stre@@
TE@@
VI@@
ceau
dru@@
gest
mosph@@
onc
pattern@@
tembre
¨
²
ceaux
cidents
esn
ester@@
esterday
gether
hundre@@
lors@@
perfor@@
résou@@
sear@@
vive
Â@@
*
AD@@
eils
enom@@
grow@@
hav@@
iev@@
lightly
othè@@
sever@@
(
Afri@@
Angel@@
Beau@@
O2
dament@@
isco
musi@@
notic@@
proces@@
r.
tech@@
Ox@@
enge
exi@@
hind
mémo@@
olly@@
rase
sente
è
ë
♪
Ce@@
certain@@
derni@@
derson
egr@@
empor@@
histo@@
huma@@
iè@@
mente
probab@@
ques-@@
scienti@@
½
ã@@
èces
ñ@@
ù
Rw@@
Twit@@
ainst
biz@@
déj@@
expen@@
extrem@@
pical
pie@@
wom@@
Î@@
Harv@@
IDS
diseas@@
exemp@@
mau@@
nul@@
préhen@@
stac@@
thous@@
vidé@@
à@@
chrom@@
craz@@
eces
etc@@
fiel@@
possi@@
pover@@
selves
ustr@@
ä@@
éric@@
ë@@
û
@
Califor@@
doll@@
irst
scientifi@@
telev@@
tiz@@
usu@@
£
º
ó
Amer@@
Fren@@
^
astruc@@
complic@@
divers@@
eci@@
halluc@@
impanz@@
intel@@
osau@@
ources
phén@@
pital
slow@@
sop@@
tats-@@
æ@@
ô
ȇ@@
Af@@
Thom@@
cipl@@
comple@@
dn
modè@@
rése@@
sional
tex
tware
veau
®
Ç@@
í@@
Afghan@@
Ain@@
Einste@@
Lond@@
Publi@@
_
bey@@
celer@@
dience
enthou@@
hig@@
imself
maladi@@
pres
relation@@
tidi@@
your@@

á
ó@@
ú
€
Japan@@
ativ@@
deg@@
elop
expon@@
happen@@
inste@@
onstr@@
paig@@
paravant
poni@@
signi@@
tats-Unis
timat@@
¥
©
¾
É
ù@@
Ė@@
Œ@@
�
&#@@
Anglet@@
Lon@@
YouTu@@
ashington
chac@@
degre@@
dément
ectly
endro@@
entissage
faitement
galax@@
icro@@
jourd&apos;
meill@@
obvi@@
otre
paradi@@
pauv@@
pouvi@@
preu@@
princi@@
stead
tunities
º@@
È@@
Ì@@
Ô
â
échan@@
ò@@
ú@@
ā@@
ć
ň@@
š@@
˚
ị@@
