, 121573
. 102332
the 78514
to 47702
of 45861
a 42859
and 38723
that 34846
I 33266
in 29885
is 27268
you 26388
it 25559
&apos;s 23057
we 20576
And 19675
this 16780
&quot; 14306
-- 13487
was 11712
on 11679
are 10774
have 10746
for 10517
they 10116
with 9193
? 9182
can 9023
&apos;t 8895
what 8845
about 8619
So 8562
be 8230
at 8165
as 7699
all 7571
an 7309
there 7281
do 7243
not 6876
one 6742
&apos;re 6544
It 6541
ing 6426
ed 6223
like 6211
or 6064
so 6022
people 6014
: 5930
from 5850
my 5524
know 5381
very 5331
just 5286
but 5150
out 5110
The 5059
We 4977
But 4965
going 4940
up 4878
if 4851
these 4812
me 4475
them 4452
by 4394
re@@ 4386
our 4354
think 4314
which 4282
because 4216
see 4138
he 4096
had 4076
get 4046
really 3934
when 3924
here 3886
more 3826
This 3820
&apos;ve 3811
would 3755
us 3709
You 3705
your 3653
&apos;m 3652
how 3646
who 3630
time 3560
then 3525
world 3499
were 3497
-@@ 3465
things 3398
way 3367
has 3341
al 3304
their 3299
don 3281
y 3264
actually 3242
some 3221
in@@ 3158
go 3154
into 3138
s@@ 3101
years 3092
now 3053
will 3038
where 2979
want 2891
e@@ 2844
♫ 2832
other 2818
S@@ 2817
es 2773
said 2722
thing 2712
make 2697
could 2671
They 2670
been 2660
d@@ 2632
Now 2606
s 2593
right 2575
ate 2546
t 2532
got 2526
something 2473
p@@ 2452
little 2444
un@@ 2443
b@@ 2366
much 2346
ation 2311
That 2310
f@@ 2306
say 2288
kind 2266
two 2228
g@@ 2219
; 2216
no 2213
than 2208
first 2205
back 2203
t@@ 2192
look 2162
ers 2151
h@@ 2133
those 2132
er 2087
work 2070
over 2058
able 2001
also 1999
life 1996
What 1993
lot 1939
only 1938
w@@ 1937
l@@ 1936
k@@ 1912
o@@ 1903
r@@ 1885
There 1884
&apos;ll 1872
his 1867
down 1831
she 1830
take 1827
most 1814
did 1812
C@@ 1766
around 1761
many 1757
need 1739
come 1737
good 1735
c@@ 1710
In 1708
put 1707
B@@ 1685
el@@ 1681
new 1651
y@@ 1637
en@@ 1626
m 1622
even 1622
different 1610
doing 1608
o 1597
er@@ 1588
Well 1572
D@@ 1557
being 1555
ad@@ 1553
a@@ 1548
ally 1541
H@@ 1531
through 1527
same 1522
M@@ 1518
If 1517
k 1500
ity 1494
n@@ 1492
T@@ 1489
day 1488
P@@ 1479
an@@ 1472
her 1471
ts 1470
or@@ 1466
He 1466
every 1463
L@@ 1456
as@@ 1450
ar@@ 1444
its 1443
use 1440
th@@ 1435
de@@ 1433
ly 1431
sh@@ 1421
ated 1421
A@@ 1411
en 1395
called 1393
any 1391
&apos;d 1374
p 1373
co@@ 1367
i@@ 1366
made 1363
st@@ 1363
E@@ 1362
u@@ 1351
F@@ 1347
tr@@ 1345
three 1343
di@@ 1335
ted 1313
d 1285
ting 1285
ti@@ 1279
ks 1265
well 1265
ds 1260
e 1256
ex@@ 1255
year 1252
et@@ 1236
R@@ 1235
age 1232
m@@ 1230
talk 1224
why 1221
dis@@ 1221
es@@ 1216
al@@ 1213
ch@@ 1209
percent 1197
idea 1192
great 1188
human 1186
v@@ 1185
G@@ 1184
change 1176
n 1173
it@@ 1170
fact 1168
at@@ 1159
A 1155
est 1154
last 1149
went 1142
on@@ 1137
big 1135
tell 1134
ac@@ 1129
didn 1128
li@@ 1125
thought 1123
N@@ 1118
another 1118
find 1112
sort 1112
started 1100
is@@ 1100
bit 1099
red 1098
off 1096
place 1093
show 1091
am 1089
se@@ 1086
try 1083
course 1082
pre@@ 1079
give 1078
ol@@ 1069
ic@@ 1069
ating 1059
end 1055
ever 1054
ary 1050
ous 1049
should 1046
important 1045
own 1044
ri@@ 1043
today 1035
let 1035
mean 1025
after 1020
ago 1013
po@@ 1012
water 1011
h 1005
K@@ 1004
&apos; 1000
W@@ 997
em@@ 995
start 993
before 989
i 984
part 983
system 977
problem 976
ations 974
better 968
does 967
came 966
never 963
him 959
th 956
! 955
lo@@ 952
again 951
ro@@ 951
used 950
whole 949
le@@ 943
g 943
tion 942
next 941
be@@ 936
story 934
O@@ 933
technology 927
ic 926
looking 924
le 922
am@@ 920
point 918
et 915
Because 912
might 906
still 906
long 903
ul@@ 898
ar 898
ors 893
done 890
together 889
few 883
J@@ 876
too 876
old 869
car@@ 866
se 862
each 862
million 858
res@@ 857
ag@@ 857
man 855
gr@@ 853
love 852
ans 850
ab@@ 850
between 848
When 847
doesn 841
op@@ 839
per@@ 838
c 838
ine 838
im@@ 835
ent 835
question 827
ment 826
pe@@ 826
l 825
How 825
real 820
con@@ 819
si@@ 819
wanted 818
tic 814
design 814
Thank 810
away 810
ap@@ 808
10 808
light 806
less 806
als 800
z@@ 794
call 794
understand 792
ter 792
ps 787
children 783
OK 782
brain 781
ant 780
ke 778
always 777
person 776
’ 774
str@@ 769
stuff 766
pro@@ 766
ur@@ 762
four 761
sp@@ 754
Africa 753
working 751
ch 751
to@@ 750
found 745
I@@ 744
trying 744
believe 740
king 739
live 733
may 729
sense 723
everything 719
example 718
ph@@ 717
space 717
el 715
money 713
ne@@ 712
Here 710
thinking 709
pl@@ 708
took 705
One 704
building 704
dr@@ 703
bo@@ 702
tions 702
ve 702
ir@@ 702
kids 698
ev@@ 697
play 693
cr@@ 692
quite 688
ty 687
enough 684
getting 683
les 681
ding 678
bl@@ 678
interesting 676
ent@@ 673
dollars 673
ay 672
comes 672
form 670
using 670
j@@ 669
we@@ 668
body 668
These 666
making 665
energy 664
feel 663
b 661
ain 661
happened 661
power 661
ot@@ 661
pr@@ 661
create 659
country 655
de 654
school 651
inter@@ 650
ings 649
coming 647
five 647
probably 644
mo@@ 643
ance 642
wh@@ 642
second 640
side 640
number 638
ma@@ 636
com@@ 631
maybe 631
ded 631
su@@ 630
te@@ 630
anything 629
per 627
No 626
says 626
ked 624
no@@ 624
il@@ 622
data 622
V@@ 619
he@@ 619
20 619
talking 617
ical 616
um 616
small 616
pretty 614
trans@@ 613
min@@ 613
help 611
means 610
um@@ 610
times 610
food 609
left 607
3@@ 605
re 605
My 603
des@@ 603
top 603
planet 601
fl@@ 600
br@@ 599
information 598
te 598
future 598
move 597
room 594
best 594
Earth 594
qu@@ 592
book 590
seen 587
fe@@ 586
set 584
ter@@ 584
become 583
half 580
.@@ 579
ideas 579
... 579
line 579
She 577
tu@@ 577
sure 574
ence 572
land 571
do@@ 571
ho@@ 571
ess 570
happen 569
picture 568
ways 567
build 567
science 564
goes 561
ist 561
simple 559
ses 558
else 554
ast 552
without 552
across 551
har@@ 551
ability 550
om@@ 549
having 543
ative 542
ia 538
der 537
ect 536
saw 535
ents 534
ge@@ 534
w 533
ics 533
Why 533
go@@ 533
ite 532
il 532
computer 532
problems 530
ates 530
ws 530
ness 528
bad 527
such 527
countries 526
par@@ 525
guy 525
saying 523
Let 523
hi@@ 521
cl@@ 520
told 516
ang@@ 516
basically 514
days 513
ves 513
happens 513
x 512
makes 512
bi@@ 510
ask 510
mar@@ 509
av@@ 508
All 508
case 508
ec@@ 506
God 505
home 502
ones 502
U@@ 501
enti@@ 500
man@@ 499
mind 499
50 498
for@@ 497
city 495
art 495
business 493
process 493
Al@@ 493
ies 492
reason 492
experience 492
ars 490
tri@@ 490
ists 487
billion 486
gu@@ 485
hard 484
fi@@ 484
living 484
asked 484
ms 483
car 481
and@@ 481
later 480
mon@@ 479
hand 479
moment 479
looks 479
nature 479
ely 477
both 477
six 477
care 477
2@@ 476
turn 476
act 475
possible 475
nothing 474
4@@ 474
history 472
New 472
India 470
while 469
the@@ 469
universe 469
int@@ 468
project 468
ver@@ 467
beautiful 467
women 466
far 465
places 463
within 462
ically 461
everybody 460
social 460
already 459
For 459
bring 458
els 456
gener@@ 456
child 456
cre@@ 454
piece 452
so@@ 451
dec@@ 451
almost 451
end@@ 450
ver 449
As 449
ins 449
high 447
heard 446
1@@ 445
&#91; 445
&#93; 445
0s 443
music 443
true 442
hope 442
read 442
ou@@ 441
couple 440
lin@@ 440
ce@@ 439
bro@@ 439
looked 437
keep 437
view 436
species 436
lives 435
whether 434
built 434
fin@@ 433
answer 433
bu@@ 433
single 433
au@@ 432
ge 431
matter 431
rel@@ 431
yet 430
ad 430
cu@@ 430
once 429
ful 429
works 429
house 429
ons 427
United 426
ling 426
led 425
ce 423
ill 423
inside 423
mother 423
group 422
vi@@ 421
100 421
Oh 421
Then 420
ai@@ 419
kinds 418
America 414
TED 414
global 414
somebody 414
order 413
fac@@ 413
months 413
gen@@ 413
id@@ 412
under 412
though 412
learn 411
itself 411
family 409
aff@@ 409
must 409
head 409
ste@@ 409
30 408
gl@@ 408
tive 406
wrong 404
ens 404
me@@ 404
completely 403
ass@@ 403
ets 402
5@@ 402
ected 401
happy 399
wing 399
sk@@ 399
ters 399
company 398
until 397
gi@@ 397
remember 397
under@@ 397
gets 396
ci@@ 396
her@@ 395
aw@@ 395
isn 395
Ch@@ 394
community 393
States 392
rather 392
sc@@ 392
imagine 391
oil 391
pi@@ 391
word 389
ice 387
Ar@@ 387
model 387
ther 386
pos@@ 386
jo@@ 386
face 386
often 386
des 385
wasn 385
run 385
ying 385
video 384
over@@ 384
low 384
ator 382
ently 381
large 381
young 380
front 380
sub@@ 379
wonderful 377
taking 377
figure 377
out@@ 377
public 376
won 376
minutes 376
son 376
war 376
sho@@ 375
myself 375
animals 375
mis@@ 375
open 375
happening 375
sur@@ 375
wor@@ 373
der@@ 373
amazing 373
om 373
market 371
pres@@ 371
level 371
name 371
e-@@ 371
fish 370
taken 370
ourselves 368
ish 368
job 368
In@@ 367
phone 367
ber@@ 366
since 366
along 366
gs 366
health 365
ra@@ 365
tic@@ 365
tle 365
feet 365
exactly 365
tics 363
decided 363
stories 362
19@@ 362
up@@ 361
r 361
ack 360
d-@@ 359
ement 359
oun@@ 358
ched 357
ery 357
eg@@ 357
couldn 357
education 357
lots 356
whatever 356
game 356
heart 355
words 355
ist@@ 354
state 354
someone 354
questions 354
wn 353
night 353
guys 353
particular 353
bur@@ 352
Th@@ 352
clo@@ 352
hours 352
oper@@ 352
ey 351
stop 351
knew 351
fai@@ 351
takes 350
ism 350
turns 349
huge 349
ten@@ 349
area 348
moving 348
wi@@ 348
government 346
ocean 346
air 345
ture 344
American 344
least 344
x@@ 343
equ@@ 343
hear 342
ities 342
surface 342
dic@@ 341
ell 340
rec@@ 340
t-@@ 339
men 338
society 338
size 338
Re@@ 337
3 337
ing@@ 337
0,000 337
became 337
Yeah 336
lu@@ 335
natural 335
8@@ 334
la 334
language 334
f 333
ire 333
worked 333
scale 333
outside 333
seven 332
ants 332
loc@@ 331
Internet 331
2 331
beginning 331
mat@@ 330
mi@@ 330
century 330
20@@ 330
est@@ 330
ots 329
mem@@ 329
8 328
ties 328
Mo@@ 328
ner 327
systems 327
woman 327
ay@@ 326
cells 326
free 326
ann@@ 325
difference 325
created 325
det@@ 325
cost 324
ig@@ 324
ats 324
os@@ 324
cor@@ 324
ber 324
control 324
action 323
ue 322
St@@ 322
news 321
exp@@ 321
200@@ 321
aring 320
ational 320
friends 320
known 319
certain 319
app@@ 318
ping 318
disease 317
9@@ 316
ther@@ 316
died 316
third 315
ved 314
Or 314
ank 313
past 313
turned 312
needs 312
tor 312
seeing 312
themselves 311
igh@@ 311
ection 310
off@@ 310
ains 310
entire 310
gone 310
cap@@ 310
York 310
deal 309
perhaps 309
7@@ 309
early 309
Wh@@ 308
buy 308
based 308
ship 308
interested 308
finally 307
ft 307
terms 306
quickly 306
bed 306
against 306
test 305
tro@@ 305
research 305
amount 305
bre@@ 304
gave 303
us@@ 303
part@@ 302
students 302
ited 302
dy 302
inc@@ 302
ving 301
S 301
ni@@ 301
everyone 301
war@@ 301
fol@@ 300
ef 300
comm@@ 299
population 299
15 299
Do 298
ed@@ 298
sound 298
environment 297
char@@ 297
cannot 297
ously 297
ound 297
learned 297
ot 296
sive 296
parts 296
close 296
hel@@ 296
ner@@ 295
Is 295
ended 295
lim@@ 294
middle 294
others 294
machine 294
sel@@ 294
6@@ 294
leave 293
ati@@ 293
force 292
key 292
China 291
bri@@ 290
inv@@ 290
thousands 290
An@@ 290
coun@@ 290
ard 290
began 289
ze 289
9 288
sometimes 288
Y@@ 288
eight 287
5 287
instead 287
ments 286
arr@@ 286
ages 286
ke@@ 286
air@@ 285
all@@ 285
share 285
walk 285
cont@@ 285
ru@@ 284
eyes 284
rem@@ 283
ory 283
tried 283
self-@@ 283
ches 283
ect@@ 283
pic@@ 283
image 283
miles 282
logy 282
ry 282
hold 282
Yes 281
CA 281
cancer 281
culture 281
40 280
st 280
evolution 280
common 280
log@@ 280
rest 279
program 279
study 279
Okay 279
grow 278
ground 278
pu@@ 277
tical 277
ular 276
Right 275
res 274
adv@@ 274
cell 274
fun 274
fr@@ 273
mu@@ 273
changed 273
given 272
Z@@ 272
Just 271
easy 271
sions 271
D 271
ari@@ 270
film 270
cop@@ 269
books 269
syn@@ 269
friend 268
ency 268
Not 268
longer 268
spend 268
hands 268
fly 267
People 267
cro@@ 267
incredible 267
id 267
black 267
iz@@ 267
,000 266
act@@ 266
ls 265
structure 264
predic@@ 264
conv@@ 263
ace 262
Com@@ 262
yourself 262
father 262
cho@@ 262
opportunity 261
eat 261
ick 261
difficult 261
changes 260
brought 260
forward 260
die 260
week 259
ack@@ 259
1 258
full 258
fer@@ 258
Le@@ 257
table 257
mil@@ 257
either 257
6 257
ak@@ 257
uses 257
che@@ 257
ects 256
ain@@ 256
ach@@ 256
ality 256
simply 256
theory 256
cities 255
ning 255
ty@@ 255
map 255
identi@@ 255
spe@@ 254
4 254
fo@@ 254
ish@@ 254
logical 253
Se@@ 253
sol@@ 253
vis@@ 253
literally 253
dro@@ 253
met 253
wouldn 253
ob@@ 253
pur@@ 252
death 252
needed 252
clear 252
anc@@ 252
center 252
zed 252
dd@@ 252
U.S. 251
ns 251
Some 251
ian 251
starting 251
learning 251
stage 250
gh@@ 250
ingly 250
ained 250
ering 250
ris@@ 249
ju@@ 249
cut 249
7 249
morning 249
nice 248
tion@@ 248
To 248
sea 248
spo@@ 248
knowledge 247
spent 247
bus@@ 247
os 247
At 247
wer 247
powerful 247
shape 247
paper 246
col@@ 246
por@@ 245
weeks 245
sou@@ 245
realized 245
bottom 245
ake 245
ive 245
talked 244
shows 244
reg@@ 244
ell@@ 244
flo@@ 243
present 243
write 243
ess@@ 243
behavior 243
ban@@ 242
during 242
mer@@ 242
ta@@ 242
poor 242
wrote 242
parents 242
Par@@ 241
behind 241
mag@@ 241
ail 241
esses 240
y-@@ 240
alis@@ 240
climate 239
ss 239
mas@@ 239
sitting 239
understanding 239
appe@@ 239
white 238
Su@@ 238
cur@@ 238
Can 237
ize 237
ame 237
ill@@ 237
met@@ 237
ise 237
ys 236
pay 236
fu@@ 236
anybody 236
ton 236
team 236
ve@@ 236
gives 236
No@@ 236
DNA 236
ach 236
average 235
growing 235
qui@@ 235
coll@@ 235
ines 235
value 234
technologies 234
ends 234
chem@@ 234
pen@@ 234
field 233
ried 233
plan@@ 233
ices 233
Mar@@ 233
Sh@@ 231
ici@@ 231
gar@@ 231
ale 231
complex 231
gre@@ 231
humans 231
thank 230
areas 230
ial 230
economy 230
hom@@ 230
hand@@ 229
absolutely 229
ered 229
computers 229
dra@@ 229
ick@@ 229
telling 228
0@@ 228
head@@ 228
ward 228
media 228
knows 228
running 227
short 227
lost 227
economic 227
ared 226
tors 226
produce 226
designed 226
felt 226
seems 226
hop@@ 225
dri@@ 225
board 224
ble 224
fast 224
rules 224
fied 224
English 224
green 223
ear@@ 223
sec@@ 223
tre@@ 223
my@@ 223
cir@@ 223
sion 222
discovered 222
kin@@ 222
focus 221
hy@@ 221
Ma@@ 221
can@@ 221
row 221
prom@@ 221
audience 221
tur@@ 221
watch 221
animal 221
od@@ 221
happiness 221
electr@@ 221
pattern 221
aid 220
growth 220
ned 220
pictures 220
reality 220
World 220
object 220
recently 219
companies 219
kes 219
born 219
millions 219
hon@@ 218
af@@ 218
od 218
impro@@ 218
non-@@ 218
industry 218
moved 218
fall 218
ga@@ 218
vari@@ 218
ff@@ 217
fine 217
step 217
On 217
ak 217
scientists 217
ut 216
25 216
la@@ 216
shi@@ 216
speak 216
changing 216
color 216
nuclear 216
vol@@ 215
60 215
onal 215
ances 215
antly 215
cool 215
soon 215
ams 215
haven 215
nor@@ 214
allow 214
girl 214
Be@@ 213
bor@@ 213
C 213
ences 213
Our 213
super@@ 213
mus@@ 213
dom 213
Ex@@ 212
ide 212
reasons 212
incredibly 212
developing 212
generation 212
199@@ 212
tis@@ 212
ath 212
Con@@ 211
gro@@ 211
econom@@ 211
De@@ 211
sing 211
hundreds 211
ave 211
eu@@ 211
ature 211
ker 211
cat@@ 210
wat@@ 210
relationship 210
ail@@ 210
pped 210
grand@@ 210
begin 210
involved 209
emo@@ 209
local 209
uc@@ 209
deep 209
fore@@ 209
blue 209
late 209
lic@@ 209
realize 209
pul@@ 209
becomes 208
fun@@ 208
major 208
experiment 208
cer@@ 207
material 207
active 207
challenge 207
giving 207
ight 207
developed 206
ply 206
anyone 206
prot@@ 206
ash@@ 205
top@@ 205
port 205
ure 205
tools 205
numbers 205
guess 205
network 205
images 204
movie 204
tically 204
press 204
sav@@ 204
12 204
lived 204
chance 204
feeling 204
seem 204
compu@@ 204
playing 204
ads 203
showed 203
ali@@ 203
mine 203
tiny 203
dark 203
dead 203
ands 202
vision 202
type 202
eng@@ 202
depend@@ 202
putting 202
Bo@@ 202
kid 202
wind 202
individual 202
ably 201
o-@@ 201
micro@@ 201
hor@@ 201
mass 200
ths 200
sen@@ 200
organiz@@ 200
attention 200
reading 200
att@@ 200
dem@@ 200
cars 199
essed 199
stand 199
ma 199
bigger 199
normal 199
fully 198
teach 198
nam@@ 198
Look 198
oh 198
South 198
photograph@@ 198
Chris 197
ders 197
choice 197
oc@@ 197
alone 197
10@@ 197
result 197
cul@@ 197
sig@@ 197
ple 196
product 196
worth 196
ators 196
Co@@ 196
ink 196
nobody 196
compassion 196
personal 195
situation 195
physical 195
dre@@ 195
issue 194
available 194
speed 194
play@@ 194
song 194
Don 194
towards 194
hour 194
position 193
solve 193
political 193
Of 193
sw@@ 193
wish 193
architecture 192
version 192
ories 192
hun@@ 192
ales 192
door 191
trees 191
creating 191
asking 191
break 191
del@@ 191
ong@@ 190
perfect 190
bel@@ 190
oes 190
month 189
projects 189
goal 189
certainly 189
wr@@ 189
onto 189
prof@@ 188
term 188
ment@@ 188
forms 188
minute 188
thre@@ 188
road 188
support 188
ler 188
movement 188
effect 187
approach 187
ching 187
11 187
defin@@ 187
Br@@ 187
high@@ 187
ide@@ 187
blood 187
meet 187
ir 186
Mon@@ 186
tree 186
tom@@ 186
Europe 186
thers 186
plants 186
solution 186
site 186
scientific 186
psycho@@ 186
ball 186
likely 185
mission 185
bs 185
fy 185
acy 185
Mars 185
lines 185
pe 185
fre@@ 185
bio@@ 185
ror 184
continu@@ 184
carbon 184
save 184
du@@ 184
yes 184
ods 184
pas@@ 184
totally 183
ger 183
device 183
speci@@ 183
ap 183
several 183
ol 183
squ@@ 183
ishing 183
high-@@ 183
cam@@ 183
wall 183
prim@@ 183
aren 182
ption 182
contr@@ 182
M 182
By 182
rate 182
bar@@ 182
walking 182
ret@@ 182
ven@@ 181
imp@@ 181
risk 181
ket 181
500 181
period 181
showing 181
tend 181
lose 181
vir@@ 181
reach 181
explain 181
drive 181
den 181
impact 180
resources 180
ety 180
truth 180
beyond 180
bacteria 180
chi@@ 180
80 180
laun@@ 180
Ro@@ 180
groups 180
stars 180
software 179
Where 179
exciting 179
lead 179
develop 179
dev@@ 179
interest 179
named 178
bes 178
den@@ 178
cri@@ 178
present@@ 178
u 178
lab@@ 178
price 178
similar 178
aves 178
proper@@ 178
schools 178
series 177
Bu@@ 177
solar 177
especially 177
inf@@ 177
sup@@ 177
law 177
Google 177
ays 177
page 177
suff@@ 177
town 177
Po@@ 177
rely 177
dee@@ 177
patient 177
add 176
smo@@ 176
development 176
access 176
az@@ 176
basic 176
foot 176
back@@ 176
nine 176
fri@@ 175
produc@@ 175
ye@@ 175
wants 175
essing 175
arg@@ 174
pieces 174
esti@@ 174
pat@@ 173
oned 173
obviously 173
issues 173
materials 173
less@@ 173
particularly 173
Un@@ 173
clim@@ 173
z 173
higher 173
paint@@ 173
ough 173
clu@@ 173
increas@@ 173
starts 173
wo@@ 172
eco@@ 172
quality 172
Maybe 172
200 172
ater 172
tho@@ 172
connected 171
intro@@ 171
examples 171
source 171
stat@@ 171
efully 171
consum@@ 171
arri@@ 171
box 171
anti@@ 171
Gre@@ 171
Chinese 171
org@@ 171
count 171
aging 170
lower 170
bul@@ 170
serious 170
vo@@ 170
18 170
dat@@ 170
dly 170
hu@@ 170
ould 170
evidence 170
eye 170
Every 169
First 169
Which 169
strong 169
cle 169
innovation 169
visual 169
objects 169
port@@ 169
African 169
mer 168
Most 168
brea@@ 168
ized 168
ky 168
ces 168
writing 168
multi@@ 168
eth@@ 168
sil@@ 168
rich 168
tly 168
pass@@ 168
cal@@ 168
En@@ 168
So@@ 167
ong 167
ases 167
analy@@ 167
comp@@ 167
ori@@ 167
B 167
soci@@ 167
uni@@ 167
bunch 166
stay 166
measure 166
spread 166
moral 166
far@@ 165
ase 165
potential 165
Who 165
acks 165
notice 165
ligh@@ 165
descri@@ 165
special 165
robot 165
digital 165
ending 164
sed 164
village 164
eventually 164
compar@@ 164
worl@@ 164
sell 164
poverty 164
arch@@ 164
meaning 164
ring 164
kee@@ 164
imm@@ 164
ina 164
continue 163
0-@@ 163
tional 163
ember 163
larger 163
games 163
stri@@ 163
ession 163
tw@@ 163
success 163
ards 162
somewhere 162
aged 162
somehow 162
code 162
screen 162
camera 162
pan@@ 162
please 162
above 162
ind@@ 162
skin 162
modern 161
ana 161
a-@@ 161
thousand 161
Like 161
ately 161
Me@@ 161
proc@@ 161
gas 161
everywhere 161
ene 161
virtu@@ 161
sun 161
forth 161
vers 160
yeah 160
ister 160
ash 160
wea@@ 160
wards 160
pping 160
ah 160
mor@@ 160
ger@@ 160
stor@@ 160
roc@@ 160
ai 160
bal@@ 160
hundred 159
fil@@ 159
street 159
sit 159
rs 159
ster@@ 159
18@@ 159
For@@ 158
buildings 158
biggest 158
vent 158
lap@@ 158
experi@@ 158
aling 158
girls 158
ane 158
ped 158
essentially 158
office 158
univers@@ 158
nd 158
suc@@ 158
follow 158
physics 158
recor@@ 157
HIV 157
strat@@ 157
bot@@ 157
models 157
machines 157
message 157
Even 157
extraordinary 157
further 157
student 157
fundamental 157
points 157
hit 156
cause 156
expect 156
listen 156
ium 156
class 156
beings 156
ep 155
except 155
re-@@ 155
supposed 155
ama@@ 155
ready 155
Ph@@ 155
standing 155
cles 155
baby 155
alive 155
bers 155
gg@@ 155
main 155
oud 155
val@@ 155
ten 155
positive 154
sorts 154
send 154
ites 154
general 154
adul@@ 154
Those 153
pick 153
heav@@ 153
sent 153
cy@@ 153
impossible 153
lies 153
earth 153
journey 153
pain 152
accep@@ 152
biology 152
floor 152
mechan@@ 152
expensive 152
legs 152
fire 151
ements 151
deli@@ 151
list 151
sun@@ 151
diversity 151
tionary 151
thes@@ 151
fall@@ 151
pull 151
He@@ 151
largest 151
response 151
usually 151
wife 150
emis@@ 150
plac@@ 150
arm 150
wise 150
ren@@ 150
meant 150
grew 150
vie@@ 150
Ne@@ 150
famous 150
cent@@ 150
plant 150
kill@@ 149
tural 149
designers 149
bas@@ 149
atmosphere 149
wait 149
touch 149
ests 149
North 149
E 149
molec@@ 149
extremely 148
Some@@ 148
forest 148
surpris@@ 148
excited 148
gradu@@ 148
fortunately 148
anyway 148
critical 148
context 148
killed 148
successful 148
/ 148
ath@@ 148
swe@@ 148
ese 148
ab 148
sm@@ 148
calcul@@ 147
organization 147
G 147
invented 147
5,000 147
allowed 147
slide 146
medi@@ 146
favorite 146
ass 146
smaller 146
she@@ 146
complicated 146
boy 146
Car@@ 145
taught 145
kill 145
activity 145
watching 145
patterns 145
shar@@ 145
alized 145
individuals 145
tells 145
ind 144
dollar 144
beg@@ 144
concept 144
virus 144
actual 144
arts 144
tries 144
dog 144
teachers 144
Cam@@ 144
safe 143
O 143
After 143
enormous 143
ken 143
aying 143
With 143
ut@@ 143
genes 143
mental 143
Another 143
sal@@ 143
ax@@ 143
blo@@ 142
spr@@ 142
engineering 142
service 142
creative 142
shot 142
eum 142
dance 142
upon 142
store 142
smart 142
himself 142
ran@@ 142
content 142
conference 141
Ti@@ 141
print@@ 141
electricity 141
combin@@ 141
Americans 141
three-@@ 141
one-@@ 141
Are 141
although 141
era 141
explo@@ 141
stre@@ 141
hot 141
teacher 141
ident 140
Pro@@ 140
caus@@ 140
ordin@@ 140
sky 140
leaders 140
flying 140
cover 140
hol@@ 140
down@@ 140
ails 140
recogni@@ 140
ow@@ 140
ished 140
crazy 140
patients 140
direction 140
plan 139
person@@ 139
star@@ 139
fer 139
pa@@ 139
among 139
our@@ 139
iv@@ 139
U.@@ 139
was@@ 139
ton@@ 139
sex 139
ore@@ 139
healthy 139
symme@@ 139
sounds 138
crisis 138
quar@@ 138
slow 138
Ho@@ 138
educ@@ 138
urban 138
enjo@@ 138
mit 138
ports 138
lock 138
ord 138
contribu@@ 137
range 137
posed 137
On@@ 137
ile 137
eless 137
production 137
ades 137
TV 137
bing 137
character 137
voice 136
sli@@ 136
low@@ 136
ince 136
oxygen 136
whe@@ 136
sis 136
recognize 136
fantastic 136
obvious 136
organisms 136
R 136
T 136
Li@@ 136
ca@@ 136
older 136
flu 136
ign 136
deter@@ 136
ert 136
ili@@ 136
acting 136
perspective 135
bon@@ 135
solutions 135
income 135
etc 135
ug@@ 135
surviv@@ 135
gotten 135
therefore 135
dangerous 135
well-@@ 135
atom@@ 135
square 135
ley 135
emp@@ 135
dies 135
emerg@@ 135
lead@@ 134
zer@@ 134
products 134
AIDS 134
intelligence 134
ation@@ 134
mal@@ 134
photograph 134
strange 134
suddenly 134
produced 134
walked 134
see@@ 134
integr@@ 134
online 134
written 133
minds 133
but@@ 133
Di@@ 133
beauty 133
fir@@ 133
bought 133
national 133
da 133
immediately 133
various 133
after@@ 133
rise 133
ster 133
planets 133
eling 132
ounc@@ 132
ables 132
dge 132
ok 132
weren 132
ote 132
appro@@ 132
dependent 132
policy 132
const@@ 132
vely 132
ever@@ 132
draw 132
win@@ 132
to-@@ 132
inclu@@ 131
doc@@ 131
Mus@@ 131
shown 131
worse 131
West 131
gri@@ 131
tal@@ 131
cases 131
cel@@ 131
ries 131
oth 130
allows 130
clean 130
exist 130
trav@@ 130
inst@@ 130
specific 130
four@@ 130
refl@@ 130
particles 130
print 130
on-@@ 130
carry 130
ging 130
revolution 130
adap@@ 130
greater 130
truly 129
aving 129
role 129
families 129
indeed 129
lab 129
remarkable 129
formed 129
power@@ 129
zing 129
wed 129
them@@ 129
record 129
pt 129
website 129
lease 129
bridge 129
increase 129
seconds 129
played 129
dream 129
tation 129
aining 128
fuel 128
acts 128
bene@@ 128
traditional 128
mod@@ 128
requi@@ 128
kept 128
ony 128
stick 128
tou@@ 128
aware 128
represent@@ 128
point@@ 128
tes 128
flu@@ 128
television 127
pli@@ 127
faster 127
Nor@@ 127
progress 127
survive 127
conditions 127
alo@@ 127
results 127
ser@@ 127
Man 127
foot@@ 127
tas@@ 127
values 127
mot@@ 126
paid 126
forces 126
provi@@ 126
cas@@ 126
Rus@@ 126
thern 126
flow 126
closer 126
cold 126
region 126
religion 126
Your 126
windo@@ 126
initi@@ 126
terrible 126
phones 126
Life 126
mountain 126
hospital 126
bread 126
trouble 126
sign 125
ength 125
oid 125
including 125
scar@@ 125
jobs 125
rais@@ 125
weight 125
To@@ 125
related 125
atic@@ 125
gers 125
final 125
human@@ 125
curr@@ 125
earlier 125
medical 125
fro@@ 125
invest@@ 124
alization 124
stic 124
lights 124
ird 124
fascin@@ 124
dar@@ 124
,@@ 124
wel@@ 124
archit@@ 124
Per@@ 124
hou@@ 124
wonder@@ 124
familiar 124
evolved 124
grav@@ 124
National 124
eful 123
celebr@@ 123
ought 123
coo@@ 123
func@@ 123
clearly 123
travel 123
colon@@ 123
finding 123
disappe@@ 123
and-@@ 123
pol@@ 123
eter 123
tool 123
ust 123
ie 123
tel@@ 123
acti@@ 123
ound@@ 123
sto@@ 122
loo@@ 122
ahead 122
ounded 122
ough@@ 122
East 122
mile 122
connect 122
differ@@ 122
cru@@ 122
anywhere 122
thro@@ 122
following 122
mate 122
Two 121
current 121
summer 121
wever 121
ll 121
farmers 121
techn@@ 121
security 121
dered 121
private 121
em 121
fem@@ 121
waiting 121
oundation 121
acc@@ 121
biological 121
aking 121
original 121
dig@@ 121
P 121
sens@@ 121
medicine 121
passion 121
acking 121
oms 121
costs 121
atic 121
Col@@ 121
dition 120
below 120
treat 120
treatment 120
notion 120
rap@@ 120
drugs 120
aper 120
quence 120
tent 120
bat@@ 120
understood 120
lay@@ 120
nur@@ 120
wer@@ 119
decision 119
train 119
hot@@ 119
wood 119
pou@@ 119
citiz@@ 119
instance 119
moon 119
robots 119
Vi@@ 119
198@@ 119
pressure 119
complete 119
verse 119
ady 119
sing@@ 119
Bro@@ 119
spec@@ 119
lar@@ 119
Mr. 119
destro@@ 119
Is@@ 119
humanity 119
band 119
graph@@ 119
rece@@ 119
teaching 119
ges 119
X@@ 119
greatest 119
ented 118
din@@ 118
eters 118
useful 118
deb@@ 118
emer@@ 118
ext@@ 118
Ger@@ 118
win 118
let@@ 118
enc@@ 118
possibly 118
ans@@ 118
ening 118
serv@@ 118
70 118
stu@@ 118
consi@@ 118
sum@@ 118
ah@@ 118
significant 117
sul@@ 117
shor@@ 117
near 117
tively 117
discover 117
fa@@ 117
fic 117
ancy 117
heat 117
Mc@@ 117
The@@ 117
massive 117
sold 117
tor@@ 117
soldi@@ 117
tun@@ 117
metap@@ 117
achieve 117
twice 116
quick 116
tar@@ 116
rai@@ 116
duc@@ 116
capital 116
rights 116
wide 116
300 116
domin@@ 116
rule 116
provide 116
ran 116
une 116
thetic 116
becoming 116
ased 116
Good 116
conversation 116
aint 116
kers 116
sustainable 116
vehic@@ 116
concentr@@ 116
sugg@@ 116
wit@@ 116
intu@@ 116
causes 116
clin@@ 116
vacc@@ 116
charge 116
believ@@ 116
arly 116
sphere 116
construc@@ 115
logi@@ 115
environmental 115
ills 115
small@@ 115
10,000 115
decade 115
pil@@ 115
military 115
meeting 115
web 115
aces 115
wonder 115
anymore 115
itation 115
curi@@ 115
date 114
anced 114
ff 114
scre@@ 114
beli@@ 114
creativity 114
tremendous 114
two-@@ 114
Ac@@ 114
tan@@ 114
choose 114
protect 114
pal@@ 114
expl@@ 114
ple@@ 114
hole 114
Tur@@ 114
driving 113
temperature 113
directly 113
legal 113
etting 113
competition 113
pair 113
phys@@ 113
encour@@ 113
liter@@ 113
ang 113
tail 113
hur@@ 113
un 113
enn@@ 112
levels 112
Again 112
Jo@@ 112
ners 112
swit@@ 112
California 112
engag@@ 112
tal 112
commercial 112
coffee 112
coc@@ 112
ous@@ 112
hum@@ 112
chil@@ 112
controll@@ 112
grap@@ 112
Qu@@ 112
finger 112
ade 111
performance 111
alth 111
00 111
imagin@@ 111
16 111
college 111
attr@@ 111
studies 111
tivity 111
hood 111
decide 111
track 111
types 111
vered 111
rock 111
reach@@ 111
Go@@ 111
K 111
drop 111
mir@@ 110
David 110
decisions 110
figured 110
tes@@ 110
worst 110
thy 110
infrastructure 110
responsibility 110
don@@ 110
zero 110
sti@@ 110
War 110
none 110
Pr@@ 110
genetic 110
glass 110
fit 110
complexity 110
ful@@ 110
ey@@ 110
reli@@ 110
en-@@ 110
skills 110
eating 110
tered 110
L 110
simul@@ 110
London 110
meters 110
TED@@ 110
quote 109
degrees 109
duced 109
CO2 109
particip@@ 109
diseases 109
atory 109
throughout 109
abil@@ 109
of@@ 109
training 109
fear 109
1,000 109
Sp@@ 109
Richard 109
purpose 109
cheap 109
enter 109
fairly 109
ape 109
life@@ 109
cultural 109
lav@@ 109
H 109
land@@ 108
shel@@ 108
concer@@ 108
markets 108
extra 108
fits 108
communities 108
international 108
function 108
Great 108
Euro@@ 108
explore 108
craf@@ 108
onic 108
ole 108
Gu@@ 108
enced 108
pounds 108
til@@ 108
men@@ 108
funny 108
acked 108
math 108
popular 108
Web 108
straight 108
galaxies 108
galaxy 108
bird 108
basis 107
feed 107
onn@@ 107
&apos;@@ 107
pri@@ 107
ere@@ 107
From 107
le-@@ 107
ived 107
religious 107
tin@@ 107
ols 107
brains 107
bodies 107
Or@@ 107
doctor 107
fight 107
programs 107
prepar@@ 106
cour@@ 106
subject 106
agree 106
occu@@ 106
cise 106
itted 106
artists 106
meth@@ 106
City 106
adi@@ 106
mes 106
core 106
sorry 106
Japan 106
necessarily 106
whose 106
efficient 106
conse@@ 106
ancient 106
University 106
other@@ 106
central 106
fs 106
author@@ 106
Lo@@ 105
fel@@ 105
ere 105
easily 105
capacity 105
timate 105
speaking 105
mostly 105
struc@@ 105
supply 105
star 105
liber@@ 105
visu@@ 105
Iraq 105
exis@@ 105
Very 105
laws 105
Ad@@ 105
ule 105
ree 104
John 104
consider 104
democracy 104
collap@@ 104
ouldn 104
some@@ 104
mark@@ 104
pass 104
cycle 104
tru@@ 104
Indian 104
pressed 104
appli@@ 104
search 104
atives 104
evol@@ 104
ght 104
institutions 104
cli@@ 103
apart 103
Second 103
agre@@ 103
degree 103
leg@@ 103
ush 103
art@@ 103
hal@@ 103
brilli@@ 103
fashion 103
compon@@ 103
evolu@@ 103
corner 103
emic 103
practice 103
migr@@ 103
achiev@@ 103
industrial 103
cent 103
slightly 103
demonstr@@ 103
Ber@@ 102
pose 102
intelligent 102
net 102
race 102
wal@@ 102
push 102
surr@@ 102
nu@@ 102
base 102
aker 102
ba@@ 102
wis@@ 102
long-@@ 102
Imagine 102
magic 102
professi@@ 102
low-@@ 101
politics 101
sam@@ 101
accoun@@ 101
prac@@ 101
violence 101
sn@@ 101
definition 101
ital 101
suit 101
expected 101
pages 101
dimensions 101
workers 101
finished 101
unique 101
event 101
self 101
birds 101
answers 101
molecules 101
Ge@@ 101
eties 101
newsp@@ 101
connection 101
zo@@ 101
fle@@ 100
invol@@ 100
extr@@ 100
trade 100
sick 100
bly 100
eth 100
worry 100
Actually 100
ged 100
mou@@ 100
Sy@@ 100
iting 100
entr@@ 100
open@@ 100
seemed 100
malaria 100
tox@@ 100
effects 100
forming 100
aches 100
lic 100
balance 100
rot@@ 100
eer 100
aries 100
replic@@ 100
sat 99
lau@@ 99
choices 99
corpor@@ 99
appreci@@ 99
continent 99
engineers 99
1,@@ 99
alities 99
ined 99
196@@ 99
total 99
saf@@ 99
Hey 99
197@@ 99
emotional 99
ado@@ 99
pig@@ 99
mea@@ 99
calls 99
cy 99
dying 99
crow@@ 99
90 99
Everybody 99
park 99
turning 99
French 99
bringing 99
communic@@ 99
libr@@ 99
sue 99
fix 99
creates 99
challenges 99
principle 99
hair 99
forget 99
landscape 99
exhi@@ 99
Washington 98
conserv@@ 98
stand@@ 98
sev@@ 98
sely 98
possibility 98
sum 98
governments 98
-year-old 98
soli@@ 98
experiments 98
viol@@ 98
artist 98
reas@@ 98
oul@@ 98
Asia 98
epidem@@ 98
creatures 98
raise 98
pers@@ 98
lowed 98
trial 98
mathematics 98
airplane 97
opened 97
Wor@@ 97
scientist 97
ural 97
ti 97
gy@@ 97
attemp@@ 97
background 97
hydrogen 97
neighb@@ 97
spl@@ 97
Dr. 97
tures 97
grade 97
throw 97
dest 97
heads 97
Wom@@ 97
ference 97
freedom 97
surg@@ 97
mel@@ 97
bits 97
effective 96
itu@@ 96
Many 96
direc@@ 96
ion 96
spirit 96
inspired 96
hell 96
figh@@ 96
communication 96
inten@@ 96
listening 96
nov@@ 96
noticed 96
med 96
broad@@ 96
describe 96
moves 96
alize 96
tele@@ 96
lat@@ 96
birth 96
Think 96
Mil@@ 96
conflict 96
networks 96
2,000 96
wave 96
ecting 95
kilom@@ 95
billions 95
break@@ 95
mean@@ 95
uns 95
sensi@@ 95
istry 95
Man@@ 95
loved 95
neu@@ 95
fur@@ 95
Fr@@ 95
stopped 95
associ@@ 95
elements 95
holding 95
stone 95
Swe@@ 95
tra 95
sent@@ 95
fres@@ 94
services 94
yesterday 94
warming 94
address 94
easier 94
reduce 94
main@@ 94
aw 94
400 94
willing 94
imagination 94
Gr@@ 94
extinc@@ 94
ology 94
Mi@@ 94
puts 94
indic@@ 94
oce@@ 94
ama 94
engine@@ 94
highly 94
neighborhood 94
fic@@ 94
consci@@ 94
bloc@@ 94
Fin@@ 94
mor 94
bab@@ 94
peace 94
okay 94
distance 94
ior 94
Instead 94
Einstein 94
ome@@ 94
plane 93
puzz@@ 93
techno@@ 93
concerned 93
creation 93
eled 93
radio 93
innov@@ 93
zen 93
fication 93
chemical 93
load 93
memory 93
attack 93
connec@@ 93
talks 93
communicate 93
Bra@@ 93
San 93
dimensional 93
fact@@ 93
drama@@ 93
itely 93
measu@@ 93
Sun 93
actions 93
sleep 93
Mal@@ 92
atively 92
oy@@ 92
beat 92
lam@@ 92
istic 92
airs 92
Tr@@ 92
knowing 92
wild 92
standard 92
daughter 92
ant@@ 92
chair 92
Ri@@ 92
His 92
timately 92
electric 92
focused 92
sign@@ 92
push@@ 92
plastic 92
civ@@ 92
sem@@ 92
ech 91
neg@@ 91
ox@@ 91
cut@@ 91
oppos@@ 91
Pe@@ 91
waste 91
justice 91
regi@@ 91
jump 91
pp@@ 91
task 91
wan@@ 91
occur@@ 91
engine 91
batter@@ 91
ograph@@ 91
civilization 91
opportunities 91
interact 91
erve 91
susp@@ 91
eding 91
Wal@@ 91
consciousness 91
sand 91
usual 90
edge 90
influence 90
nation 90
kil@@ 90
assum@@ 90
seriously 90
states 90
spending 90
El@@ 90
vering 90
24 90
insec@@ 90
scr@@ 90
ographic 90
autom@@ 90
visit 90
forc@@ 90
traff@@ 90
correc@@ 90
Did 90
lit@@ 90
health@@ 90
Sa@@ 90
helping 90
Anyway 90
sle@@ 90
explan@@ 90
mix@@ 90
ta 90
Middle 90
Take 90
age@@ 90
terri@@ 90
statis@@ 90
coral 90
hab@@ 89
cip@@ 89
shoc@@ 89
effort 89
MIT 89
tric@@ 89
stic@@ 89
lications 89
Today 89
lucky 89
dynamic 89
buc@@ 89
catch 89
cou@@ 89
cep@@ 89
ours 89
presents 89
rough@@ 89
inj@@ 89
mouse 89
driven 89
studying 89
biolog@@ 89
behavi@@ 89
meat 89
organic 89
philosoph@@ 89
14 89
muscle 89
icon 89
Audience 89
itting 89
apo@@ 89
check 89
rac@@ 89
Inter@@ 89
magazine 89
text 89
nel 89
has@@ 88
leads 88
al-@@ 88
exc@@ 88
tim@@ 88
capable 88
aster 88
financial 88
benefit 88
Je@@ 88
arm@@ 88
stuck 88
raid 88
interes@@ 88
separ@@ 88
custom@@ 88
unch 88
ear 88
Wi@@ 88
int 88
itor 88
secret 88
Hu@@ 88
Gen@@ 88
stupi@@ 88
boat 88
itive 88
Western 88
principles 88
adver@@ 88
year-old 88
helped 88
caught 88
motion 87
Nigeria 87
letter 87
campaig@@ 87
perfectly 87
read@@ 87
crati@@ 87
organizations 87
drug 87
colleagues 87
glob@@ 87
separate 87
iter@@ 87
fying 87
published 87
acter@@ 87
cell@@ 87
acceler@@ 87
Big 87
responsible 87
walls 87
tat@@ 87
eral 87
conf@@ 87
stem 87
Everything 87
dad 87
ious 87
Engl@@ 87
agriculture 87
dom@@ 87
sume 87
class@@ 87
ss@@ 87
six@@ 87
yellow 87
Afric@@ 87
movies 87
typical 87
necess@@ 86
bomb@@ 86
mobile 86
Japanese 86
Au@@ 86
relationships 86
contact 86
ions 86
party 86
Thanks 86
genome 86
iter 86
bles 86
ier 86
dum@@ 86
believed 86
rying 86
neuro@@ 86
article 86
ney 86
differences 86
slowly 86
lands 86
infin@@ 86
ues 86
block 86
equivalent 86
argument 86
Pres@@ 85
Bill 85
menti@@ 85
ert@@ 85
sugges@@ 85
ne 85
gar 85
len@@ 85
missing 85
fram@@ 85
dit 85
Ital@@ 85
treated 85
discovery 85
phenomenon 85
trust 85
atures 85
intr@@ 85
fields 85
99 85
Sometimes 85
construction 85
plea@@ 85
filled 85
vic@@ 85
oning 85
west 85
Hum@@ 85
faces 85
nee@@ 85
lie 85
lun@@ 85
shapes 85
thinks 85
Ste@@ 85
law@@ 85
failed 85
invest 85
angle 85
bility 85
Si@@ 85
sionate 85
dol@@ 85
effici@@ 84
pir@@ 84
tech 84
Ju@@ 84
respect 84
designing 84
1.@@ 84
card 84
ush@@ 84
tons 84
-up 84
requ@@ 84
appropri@@ 84
experim@@ 84
non@@ 84
cross@@ 84
gle 84
sexu@@ 84
bran@@ 84
contin@@ 84
asses 84
pris@@ 84
boys 84
K. 84
sudd@@ 83
Anderson 83
itable 83
nan@@ 83
scen@@ 83
versus 83
$ 83
absolu@@ 83
00@@ 83
emplo@@ 83
sites 83
shall 83
sac@@ 83
rain@@ 83
river 83
histor@@ 83
prote@@ 83
British 83
Des@@ 83
ble@@ 83
radic@@ 83
zes 83
truc@@ 82
Paul 82
wers 82
norm@@ 82
langu@@ 82
bone 82
vers@@ 82
son@@ 82
cot@@ 82
iss@@ 82
Res@@ 82
manufactu@@ 82
ops 82
proj@@ 81
duce 81
anding 81
frag@@ 81
45 81
ign@@ 81
gene 81
artifici@@ 81
designer 81
pon@@ 81
spon@@ 81
luc@@ 81
note 81
gentlem@@ 81
Ser@@ 81
cher 81
Any@@ 81
sy@@ 81
in-@@ 81
Bar@@ 81
form@@ 81
govern@@ 81
programm@@ 81
natur@@ 81
adop@@ 81
aps 81
fix@@ 81
suppose 81
quences 81
nutri@@ 80
ute 80
alternative 80
environ@@ 80
bru@@ 80
Brit@@ 80
NASA 80
wee@@ 80
Pl@@ 80
intellectu@@ 80
cons@@ 80
plat@@ 80
rol@@ 80
jum@@ 80
rons 80
obs@@ 80
sters 80
abstr@@ 80
pit@@ 80
diagno@@ 80
phere 80
clic@@ 79
poli@@ 79
ily 79
diam@@ 79
arti@@ 79
invisible 79
radi@@ 79
police 79
pression 79
gard@@ 79
Sec@@ 79
ury 79
confi@@ 79
cha@@ 79
eras 79
spectr@@ 79
ha 79
sch@@ 79
distribu@@ 79
doub@@ 79
dinosau@@ 79
Al 78
fore 78
arry 78
invention 78
cle@@ 78
150 78
import@@ 78
exer@@ 78
ek 78
ball@@ 78
Bas@@ 78
Times 78
plu@@ 78
motiv@@ 78
hus@@ 78
Chil@@ 78
stimul@@ 78
ba 78
mal 78
bia 78
moments 78
disco@@ 77
13 77
bar 77
35 77
17 77
hi 77
stoc@@ 77
bes@@ 77
ka 77
bble 77
ve-@@ 76
grain 76
planning 76
existence 76
till 76
fes@@ 76
Bi@@ 76
nets 76
temp@@ 76
vot@@ 76
st-@@ 76
Charles 76
crime 76
zone 76
lob@@ 76
DH 76
refu@@ 75
profit 75
ement@@ 75
mathematic@@ 75
Tal@@ 75
ow 75
leader 75
pes 75
Gal@@ 75
17@@ 75
modi@@ 75
interface 75
embr@@ 75
thr@@ 75
call@@ 75
intervie@@ 75
las@@ 75
N 75
Mex@@ 75
Go 75
youn@@ 75
Kenya 75
BF 75
serve 74
Institute 74
arily 74
sym@@ 74
discus@@ 74
appar@@ 74
Christ@@ 74
cogni@@ 74
divi@@ 74
tant 74
valu@@ 74
free@@ 74
distribution 74
gang 74
lum@@ 74
Wikipedia 74
politici@@ 73
er-@@ 73
effec@@ 73
subj@@ 73
X 73
organis@@ 73
oph@@ 73
publ@@ 73
tune 73
sand@@ 73
relev@@ 73
aim 73
plus 73
stream 73
possibil@@ 73
double 73
journalis@@ 73
forma@@ 73
trilli@@ 73
tern 73
comb@@ 73
symbo@@ 73
resear@@ 73
bom@@ 73
que@@ 73
van 73
vice 72
kets 72
195@@ 72
15@@ 72
ges@@ 72
optimis@@ 72
olog@@ 72
conver@@ 72
amp 72
circu@@ 72
productive 72
itch@@ 72
respon@@ 72
cal 72
Satur@@ 72
ective 72
ils 72
antage 72
aci@@ 72
ization 71
vel@@ 71
Ke@@ 71
invent@@ 71
sia 71
gence 71
ly@@ 71
email 71
umin@@ 71
DP 71
anta 71
illi@@ 71
explor@@ 71
emb@@ 71
Francisco 71
incre@@ 71
lets 71
Min@@ 71
uck 71
vac@@ 71
marine 71
ome 71
wil@@ 71
conduc@@ 70
major@@ 70
21@@ 70
tex@@ 70
marketing 70
pun@@ 70
je@@ 70
sor@@ 70
anti-@@ 70
male 70
mes@@ 70
facil@@ 70
ham@@ 70
600 70
structures 70
fen@@ 70
Bl@@ 70
vag@@ 70
AR@@ 69
Pri@@ 69
New@@ 69
nar@@ 69
budget 69
compare 69
tric 69
labor@@ 69
manu@@ 69
clip 69
ships 69
entions 69
importance 69
gene@@ 69
match 69
mas 69
fortable 69
George 69
Chicago 69
ution 69
ep@@ 69
films 69
entrepren@@ 69
agement 68
terror@@ 68
surprise 68
Bush 68
ager 68
righ@@ 68
igno@@ 68
Pal@@ 68
Center 68
conclu@@ 68
bus 68
eting 68
collec@@ 68
zz@@ 68
profess@@ 68
Dis@@ 68
Ben@@ 68
itions 68
intern@@ 68
Vir@@ 68
escope 68
James 68
vul@@ 68
challeng@@ 68
illustr@@ 67
simpl@@ 67
reven@@ 67
every@@ 67
stati@@ 67
respond 67
collabor@@ 67
At@@ 67
jun@@ 67
SW 67
echno@@ 67
dist@@ 67
connections 67
mid@@ 67
iture 67
chan@@ 67
transformation 67
elec@@ 67
pay@@ 67
compas@@ 67
Do@@ 66
bin@@ 66
cents 66
ich 66
rob@@ 66
influ@@ 66
Paci@@ 66
simplic@@ 66
Haw@@ 66
charg@@ 66
vous 66
ky@@ 66
Dar@@ 66
mount@@ 66
lif@@ 66
astronom@@ 66
abl@@ 66
ition 66
Darwin 66
rapid@@ 65
ques@@ 65
compl@@ 65
sources 65
Afghanistan 65
ambi@@ 65
sub-@@ 65
tax@@ 65
essenti@@ 65
photo 65
gue 65
post-@@ 65
subst@@ 65
kno@@ 65
Wow 65
Austral@@ 65
direct 65
aug@@ 65
lec@@ 65
dle 65
Valley 65
Mu@@ 65
Hy@@ 65
ven 65
not@@ 65
dynam@@ 65
dy@@ 65
mess@@ 65
spir@@ 65
oll@@ 65
RB 65
sumer 64
gies 64
discussion 64
scope 64
instrument 64
origin@@ 64
phot@@ 64
lor@@ 64
scri@@ 64
Rem@@ 64
pret@@ 64
partic@@ 64
vas@@ 64
cultures 64
anz@@ 64
vention 64
ix 64
aine 64
grad@@ 64
peri@@ 64
accor@@ 64
photos 64
signal 64
bet 64
amor@@ 64
chers 64
bir@@ 64
mathem@@ 64
pyram@@ 64
tom 63
restaurant 63
elling 63
transport@@ 63
cortex 63
pap@@ 63
ource 63
ids 63
observ@@ 63
alle@@ 63
distinc@@ 63
ero 63
san@@ 63
tempor@@ 63
install@@ 63
iti@@ 63
ami@@ 63
tend@@ 63
realiz@@ 63
interaction 63
audi@@ 63
collective 63
Cor@@ 62
ith 62
design@@ 62
Roc@@ 62
any@@ 62
mam@@ 62
carto@@ 62
Steve 62
Street 62
Fi@@ 62
progr@@ 62
transform@@ 62
camp 62
algorith@@ 62
spiritu@@ 62
King 62
Harvard 62
vibr@@ 62
discipl@@ 62
gol@@ 62
foc@@ 62
rig@@ 62
ague 61
pollution 61
enture 61
ither 61
dam@@ 61
ander 61
lue 61
privil@@ 61
classi@@ 61
stop@@ 61
Em@@ 61
fran@@ 61
sures 61
chimpanz@@ 61
Michael 61
cham@@ 61
orig@@ 61
nations 61
Bible 61
opinion 61
milli@@ 61
Stu@@ 61
Pakistan 61
probabil@@ 61
origami 61
tra@@ 60
excep@@ 60
corruption 60
paradig@@ 60
develop@@ 60
sophis@@ 60
atta@@ 60
insp@@ 60
put@@ 60
volume 60
figu@@ 60
Microsoft 60
dia 60
prop@@ 60
imag@@ 60
roman@@ 60
eck@@ 60
Bri@@ 60
long@@ 60
blog 60
style 60
Nat@@ 60
esh 60
propor@@ 60
ank@@ 60
Islam 60
i-@@ 60
ose 60
fal@@ 60
fas@@ 60
vide@@ 60
neutr@@ 59
sustain@@ 59
anger 59
enz@@ 59
II 59
buil@@ 59
radiation 59
volu@@ 59
ski@@ 59
sts 59
hyper@@ 59
compos@@ 59
phenomen@@ 59
mains 59
dil@@ 59
dence 59
offici@@ 59
figur@@ 59
75 59
Bay 59
plo@@ 59
boo@@ 59
Lu@@ 59
ki 59
mortal@@ 59
empath@@ 59
chron@@ 59
inning 59
former 58
visible 58
vement 58
pile 58
entrepreneurs 58
capitalis@@ 58
istance 58
section 58
Vo@@ 58
van@@ 58
quan@@ 58
competi@@ 58
frustr@@ 58
conclusion 58
hydro@@ 58
user 58
resp@@ 58
16@@ 58
destruction 58
iness 58
dens@@ 58
F 58
Isra@@ 58
angiogen@@ 58
ems 58
thin@@ 58
lation 58
prior@@ 58
lym@@ 58
narr@@ 58
KB 58
capit@@ 57
agers 57
bag@@ 57
administr@@ 57
tile 57
allo@@ 57
station 57
f-@@ 57
satellite 57
Union 57
Sim@@ 57
2000 57
amp@@ 57
accompl@@ 57
Ah 57
Science 57
investi@@ 57
expression 57
tol@@ 57
anim@@ 57
duction 57
document@@ 57
condition 57
ridi@@ 57
Ki@@ 57
Cal@@ 57
Del@@ 57
MS 57
tube 57
V 56
Cl@@ 56
ulation 56
bout 56
Ab@@ 56
exploration 56
hau@@ 56
studio 56
patho@@ 56
chromo@@ 56
poly@@ 56
absor@@ 56
ee 56
ides 56
enci@@ 56
anks 56
s-@@ 56
Am@@ 56
larg@@ 56
prison 56
atr@@ 56
Hollywood 56
Ethiop@@ 56
C. 56
Obama 56
fossi@@ 55
automo@@ 55
rare 55
institu@@ 55
sculpture 55
Ni@@ 55
great@@ 55
happ@@ 55
ra 55
golf 55
vote 55
indi@@ 55
cape 55
musici@@ 55
stable 55
reci@@ 55
ganda 55
ins@@ 55
fav@@ 55
architec@@ 55
France 55
protection 55
robo@@ 55
agon@@ 55
Twitter 55
demo@@ 54
recomm@@ 54
Thomas 54
bloo@@ 54
abo@@ 54
tern@@ 54
pons 54
manipul@@ 54
Ko@@ 54
32 54
Ama@@ 54
liqui@@ 54
bacter@@ 54
Num@@ 54
tab@@ 54
perception 54
ames 54
accident 54
clas@@ 54
dent 54
sa@@ 54
Tit@@ 54
animation 54
Rome 54
instruc@@ 53
situations 53
fundament@@ 53
illed 53
analo@@ 53
Moore 53
quanti@@ 53
dit@@ 53
Pi@@ 53
Dan 53
im 53
pollen 53
instruments 53
uments 53
transpar@@ 53
rend@@ 53
activ@@ 53
tradition 53
ision 53
cident@@ 53
Gol@@ 53
Iran 53
mom@@ 53
ext 52
Gh@@ 52
biom@@ 52
- 52
notes 52
cab@@ 52
propos@@ 52
Du@@ 52
via 52
sible 52
Nature 52
Canada 52
correspon@@ 52
As@@ 52
neur@@ 52
Sol@@ 52
aspect 52
psy@@ 52
yer 52
mur@@ 52
transition 52
photograp@@ 52
fau@@ 52
ond 52
sin@@ 51
Char@@ 51
tiles 51
eck 51
year-@@ 51
sculp@@ 51
tension 51
Every@@ 51
Ob@@ 51
che 51
ient 51
ela 51
27 51
Har@@ 51
aliz@@ 51
gen 51
Marti@@ 51
authenti@@ 51
blogs 51
moder@@ 51
Sch@@ 51
exponenti@@ 51
antibio@@ 51
chap@@ 51
ints 51
circul@@ 51
21 51
signific@@ 51
institution 51
options 50
Robert 50
sim@@ 50
angible 50
domes@@ 50
Apple 50
pend 50
surfaces 50
intense 50
ym@@ 50
illing 50
onal@@ 50
Sou@@ 50
ait 50
aver@@ 50
erg@@ 50
piano 50
autonom@@ 50
occup@@ 50
v 50
orches@@ 50
cide 50
writ@@ 49
Oxford 49
orb@@ 49
num@@ 49
horiz@@ 49
Cu@@ 49
plans 49
Wil@@ 49
John@@ 49
satis@@ 49
tradi@@ 49
accumul@@ 49
Sil@@ 49
BC 49
bel 49
directions 49
contempor@@ 49
Juli@@ 49
Jer@@ 49
lin 49
Hom@@ 49
3D 49
liv@@ 49
new@@ 49
ount@@ 49
abor@@ 48
ples 48
sus 48
sust@@ 48
We@@ 48
dimension 48
ram@@ 48
grand 48
appl@@ 48
gran@@ 48
scop@@ 48
My@@ 48
perman@@ 48
sion@@ 48
Howard 48
Willi@@ 48
tac@@ 48
di 48
technique 48
YouTube 48
Congr@@ 47
amoun@@ 47
tests 47
aspects 47
univer@@ 47
formation 47
bile 47
dings 47
horrible 47
gig@@ 47
clients 47
Her@@ 47
farm@@ 47
Los 47
ress 47
icul@@ 47
hosp@@ 47
sses 47
astr@@ 47
isol@@ 47
ern@@ 47
fur 47
hallucin@@ 47
glamour 47
ar-@@ 46
Gore 46
Atlan@@ 46
ene@@ 46
public@@ 46
de-@@ 46
globe 46
bil@@ 46
inspiration 46
concepts 46
ort 46
messages 46
flexi@@ 46
esc@@ 46
are@@ 46
hypo@@ 46
gal@@ 46
centage 46
div@@ 46
ny 46
ine@@ 46
smar@@ 46
auth@@ 46
inspir@@ 46
toil@@ 46
crick@@ 46
philanthro@@ 46
spectac@@ 46
cruci@@ 46
Alex@@ 46
techniques 46
hai@@ 46
conn@@ 45
0 45
infec@@ 45
W 45
Mag@@ 45
Can@@ 45
plas@@ 45
47 45
ense 45
ac 45
pois@@ 45
quot@@ 45
Por@@ 45
ope 45
agr@@ 45
traits 45
empl@@ 45
berg 45
expert 45
gent@@ 45
2005 45
gin@@ 45
Ag@@ 45
Im@@ 45
fusion 45
syst@@ 45
que 45
crimin@@ 45
eur 45
agos 44
villages 44
Pan@@ 44
process@@ 44
ens@@ 44
tives 44
Boston 44
pin@@ 44
sciences 44
tour 44
Bon@@ 44
commun@@ 44
Q@@ 44
navig@@ 44
fab@@ 44
ew 44
centi@@ 44
Ear@@ 44
argu@@ 44
pot@@ 44
Mad@@ 43
contro@@ 43
populations 43
Stanford 43
minim@@ 43
sauce 43
Angeles 43
orange 43
illusion 43
aqu@@ 43
constr@@ 43
simulation 43
laser 43
angl@@ 43
jam@@ 43
Rwanda 43
graphi@@ 43
produ@@ 42
diver@@ 42
cen@@ 42
ette 42
logo 42
&@@ 42
Indi@@ 42
enth@@ 42
paraly@@ 42
Oc@@ 42
priv@@ 42
haps 42
.com 42
mirac@@ 42
pon 42
J 42
eas@@ 42
ki@@ 42
fiction 42
fron@@ 42
prototype 42
anthro@@ 42
cellent 42
li 42
nom@@ 41
attribu@@ 41
agricul@@ 41
micro-@@ 41
constitu@@ 41
tour@@ 41
Phili@@ 41
temper@@ 41
paras@@ 41
ires 41
observation 41
experts 41
indus@@ 41
vern@@ 41
ises 41
rom@@ 41
auc@@ 41
employ@@ 41
what@@ 41
heal@@ 41
objec@@ 41
mach@@ 41
eff@@ 41
concep@@ 41
trait 41
religions 41
recycl@@ 41
fam@@ 41
pel@@ 41
phase 41
symp@@ 41
medic@@ 41
AB 41
colle@@ 40
rent 40
ima@@ 40
lon@@ 40
65 40
habitat 40
ond@@ 40
Intern@@ 40
tum@@ 40
listen@@ 40
emble 40
Lin@@ 40
prototy@@ 40
accidents 40
aus@@ 40
19 40
26 40
anning 40
danger 40
soft 40
manif@@ 40
dipl@@ 40
potenti@@ 40
accessible 39
stitu@@ 39
vert 39
with@@ 39
convers@@ 39
harmon@@ 39
tin 39
his@@ 39
diff@@ 39
simil@@ 39
positi@@ 39
tice 39
catastrop@@ 39
occas@@ 39
ares 39
250 39
contra@@ 39
diction 39
relation 39
urr@@ 39
gras 39
La 39
essi@@ 38
big@@ 38
doubl@@ 38
infr@@ 38
Nations 38
diab@@ 38
stom@@ 38
xim@@ 38
favor@@ 38
q@@ 38
pic 38
vide 38
esp@@ 38
onom@@ 38
tiv@@ 38
innovations 37
trad@@ 37
ignor@@ 37
exam@@ 37
mon 37
efforts 37
compan@@ 37
phrase 37
collaboration 37
util@@ 37
lan@@ 37
cardi@@ 37
Aus@@ 37
articles 37
client 37
urity 37
hen@@ 37
fe 37
May@@ 37
op 37
conflic@@ 37
Ken@@ 37
ange 37
difficul@@ 37
color@@ 37
ario 37
wai@@ 36
maxim@@ 36
trou@@ 36
omb@@ 36
underst@@ 36
rest@@ 36
motivation 36
secon@@ 36
estation 36
camp@@ 36
lear@@ 36
neighbor@@ 36
got@@ 36
sph@@ 36
chose 36
Dev@@ 36
horri@@ 36
inno@@ 36
anni@@ 36
anger@@ 36
bizarre 36
Niger@@ 36
foie 36
succ@@ 35
parti@@ 35
immedi@@ 35
sex@@ 35
U 35
sias@@ 35
rup@@ 35
va 35
pai@@ 35
deed 35
Mer@@ 35
SA 35
terr@@ 35
tici@@ 35
ais@@ 35
nant 35
oi@@ 35
mun@@ 35
nec@@ 35
eries 35
altitude 35
ville 34
acqu@@ 34
ca 34
impres@@ 34
aband@@ 34
bud@@ 34
arrive 34
va@@ 34
teach@@ 34
mul@@ 34
Tu@@ 34
may@@ 34
myst@@ 34
strai@@ 34
ez 34
dren 34
se-@@ 34
atur@@ 34
opti@@ 34
physici@@ 34
obstac@@ 34
reti@@ 34
nes 34
Ever@@ 34
limit@@ 33
transport 33
Grand 33
sel 33
rel 33
beauti@@ 33
ast@@ 33
fort 33
si 33
add@@ 33
hall@@ 33
miss@@ 33
Tw@@ 33
fici@@ 33
aria 33
atu@@ 33
Ye@@ 33
gam@@ 33
popul@@ 33
lig@@ 33
rich@@ 33
lands@@ 33
glo@@ 33
ghter 33
internet 33
trag@@ 33
fru@@ 32
net@@ 32
publi@@ 32
visi@@ 32
confron@@ 32
dur@@ 32
complet@@ 32
sty@@ 32
venti@@ 32
Rob@@ 32
explosion 32
artic@@ 32
Y 32
alli@@ 32
Ap@@ 32
wn@@ 32
consul@@ 32
ato@@ 32
super 32
ause 32
fabri@@ 32
du 32
application 32
nat@@ 32
dau@@ 32
cid@@ 32
2,@@ 32
gir@@ 32
enly 32
nia 32
Chr@@ 32
chances 31
gie 31
som@@ 31
lou@@ 31
sof@@ 31
restaur@@ 31
trop@@ 31
bie 31
idi@@ 31
ou 31
pedia 31
solu@@ 31
treat@@ 31
colo@@ 31
oty@@ 31
destin@@ 31
secre@@ 31
zones 31
ettes 30
commerci@@ 30
ld 30
mode 30
titude 30
chim@@ 30
ancer 30
scann@@ 30
there@@ 30
regard 30
lowing 30
percep@@ 30
illu@@ 30
Pau@@ 30
midd@@ 30
ativity 30
inging 30
expos@@ 30
tem@@ 30
condi@@ 29
fantas@@ 29
vit@@ 29
rement 29
apes 29
clear@@ 29
corru@@ 29
poss@@ 29
jug@@ 29
magni@@ 29
traj@@ 29
enorm@@ 29
bet@@ 29
lit 29
prin@@ 29
ya 29
impression 29
entu@@ 29
parties 29
Val@@ 29
aim@@ 29
lev@@ 29
sa 29
fronti@@ 29
aly@@ 28
mainten@@ 28
ousness 28
success@@ 28
pollu@@ 28
comment 28
gens 28
assembl@@ 28
ech@@ 28
aise 28
obs 28
bure@@ 28
habit@@ 28
oto 28
fice 28
Franc@@ 28
civil@@ 28
perf@@ 28
ularly 28
Pu@@ 28
lis@@ 28
relations 28
epi@@ 27
run@@ 27
billi@@ 27
oblig@@ 27
ument@@ 27
quit@@ 27
Yor@@ 27
ors@@ 27
affec@@ 27
canc@@ 27
seem@@ 27
spati@@ 27
estern 27
industri@@ 27
route 27
scho@@ 27
quent 27
desc@@ 27
agent 27
cher@@ 27
ollywood 27
ard@@ 27
tap@@ 26
All@@ 26
mise 26
know@@ 26
polic@@ 26
physi@@ 26
Pre@@ 26
probl@@ 26
sat@@ 26
nuc@@ 26
Sal@@ 26
amb@@ 26
instant 26
suppl@@ 26
ches@@ 26
destruc@@ 26
Sci@@ 26
altern@@ 26
terrain 26
peti@@ 25
compr@@ 25
han@@ 25
immense 25
till@@ 25
termin@@ 25
regard@@ 25
extraordin@@ 25
pend@@ 25
hist@@ 25
rou@@ 25
til 25
uch 25
ric@@ 25
ser 25
Q 25
unes 25
Z 25
court 25
jus@@ 25
tel 25
Gro@@ 25
attend@@ 25
me-@@ 25
quel@@ 25
dure 25
batt@@ 25
compli@@ 25
web@@ 25
HI@@ 25
sons 25
knowle@@ 24
ci 24
exper@@ 24
Goo@@ 24
stly 24
acier 24
ode 24
pour 24
atten@@ 24
lik@@ 24
au 24
icity 24
wall@@ 24
mater@@ 24
pays 24
irs 24
anda 24
ergy 24
occasion 24
ID@@ 24
pens@@ 23
conom@@ 23
opin@@ 23
urb@@ 23
ami 23
pour@@ 23
bill@@ 23
ada 23
anci@@ 23
sus@@ 23
co 23
fashi@@ 23
sie 23
prise 22
responsi@@ 22
NA@@ 22
gent 22
cord 22
senti@@ 22
excit@@ 22
cin@@ 22
evid@@ 22
individu@@ 22
trib@@ 22
informa@@ 22
cus@@ 22
elop@@ 22
second@@ 22
coin 22
tible 22
chal@@ 22
aur@@ 21
tent@@ 21
pire 21
dou@@ 21
embl@@ 21
extra@@ 21
sir 21
magaz@@ 21
essence 21
hap@@ 21
Tro@@ 21
actu@@ 21
pati@@ 21
nucle@@ 21
conc@@ 21
les@@ 21
obser@@ 21
warm@@ 21
ri 21
agno@@ 21
Pak@@ 21
acro@@ 20
mobil@@ 20
asi@@ 20
regar@@ 20
decid@@ 20
pense 20
civi@@ 20
demand@@ 20
pond 20
ques 20
ry@@ 20
cident 20
Mid@@ 20
grou@@ 20
tely 20
NA 20
hors 20
angu@@ 20
cau@@ 20
philos@@ 20
eve 20
ood 20
ducation 20
atri@@ 20
isten 19
won@@ 19
through@@ 19
Afgh@@ 19
est-@@ 19
plic@@ 19
roy@@ 19
venue 19
bli@@ 19
observer 19
Ira@@ 19
quick@@ 19
centr@@ 19
titu@@ 19
capac@@ 19
nately 19
financi@@ 19
usage 19
tu 19
dents 19
eur@@ 19
atmosph@@ 19
mani@@ 18
aissance 18
tot@@ 18
ease 18
remark@@ 18
sour@@ 18
portable 18
journal 18
Jus@@ 18
coff@@ 18
dispar@@ 18
phy@@ 18
missions 18
ectu@@ 18
lement 18
Public 18
ograp@@ 18
entually 18
cris@@ 18
fus@@ 18
Isl@@ 17
chef 17
cass@@ 17
S. 17
Cert@@ 17
poll@@ 17
aire 17
sep@@ 17
iller 17
cracy 17
mati@@ 17
ectr@@ 17
mation 17
rie 17
Roy@@ 17
mari@@ 17
vin 17
ron@@ 17
reu@@ 17
ateur 17
ent-@@ 17
tish 17
bons 17
aura 17
oug@@ 17
ington 17
provo@@ 17
principal 17
ja@@ 17
chang@@ 16
tremend@@ 16
toire 16
oxy@@ 16
gars 16
allons 16
ures 16
sau@@ 16
asp@@ 16
aque 16
passage 16
velop@@ 16
eau 16
vill@@ 16
thi@@ 16
lication 16
sang 16
ebr@@ 16
appr@@ 16
% 16
Uni@@ 16
mi 16
affir@@ 16
behav@@ 16
resul@@ 16
avail@@ 16
fair@@ 16
mang@@ 16
IT 15
ween 15
Ok 15
bec@@ 15
Dav@@ 15
conception 15
é 15
pattern@@ 15
immen@@ 15
remar@@ 15
) 15
gest 15
rier 15
porter 15
lem@@ 15
orm@@ 15
surveill@@ 15
gram@@ 15
issu@@ 15
Av@@ 15
adol@@ 15
fric@@ 15
instr@@ 15
trai@@ 15
ouge 15
istr@@ 15
ore 15
bon 14
franch@@ 14
vis 14
Fro@@ 14
esterday 14
del 14
transi@@ 14
mons 14
pied 14
jour@@ 14
hundre@@ 14
ssi@@ 14
rels 14
com 14
yel@@ 14
escal@@ 14
esn 14
gether 14
logues 14
ials 14
prises 14
fabrication 14
sci@@ 14
sear@@ 14
fin 14
Americ@@ 14
caf@@ 14
ille 14
ston 13
sert 13
Ma 13
sever@@ 13
aller 13
cad@@ 13
grow@@ 13
condu@@ 13
Stan@@ 13
anima@@ 13
dru@@ 13
complex@@ 13
lem 13
iev@@ 13
Imag@@ 13
rer 13
ni 13
seri@@ 13
quel 13
probable 13
M. 13
gel@@ 13
alg@@ 13
lightly 13
organ@@ 12
commerce 12
ont 12
Stat@@ 12
isions 12
tribu@@ 12
ois 12
notic@@ 12
cit@@ 12
voyage 12
pian@@ 12
Cel@@ 12
istan 12
recy@@ 12
abe@@ 12
ateurs 12
fortu@@ 12
fabric@@ 12
terres@@ 12
ell-@@ 12
# 12
perspec@@ 12
march@@ 12
ö@@ 12
Joh@@ 11
propri@@ 11
performan@@ 11
aut@@ 11
tours 11
Rich@@ 11
lions 11
eil 11
cellu@@ 11
ford 11
nie 11
Pers@@ 11
iner 11
intell@@ 11
De 11
hav@@ 11
pren@@ 11
isons 10
Austr@@ 10
seu@@ 10
hind 10
milit@@ 10
nav@@ 10
oi 10
Ou@@ 10
cess@@ 10
scienti@@ 10
tran@@ 10
conscience 10
Beau@@ 10
impli@@ 10
premi@@ 10
bras 10
volution 10
ers@@ 10
elle 10
hic@@ 10
py@@ 10
atrice 10
correspond 10
studi@@ 10
apos@@ 10
diri@@ 10
durable 10
perfor@@ 10
payer 9
assur@@ 9
Micro@@ 9
iles 9
blan@@ 9
bibli@@ 9
intelli@@ 9
expen@@ 9
erie 9
extrem@@ 9
dos 9
natu@@ 9
pical 9
es-@@ 9
hore 9
enf@@ 9
umul@@ 9
petite 9
program@@ 9
queue 9
intellig@@ 9
explorer 9
nour@@ 9
certain@@ 9
gues 9
ester@@ 9
religi@@ 9
amour 9
habitu@@ 9
iser 9
Eu@@ 9
constru@@ 9
erre 9
egr@@ 9
fig@@ 9
— 9
pos 9
aires 8
ppe 8
enom@@ 8
thous@@ 8
ival@@ 8
obj@@ 8
rant 8
You@@ 8
augment@@ 8
Il 8
Wiki@@ 8
catastr@@ 8
wom@@ 8
+ 8
clair 8
000 8
bou@@ 8
á@@ 8
gau@@ 8
diseas@@ 8
Rw@@ 8
lier 8
Nig@@ 8
ante 8
Chin@@ 8
journ@@ 8
cule 8
IDS 8
adore 8
devi@@ 8
jet@@ 8
q 8
angi@@ 8
quette 7
fiel@@ 7
te-@@ 7
ument 7
enge 7
proces@@ 7
pover@@ 7
imes 7
famili@@ 7
aper@@ 7
ù 7
Ox@@ 7
agne 7
trem@@ 7
ministr@@ 7
craz@@ 7
arriv@@ 7
ationale 7
Angel@@ 7
exist@@ 7
ouv@@ 7
situ@@ 7
pont 7
accord 7
conten@@ 7
champ@@ 7
gratu@@ 7
ila 7
aut 7
eurs 7
cidents 7
descend@@ 7
ayons 7
riches 7
eces 7
sein 7
lever 7
ramen@@ 7
selves 7
dimen@@ 7
viv@@ 7
ping@@ 7
tionnaire 7
tier 7
prob@@ 7
Univers@@ 7
O2 7
fond 7
– 7
dus 7
fon@@ 7
Twit@@ 7
Stre@@ 7
irst 6
ainst 6
tiz@@ 6
chant 6
augmentation 6
trom@@ 6
Ja@@ 6
TE@@ 6
amen@@ 6
AD@@ 6
telev@@ 6
atis@@ 6
usement 6
sentiment 6
ieu 6
orge 6
rejo@@ 6
dan@@ 6
je 6
tech@@ 6
coup 6
Afri@@ 6
atti@@ 6
ó 6
cartes 6
spectacle 6
dess@@ 6
cens@@ 6
suite 6
cas 6
divis@@ 6
oir 6
mur 6
quarti@@ 6
agues 6
ules 5
impanz@@ 5
doll@@ 5
( 5
mosph@@ 5
Ce@@ 5
vos 5
cert@@ 5
auto-@@ 5
entre 5
conduit 5
brill@@ 5
aines 5
pie@@ 5
ON@@ 5
famil@@ 5
effor@@ 5
slow@@ 5
financ@@ 5
exi@@ 5
ec 5
Harv@@ 5
exemp@@ 5
derni@@ 5
par 5
lanc@@ 5
ais 5
nies 5
dire 5
atre 5
complic@@ 5
j 5
nou@@ 5
eci@@ 5
futu@@ 5
ente 5
vive 5
Fren@@ 5
voy@@ 5
Car 5
derson 5
quer 5
phil@@ 5
rase 5
Institu@@ 5
effic@@ 5
osau@@ 5
ü@@ 5
espr@@ 5
tware 4
VI@@ 4
changer 4
ensemble 4
tard 4
r. 4
orie 4
tau@@ 4
voir 4
espo@@ 4
lut@@ 4
oeil 4
bas 4
dans 4
Son 4
Le 4
Af@@ 4
vou@@ 4
vie 4
ecter 4
í@@ 4
chrom@@ 4
fier 4
astruc@@ 4
vend@@ 4
dn 4
premier 4
sional 4
factu@@ 4
z-@@ 4
isco 4
cules 4
elles 4
sop@@ 4
bale@@ 4
rester 4
comple@@ 4
atte@@ 4
non 4
stac@@ 4
maj@@ 4
ã@@ 4
enne 4
pas 4
chin@@ 4
masse 3
asse 3
your@@ 3
isse 3
tomb@@ 3
verts 3
signifi@@ 3
encore 3
ñ@@ 3
acter 3
esse 3
infrastruc@@ 3
flux 3
Plus 3
artis@@ 3
empor@@ 3
imself 3
Et 3
coeur 3
qui 3
minu@@ 3
liens 3
murs 3
histo@@ 3
mont@@ 3
= 3
nous 3
ources 3
parl@@ 3
fum@@ 3
princip@@ 3
iste 3
primer 3
dience 3
@ 3
km 3
celer@@ 3
ique 3
bey@@ 3
tex 3
dis 3
Amer@@ 3
Soleil 3
Califor@@ 3
jour 3
bour@@ 3
propos 3
ä@@ 3
ustr@@ 3
^ 3
ador@@ 3
maladies 3
pla@@ 3
nom 3
dre 3
au-@@ 3
vivre 3
assis 2
ù@@ 2
â@@ 2
grand-@@ 2
aï@@ 2
paig@@ 2
fond@@ 2
accessi@@ 2
petites 2
hig@@ 2
sorti@@ 2
communi@@ 2
poni@@ 2
dix 2
elop 2
trie 2
gag@@ 2
mots 2
lui 2
moi 2
onne 2
corps 2
formidable 2
grim@@ 2
cet 2
atement 2
passer 2
jau@@ 2
quo@@ 2
aux@@ 2
signi@@ 2
expon@@ 2
soul@@ 2
tat 2
etc. 2
Einste@@ 2
verture 2
flot@@ 2
culp@@ 2
aisse 2
lib@@ 2
rapport 2
quotidi@@ 2
connect@@ 2
Thom@@ 2
* 2
happen@@ 2
commen@@ 2
É@@ 2
porte 2
introdu@@ 2
lu 2
aux 2
Lond@@ 2
heu@@ 2
tique 2
faux 2
beau@@ 2
rien 2
ème 2
è@@ 2
flit 2
suj@@ 2
danger@@ 2
oeu@@ 2
vre 2
Tou@@ 2
antes 2
ons-@@ 2
sol 2
critique 2
cipl@@ 2
transformer 2
garde 2
Eh 2
Ca 2
décl@@ 2
tiques 2
sement 2
cuisine 2
donn@@ 2
ray@@ 2
tas 2
techni@@ 2
chez 2
inqui@@ 2
.000 1
Sur 1
inspi@@ 1
ć 1
dament@@ 1
physique 1
coup@@ 1
eté 1
rir 1
genre 1
achet@@ 1
olly@@ 1
aises 1
centre 1
commenc@@ 1
cach@@ 1
paradi@@ 1
Pour@@ 1
ectly 1
issons 1
Quand 1
prend 1
parle 1
tout 1
Je 1
vois 1
Des 1
tous 1
jours 1
fait 1
quelque 1
Une 1
bonheur 1
connais 1
Dans 1
Alors 1
sens 1
Mon 1
bord 1
esprit 1
tez 1
tunities 1
mis 1
aig@@ 1
mondiale 1
teur 1
sse 1
t-on 1
ativ@@ 1
timat@@ 1
é@@ 1
souv@@ 1
enir 1
ress@@ 1
hier 1
rend 1
personn@@ 1
hui 1
icro@@ 1
YouTu@@ 1
enthou@@ 1
pu 1
sif 1
logici@@ 1
anglais 1
moy@@ 1
eu 1
enfant 1
chauff@@ 1
euse 1
ajou@@ 1
soir 1
º@@ 1
Que 1
sable 1
stead 1
tifs 1
auv@@ 1
˚ 1
penses 1
tres 1
ré@@ 1
Lon@@ 1
lent 1
amis 1
angio@@ 1
puis@@ 1
… 1
ée 1
relation@@ 1
ront 1
tidi@@ 1
café 1
teau 1
penser 1
déc@@ 1
ò@@ 1
à@@ 1
raison 1
être 1
milieu 1
aill@@ 1
etc@@ 1
deg@@ 1
travail 1
placer 1
personnel 1
morale 1
obvi@@ 1
tiers 1
Les 1
scol@@ 1
gou@@ 1
jou@@ 1
bien 1
Elle 1
technologi@@ 1
chau@@ 1
illes 1
ennu@@ 1
Regard@@ 1
avez 1
aison 1
Merci 1
beaucoup 1
biz@@ 1
veill@@ 1
Premi@@ 1
onstr@@ 1
ó@@ 1
ennes 1
endant 1
tels 1
tera 1
opportun@@ 1
Tu 1
Pens@@ 1
font 1
Afghan@@ 1
asse@@ 1
complexes 1
onc@@ 1
£ 1
écl@@ 1
pom@@ 1
inste@@ 1
essay@@ 1
pendant 1
ées 1
ā@@ 1
bonne 1
mais 1
ça 1
Ça 1
deau 1
ois@@ 1
cultu@@ 1
tif 1
autor@@ 1
table@@ 1
quant 1
appel@@ 1
Actu@@ 1
bois 1
roul@@ 1
extraordinaire 1
ayant 1
sur 1
bizar@@ 1
champ 1
ande 1
rivi@@ 1
Japan@@ 1
eux 1
marche 1
parfait 1
cours 1
posé 1
iers 1
degre@@ 1
asser 1
cadre 1
vite 1
à 1
tien 1
